{"version":"1.0","truncation":null,"padding":null,"added_tokens":[{"id":0,"special":true,"content":"<s>","single_word":false,"lstrip":false,"rstrip":false,"normalized":false},{"id":1,"special":true,"content":"<pad>","single_word":false,"lstrip":false,"rstrip":false,"normalized":false},{"id":2,"special":true,"content":"</s>","single_word":false,"lstrip":false,"rstrip":false,"normalized":false},{"id":3,"special":true,"content":"<unk>","single_word":false,"lstrip":false,"rstrip":false,"normalized":false},{"id":4,"special":true,"content":"<mask>","single_word":false,"lstrip":false,"rstrip":false,"normalized":false},{"id":5,"special":true,"content":"<dedent>","single_word":false,"lstrip":false,"rstrip":false,"normalized":false},{"id":6,"special":true,"content":"<encdom>","single_word":false,"lstrip":false,"rstrip":false,"normalized":false},{"id":7,"special":true,"content":"<endmarker>","single_word":false,"lstrip":false,"rstrip":false,"normalized":false},{"id":8,"special":true,"content":"<indent>","single_word":false,"lstrip":false,"rstrip":false,"normalized":false},{"id":9,"special":true,"content":"<newline>","single_word":false,"lstrip":false,"rstrip":false,"normalized":false},{"id":10,"special":true,"content":"▁","single_word":false,"lstrip":false,"rstrip":false,"normalized":false},{"id":11,"special":true,"content":"<spacetoken>","single_word":false,"lstrip":false,"rstrip":false,"normalized":false},{"id":12,"special":true,"content":"<strnewline>","single_word":false,"lstrip":false,"rstrip":false,"normalized":false},{"id":13,"special":true,"content":"<tabsymbol>","single_word":false,"lstrip":false,"rstrip":false,"normalized":false}],"normalizer":{"type":"Sequence","normalizers":[]},"pre_tokenizer":{"type":"ByteLevel","add_prefix_space":false,"trim_offsets":true},"post_processor":{"type":"RobertaProcessing","sep":["</s>",2],"cls":["<s>",0],"trim_offsets":true,"add_prefix_space":false},"decoder":{"type":"ByteLevel","add_prefix_space":true,"trim_offsets":true},"model":{"dropout":null,"unk_token":null,"continuing_subword_prefix":null,"end_of_word_suffix":null,"fuse_unk":false,"vocab":{"<s>":0,"<pad>":1,"</s>":2,"<unk>":3,"<mask>":4,"<dedent>":5,"<encdom>":6,"<endmarker>":7,"<indent>":8,"<newline>":9,"▁":10,"<spacetoken>":11,"<strnewline>":12,"<tabsymbol>":13,"!":14,"\"":15,"#":16,"$":17,"%":18,"&":19,"'":20,"(":21,")":22,"*":23,"+":24,",":25,"-":26,".":27,"/":28,"0":29,"1":30,"2":31,"3":32,"4":33,"5":34,"6":35,"7":36,"8":37,"9":38,":":39,";":40,"<":41,"=":42,">":43,"?":44,"@":45,"A":46,"B":47,"C":48,"D":49,"E":50,"F":51,"G":52,"H":53,"I":54,"J":55,"K":56,"L":57,"M":58,"N":59,"O":60,"P":61,"Q":62,"R":63,"S":64,"T":65,"U":66,"V":67,"W":68,"X":69,"Y":70,"Z":71,"[":72,"\\":73,"]":74,"^":75,"_":76,"`":77,"a":78,"b":79,"c":80,"d":81,"e":82,"f":83,"g":84,"h":85,"i":86,"j":87,"k":88,"l":89,"m":90,"n":91,"o":92,"p":93,"q":94,"r":95,"s":96,"t":97,"u":98,"v":99,"w":100,"x":101,"y":102,"z":103,"{":104,"|":105,"}":106,"~":107,"¡":108,"¢":109,"£":110,"¤":111,"¥":112,"¦":113,"§":114,"¨":115,"©":116,"ª":117,"«":118,"¬":119,"®":120,"¯":121,"°":122,"±":123,"²":124,"³":125,"´":126,"µ":127,"¶":128,"·":129,"¸":130,"¹":131,"º":132,"»":133,"¼":134,"½":135,"¾":136,"¿":137,"À":138,"Á":139,"Â":140,"Ã":141,"Ä":142,"Å":143,"Æ":144,"Ç":145,"È":146,"É":147,"Ê":148,"Ë":149,"Ì":150,"Í":151,"Î":152,"Ï":153,"Ð":154,"Ñ":155,"Ò":156,"Ó":157,"Ô":158,"Õ":159,"Ö":160,"×":161,"Ø":162,"Ù":163,"Ú":164,"Û":165,"Ü":166,"Ý":167,"Þ":168,"ß":169,"à":170,"á":171,"â":172,"ã":173,"ä":174,"å":175,"æ":176,"ç":177,"è":178,"é":179,"ê":180,"ë":181,"ì":182,"í":183,"î":184,"ï":185,"ð":186,"ñ":187,"ò":188,"ó":189,"ô":190,"õ":191,"ö":192,"÷":193,"ø":194,"ù":195,"ú":196,"û":197,"ü":198,"ý":199,"þ":200,"ÿ":201,"Ā":202,"ā":203,"Ă":204,"ă":205,"Ą":206,"ą":207,"Ć":208,"ć":209,"Ĉ":210,"ĉ":211,"Ċ":212,"ċ":213,"Č":214,"č":215,"Ď":216,"ď":217,"Đ":218,"đ":219,"Ē":220,"ē":221,"Ĕ":222,"ĕ":223,"Ė":224,"ė":225,"Ę":226,"ę":227,"Ě":228,"ě":229,"Ĝ":230,"ĝ":231,"Ğ":232,"ğ":233,"Ġ":234,"ġ":235,"Ģ":236,"ģ":237,"Ĥ":238,"ĥ":239,"Ħ":240,"ħ":241,"Ĩ":242,"ĩ":243,"Ī":244,"ī":245,"Ĭ":246,"ĭ":247,"Į":248,"į":249,"İ":250,"ı":251,"Ĳ":252,"ĳ":253,"Ĵ":254,"ĵ":255,"Ķ":256,"ķ":257,"ĸ":258,"Ĺ":259,"ĺ":260,"Ļ":261,"ļ":262,"Ľ":263,"ľ":264,"Ŀ":265,"ŀ":266,"Ł":267,"ł":268,"Ń":269,"Ġâ":270,"ĸģ":271,"Ġâĸģ":272,"ne":273,"Ġ<":274,"Ġ,":275,"li":276,"line":277,"new":278,"newline":279,"de":280,"nt":281,"Ġ(":282,"Ġ)":283,"se":284,"in":285,"Ġ.":286,"Ġ0":287,"dent":288,"st":289,"re":290,"Ġ=":291,"or":292,"en":293,"Ġa":294,"Ġse":295,"Ġt":296,"Ġp":297,"om":298,"Ġ:":299,"Ġc":300,"on":301,"at":302,"Ġi":303,"Ġf":304,"er":305,"lf":306,"Ġself":307,"Ġ'":308,"str":309,"indent":310,"dedent":311,"me":312,"le":313,"Ġ#":314,"Ġ[":315,"strnewline":316,"he":317,"Ġ2":318,"enc":319,"Ġ]":320,"Ġw":321,"Ġ\"":322,"dom":323,"encdom":324,"Ġre":325,"al":326,"ar":327,"ion":328,"it":329,"ge":330,"ce":331,"Ġde":332,"Ġn":333,"Ġs":334,"Ġo":335,"ur":336,"ame":337,"ut":338,"Ġ1":339,"ct":340,"an":341,"Ġin":342,"Ġd":343,"mp":344,"Ġ3":345,"Ġthe":346,"Ġe":347,"ss":348,"Ġb":349,"ro":350,"Ġdef":351,"Ġm":352,"Ġ_":353,"Ġk":354,"ing":355,"il":356,"Ġan":357,"pe":358,"Ġif":359,"la":360,"ort":361,"lo":362,"Ġu":363,"ed":364,"ser":365,"get":366,"ot":367,"tur":368,"Ġimp":369,"turn":370,"ĠC":371,"ue":372,"fi":373,"ĠT":374,"ri":375,"Ġ\"\"":376,"id":377,"Ġr":378,"Ġ\"\"\"":379,"Ġ+":380,"pt":381,"Ġreturn":382,"Ġfor":383,"Ġand":384,"Ġimport":385,"od":386,"is":387,"ĠG":388,"ate":389,"te":390,"Ġis":391,"rom":392,"ĠS":393,"ol":394,"Ġas":395,"Ġto":396,"ĠA":397,"ic":398,"vi":399,"ĠF":400,"xt":401,"Ġfrom":402,"Ġof":403,"ver":404,"Ġ-":405,"Ġget":406,"th":407,"ype":408,"ĠN":409,"ch":410,"der":411,"Ġname":412,"ul":413,"qu":414,"ĠL":415,"ment":416,"Ġnot":417,"ap":418,"ck":419,"ĠI":420,"ve":421,"Ġ25":422,"Ġh":423,"un":424,"ad":425,"Ġfi":426,"__":427,"ble":428,"name":429,"ata":430,"ith":431,"et":432,"up":433,"ode":434,"est":435,"vice":436,"ĠP":437,"age":438,"Ġth":439,"gs":440,"ule":441,"lic":442,"ont":443,"ase":444,"Ġex":445,"one":446,"Ġor":447,"Ġg":448,"ation":449,"ath":450,"ense":451,"ure":452,"Ġ==":453,"ist":454,"Ġst":455,"tt":456,"Ġ__":457,"sert":458,"Ġl":459,"oc":460,"ect":461,"bj":462,"ĠO":463,"ĠR":464,"Ġcon":465,"but":466,"ml":467,"el":468,"Ġv":469,"lass":470,"ail":471,"qual":472,"Equal":473,"Ġres":474,"Ġassert":475,"es":476,"Ġ*":477,"Ġdi":478,"Ġfile":479,"type":480,"Ġ%":481,"ption":482,"Ġpro":483,"sion":484,"gin":485,"uid":486,"fo":487,"sc":488,"Ġbe":489,"are":490,"si":491,"ter":492,"icense":493,"ult":494,"Name":495,"ai":496,"op":497,"ub":498,"Ġâĸģ\"":499,"Ġch":500,"alue":501,"bject":502,"Ġlo":503,"pp":504,"ror":505,"and":506,"ite":507,"ac":508,"as":509,"ĠNone":510,"ey":511,"ime":512,"ĠD":513,"Ġli":514,"Ġar":515,"fig":516,"ĠV":517,"ĠLicense":518,"Ġstr":519,"Ġwith":520,"ature":521,"ry":522,"Pro":523,"ext":524,"ht":525,"lu":526,"art":527,"ner":528,"Ġtest":529,"all":530,"able":531,"Ġcom":532,"version":533,"ou":534,"Ġun":535,"ĠE":536,"00":537,"ra":538,"file":539,"orm":540,"stri":541,"di":542,"Ġ{":543,"Ġme":544,"Ġline":545,"Ġclass":546,"Ġwr":547,"wor":548,"ow":549,"ON":550,"ĠW":551,"rue":552,"Ġma":553,"Ġuser":554,"odule":555,"Ġlen":556,"Ġj":557,"ssion":558,"Vt":559,"ĠpVt":560,"ange":561,"per":562,"Ġapp":563,"red":564,"Ġ255":565,"Ġal":566,"Ġcont":567,"AR":568,"po":569,"ĠM":570,"Ġon":571,"LE":572,"ction":573,"Ġel":574,"ĠGuid":575,"Ġ}":576,"Ġso":577,"Ġby":578,"com":579,"ms":580,"ĠB":581,"Ġset":582,"low":583,"thod":584,"Prot":585,"IT":586,"pi":587,"ĠX":588,"Ġobject":589,"lugin":590,"Un":591,"Ġdata":592,"SE":593,"ens":594,"Ġsy":595,"util":596,"Ġelse":597,"List":598,"ho":599,"Ġ253":600,"ocol":601,"Ġ@":602,"Ġser":603,"aise":604,"ER":605,"gn":606,"vor":607,"Ġpre":608,"Ġpri":609,"less":610,"lavor":611,"Ġthis":612,"Ġexce":613,"put":614,"end":615,"ok":616,"Ppi":617,"ali":618,"Protocol":619,"UT":620,"IN":621,"pro":622,"ĠGuidProtocol":623,"ĠGuidProtocolPpi":624,"ly":625,"args":626,"ĠTrue":627,"ensor":628,"rror":629,"tr":630,"Ġthat":631,"Unless":632,"ore":633,"Ġit":634,"eld":635,"ack":636,"Ġfail":637,"ft":638,"Ġpo":639,"alse":640,"stribut":641,"Ġprint":642,"data":643,"form":644,"ste":645,"ent":646,"ls":647,"Ġpar":648,"roup":649,"ĠassertEqual":650,"eature":651,"que":652,"Ġsi":653,"Ġkey":654,"Ġuse":655,"ass":656,"info":657,"cess":658,"ance":659,"int":660,"pen":661,"Ġâĸģ'":662,"Ġvalue":663,"ES":664,"ci":665,"Ġraise":666,"01":667,"Ġ''":668,"Ġconfig":669,"ran":670,"ervice":671,"opy":672,"Ġwrite":673,"ĠfailUnless":674,"uf":675,"Ġy":676,"act":677,"ware":678,"url":679,"IS":680,"ty":681,"Ġ5":682,"ze":683,"Ġx":684,"init":685,"Ġad":686,"ĠfailUnlessEqual":687,"Re":688,"TI":689,"Ġ4":690,"Ġint":691,"ill":692,"Ġargs":693,"um":694,"Ġ\\":695,"ree":696,"ĠGet":697,"wargs":698,"ang":699,"ĠRe":700,"ache":701,"Error":702,"lif":703,"OR":704,"len":705,"Ġcase":706,"Ġelif":707,"ĠIn":708,"ttp":709,"late":710,"Ġversion":711,"Ġos":712,"ĠFalse":713,"Ġmethod":714,"Ġservice":715,"am":716,"his":717,"Ġne":718,"Ġrun":719,"AN":720,"ain":721,"ght":722,"out":723,"pla":724,"ity":725,"html":726,"word":727,"if":728,"ip":729,"our":730,"Ġpath":731,"pto":732,"Ġstart":733,"ftware":734,"oin":735,"Ġtype":736,"Ġwh":737,"ttri":738,"utils":739,"--":740,"ave":741,"con":742,"mit":743,"ww":744,"stance":745,"rent":746,"uth":747,"RU":748,"Ġen":749,"Ġpy":750,"ings":751,"uld":752,"ax":753,"cont":754,"nk":755,"rc":756,"ĠThis":757,"char":758,"Ġlog":759,"Ġunder":760,"ine":761,"md":762,"time":763,"ument":764,"Ġ!":765,"Ġer":766,"Ġare":767,"ati":768,"ĠThe":769,"ke":770,"ers":771,"Ġwe":772,"Ġkwargs":773,"quest":774,"//":775,"fe":776,"us":777,"ĠH":778,"Ġat":779,"Ġjoin":780,"RULE":781,"ag":782,"Ġ10":783,"Ġmodule":784,"ublic":785,"://":786,"EC":787,"qui":788,"und":789,"scri":790,"EN":791,"Ġ6":792,"omm":793,"Ġcan":794,"Ġresult":795,"rypto":796,"own":797,"bc":798,"min":799,"Ġfin":800,"Ġout":801,"thon":802,"work":803,"hould":804,"Fi":805,"cur":806,"Ġhe":807,"Ġla":808,"reate":809,"Ġsession":810,"Ġcls":811,"heck":812,"mple":813,"gnature":814,"Ġexcept":815,".\"":816,"==":817,"Service":818,"son":819,"ust":820,"Ġdict":821,"andl":822,"ader":823,"dit":824,"pre":825,"Ġtime":826,"Ġflavor":827,"Ġdate":828,"Ġesc":829,"Ġany":830,"idget":831,"Ġho":832,"CH":833,"fer":834,"sg":835,"res":836,"Ġac":837,"mplate":838,"tem":839,"text":840,"olle":841,"sible":842,"ant":843,"module":844,"path":845,"Ġpass":846,"Ġadd":847,"LI":848,"ay":849,"ener":850,"ning":851,"ĠK":852,"list":853,"ild":854,"stem":855,"ify":856,"ttribut":857,"andler":858,"In":859,"ab":860,"ial":861,"Ġext":862,"Ġmsg":863,"right":864,"licy":865,"Ġgroup":866,"Ġtry":867,"Ġtensor":868,"ari":869,"Ġno":870,"Ġshould":871,"ĠTest":872,"test":873,"ace":874,"ee":875,"ew":876,"plugin":877,"ron":878,"ĠU":879,"Ġ`":880,"Ġdis":881,"TA":882,"Ġ>":883,"ory":884,"Ġsp":885,"oding":886,"Ġlist":887,"Ġcontext":888,"buf":889,"ound":890,"Ġnew":891,"Ġwill":892,"Ġread":893,"Ġform":894,"Ġchar":895,"Ġbyte":896,"scription":897,"her":898,"ive":899,"jang":900,"uct":901,"Ġ8":902,"link":903,"ated":904,"attr":905,"Ġchange":906,"Ġappend":907,"jango":908,"mb":909,"Ġplugin":910,"Ġ'%":911,"lement":912,"arent":913,"Ġerror":914,"De":915,"ĠGener":916,"ĠAN":917,"ount":918,"Con":919,"ault":920,"par":921,"page":922,"rite":923,"with":924,"Ġ201":925,"Ġdoc":926,"Ġbase":927,"Ġmap":928,"Ġ**":929,"Ġmay":930,"Ġall":931,"12":932,"Xml":933,"bin":934,"ice":935,"ng":936,"rect":937,"Ġfeature":938,"met":939,"Ġnode":940,"Ġsh":941,"Ġdo":942,"ilter":943,"fix":944,"Ġhas":945,"adata":946,"Ġdistribut":947,"acl":948,"dir":949,"Ġ!=":950,"ID":951,"NU":952,"cmd":953,"iv":954,"Ġurl":955,"ord":956,"ary":957,"arget":958,"Ġrange":959,"ĠOR":960,"Ġarg":961,"ource":962,"Ġesccmd":963,"Ad":964,"SS":965,"br":966,"pon":967,"Ġ9":968,"Ġmode":969,"pect":970,"ĠSet":971,"api":972,"Ġoutput":973,"AL":974,"To":975,"py":976,"Ġcur":977,"Ġcopy":978,"ĠGNU":979,"ĠPublic":980,"Ġyou":981,"ĠGeneral":982,"RI":983,"ll":984,"ded":985,"dex":986,"set":987,"Ġsup":988,"Ġ16":989,"Ġdjango":990,"Ġexception":991,"alid":992,"rst":993,"rule":994,"xce":995,"instance":996,"Ġtext":997,"Ġpat":998,"ssage":999,"Ġlimit":1000,"ariable":1001,"AS":1002,"MA":1003,"har":1004,"pu":1005,"sy":1006,"va":1007,"Ġ7":1008,"Ġclo":1009,"ĠCopy":1010,"vert":1011,"ther":1012,"Ġpolicy":1013,"Ġdistributed":1014,"HO":1015,"PI":1016,"RE":1017,"to":1018,"ĠQ":1019,"Ġtarget":1020,"Ġper":1021,"ator":1022,"Ġ32":1023,"pec":1024,"ĠCON":1025,"ĠComm":1026,"ponse":1027,"ML":1028,"base":1029,"json":1030,"mlink":1031,"ton":1032,"Ġpl":1033,"Ġparent":1034,"method":1035,"gnatures":1036,"xception":1037,"Ġclose":1038,"HE":1039,"Hel":1040,"Not":1041,"ape":1042,"cal":1043,"date":1044,"ger":1045,"ies":1046,"oftware":1047,"lib":1048,"den":1049,"read":1050,"Ġsub":1051,"Ġobj":1052,"mport":1053,"ments":1054,"Ġfirst":1055,"size":1056,"ttribute":1057,"ample":1058,"class":1059,"gist":1060,"ock":1061,"ug":1062,"Ġenc":1063,"org":1064,"Ġte":1065,"Ġdtype":1066,"Ġbran":1067,"Ġifp":1068,"Ġofp":1069,"Ġhttp":1070,"Ġhave":1071,"ainer":1072,"Ġcomp":1073,"Ġcharact":1074,"ĠANY":1075,"RAN":1076,"TE":1077,"http":1078,"of":1079,"stall":1080,"Ġcall":1081,"Ġsc":1082,"Ġoption":1083,"ĠIf":1084,"lication":1085,"license":1086,"ĠOF":1087,"ĠOpen":1088,"button":1089,"tern":1090,"Ġstring":1091,"ĠWAR":1092,"Ġsoftware":1093,"ĠReturn":1094,"www":1095,"Ġpython":1096,"Field":1097,"Ġdatetime":1098,"Ġaccess":1099,"ĠCopyright":1100,"TH":1101,"count":1102,"igin":1103,"rap":1104,"ren":1105,"Ġct":1106,"atch":1107,"Ġopen":1108,"viron":1109,"Ġ--":1110,"ither":1111,"Ġorigin":1112,"Ġcomment":1113,"reds":1114,"point":1115,"play":1116,"Ġjoinpoint":1117,"curity":1118,"Ġhost":1119,"ĠWARRAN":1120,"..":1121,"You":1122,"ep":1123,"port":1124,"sit":1125,"lit":1126,"ind":1127,"ename":1128,"atform":1129,"Ġrequi":1130,"ions":1131,"Ġnum":1132,"Ġeither":1133,"peci":1134,"ĠfileName":1135,"ash":1136,"ally":1137,"Ġallow":1138,"Ġsignatures":1139,"Config":1140,"ainers":1141,"BUT":1142,"GE":1143,"OM":1144,"cache":1145,"orrent":1146,"Ġab":1147,"Ġter":1148,"Ġbut":1149,"Ġdefault":1150,"app":1151,"Ġfield":1152,"Ġprofile":1153,"Ġlock":1154,"ĠDEC":1155,"Ġwithout":1156,"ĠWIT":1157,"Ġsystem":1158,"ollect":1159,"ĠKey":1160,"Ġextra":1161,"Ġformat":1162,"Ġbranch":1163,"Ar":1164,"TY":1165,"Test":1166,"UL":1167,"doc":1168,"flavor":1169,"gra":1170,"import":1171,"ove":1172,"qx":1173,"ved":1174,"Ġsett":1175,"Ġrequest":1176,"ĠSee":1177,"ĠAn":1178,"Ġonly":1179,"ĠXml":1180,"ĠXML":1181,"stribution":1182,"Ġcurrent":1183,"22":1184,"AX":1185,"DER":1186,"OF":1187,"Sup":1188,"Value":1189,"ak":1190,"by":1191,"im":1192,"object":1193,"twork":1194,"user":1195,"Ġro":1196,"ĠYou":1197,"ned":1198,"Ġpart":1199,"ome":1200,"Ġcli":1201,"arch":1202,"Ġother":1203,"Ġbin":1204,"Ġmore":1205,"Ġimplement":1206,"ĠSt":1207,"ackage":1208,"config":1209,"containers":1210,"Ġfinder":1211,"ews":1212,"metadata":1213,"SSL":1214,"brary":1215,").":1216,"Di":1217,"ION":1218,"ake":1219,"group":1220,"mail":1221,"value":1222,"ĠJ":1223,"Ġtag":1224,"Ġ'/":1225,"Ġ12":1226,"fic":1227,"Ġisinstance":1228,"ĠNot":1229,"perty":1230,"Ġparse":1231,"Ġenv":1232,"Ġresults":1233,"Ġsplit":1234,"St":1235,"Text":1236,"bal":1237,"cre":1238,"oice":1239,"swith":1240,"Ġutils":1241,"ong":1242,"hed":1243,"Ġwar":1244,"Ġinit":1245,"old":1246,"Ġexc":1247,"Ġstate":1248,"ails":1249,"ĠDe":1250,"Ġwrap":1251,"Ġobjects":1252,"Ġserver":1253,"tring":1254,"Ġinter":1255,"Ġheader":1256,"Ġnova":1257,"Ġdocument":1258,"Ġsuper":1259,"HOUT":1260,"Helper":1261,"ĠOpenSSL":1262,"ĠWITHOUT":1263,"An":1264,"Crypto":1265,"LA":1266,"PA":1267,"RA":1268,"Se":1269,"Set":1270,"ber":1271,"fn":1272,"pare":1273,"sh":1274,"uild":1275,"lied":1276,"session":1277,"Ġauth":1278,"Ġcheck":1279,"ark":1280,"Ġspeci":1281,"Ġinstance":1282,"ĠSoftware":1283,"change":1284,"ĠRule":1285,"ulti":1286,"Ġchild":1287,"ipher":1288,"Ġenviron":1289,"TAB":1290,"Ġencoding":1291,"ĠOpenSSLCrypto":1292,"Id":1293,"cf":1294,"code":1295,"gth":1296,"ile":1297,"math":1298,"pk":1299,"write":1300,"yp":1301,"Ġle":1302,"Ġge":1303,"inax":1304,"Ġpage":1305,"Ġfol":1306,"hes":1307,"Ġdet":1308,"urce":1309,"Ġmath":1310,"Ġup":1311,"Ġforms":1312,"template":1313,"ick":1314,"ĠIS":1315,"Ġcomm":1316,"posit":1317,"Ġsource":1318,"Ġsys":1319,"assword":1320,"place":1321,"rectory":1322,"ĠCommon":1323,"mlinks":1324,"Arch":1325,"cfb":1326,"':":1327,"):":1328,"UR":1329,"aes":1330,"creds":1331,"ir":1332,"ili":1333,"nder":1334,"spec":1335,"torrent":1336,"use":1337,"ys":1338,"Ġq":1339,"ress":1340,"requi":1341,"rements":1342,"Ġfe":1343,"Ġfilter":1344,"Ġrender":1345,"cent":1346,"uture":1347,"Ġ11":1348,"Ġmust":1349,"log":1350,"Ġimplied":1351,"ĠCon":1352,"Ġgo":1353,"foo":1354,"aling":1355,"ollection":1356,"buffer":1357,"Ġpattern":1358,"gister":1359,"licenses":1360,"Ġctxt":1361,"Ġdetails":1362,"ArchList":1363,"ility":1364,"\"'":1365,"400":1366,"Case":1367,"Is":1368,"Widget":1369,"fil":1370,"mi":1371,"mal":1372,"oot":1373,"pinax":1374,"sing":1375,"tri":1376,"uuid":1377,"Ġz":1378,"ream":1379,"Ġcreate":1380,"Ġcpu":1381,"Ġfun":1382,"led":1383,"Ġ\".":1384,"uration":1385,"ameter":1386,"lag":1387,"ich":1388,"Ġ---":1389,"ĠNO":1390,"ĠItem":1391,"Ġgiv":1392,"ations":1393,"Ġunit":1394,"ITY":1395,"SEL":1396,"Ġprefix":1397,"ESS":1398,"cimal":1399,"rans":1400,"File":1401,"result":1402,"Ġdisplay":1403,"rence":1404,"Ġrequired":1405,")'":1406,"CK":1407,"CEN":1408,"Comm":1409,"ED":1410,"IL":1411,"PO":1412,"ST":1413,"Type":1414,"Tensor":1415,"User":1416,"amp":1417,"cord":1418,"ches":1419,"flow":1420,"future":1421,"nc":1422,"og":1423,"ph":1424,"pText":1425,"nes":1426,"ref":1427,"Ġtree":1428,"Ġcle":1429,"Ġcipher":1430,"ater":1431,"Ġfn":1432,"Ġrece":1433,"ansible":1434,"Ġindex":1435,"Ġui":1436,"temp":1437,"ĠFound":1438,"ull":1439,"vices":1440,"Ġrespect":1441,"stripe":1442,"Ġused":1443,"words":1444,"Ġwhich":1445,"ference":1446,"Ġplatform":1447,"Ġfollow":1448,"CENSE":1449,"Command":1450,"822":1451,"Char":1452,"Handler":1453,"bab":1454,"hash":1455,"key":1456,"opt":1457,"ps":1458,"rame":1459,"ump":1460,"zed":1461,"Ġend":1462,"def":1463,"reak":1464,"Ġtrans":1465,"Ġco":1466,"Ġcmd":1467,"Ġfound":1468,"arg":1469,"Ġinfo":1470,"Ġbuf":1471,"Ġbreak":1472,"idth":1473,"ĠSAX":1474,"ĠIN":1475,"uple":1476,"Ġorder":1477,"ather":1478,"dict":1479,"Ġprepare":1480,"formation":1481,"Ġstartswith":1482,"Ġmodels":1483,"Ġtemplate":1484,"position":1485,"Ġ-----":1486,"ĠFoundation":1487,".'":1488,"CT":1489,"Ex":1490,"Form":1491,"Feature":1492,"Guid":1493,"Of":1494,"``":1495,"afe":1496,"bel":1497,"back":1498,"ca":1499,"duct":1500,"ex":1501,"gu":1502,"gre":1503,"no":1504,"ook":1505,"Ġvi":1506,"rel":1507,"req":1508,"order":1509,"enapi":1510,"lect":1511,"Ġ200":1512,"alys":1513,"mpty":1514,"Ġbar":1515,"ingle":1516,"otal":1517,"ĠTHE":1518,"Ġrule":1519,"ĠForm":1520,"ĠLI":1521,"odel":1522,"ĠPro":1523,"Ġmake":1524,"pose":1525,"Ġyour":1526,"Ġnetwork":1527,"atible":1528,"bcrypto":1529,"Ġmapx":1530,"Ġfeatures":1531,"Advice":1532,"ĠQgs":1533,"gram":1534,"stributionAn":1535,"DistributionAn":1536,"ILITY":1537,"alysis":1538,"AM":1539,"CE":1540,"CName":1541,"Si":1542,"Sy":1543,"create":1544,"face":1545,"freq":1546,"ifi":1547,"nown":1548,"rs":1549,"wi":1550,"widget":1551,"Ġid":1552,"Ġregister":1553,"Ġdescription":1554,"Ġmod":1555,"fines":1556,"Ġrd":1557,"ĠAll":1558,"ĠFOR":1559,"Ġnamed":1560,"Ġ252":1561,"add":1562,"Ġdirectory":1563,"Ġprocess":1564,"ason":1565,"Ġstrok":1566,"Ġjust":1567,"comp":1568,"ĠXen":1569,"probab":1570,"TION":1571,"Ġwhile":1572,"content":1573,"Ġhere":1574,"Ġtensorflow":1575,"ĠcontextHelper":1576,"Defines":1577,"pages":1578,"ĠReturns":1579,"raph":1580,"ĠCommonDefines":1581,"Ġgiven":1582,"DistributionAnalysis":1583,"probability":1584,"*-":1585,"CA":1586,"For":1587,"String":1588,"aw":1589,"da":1590,"ff":1591,"from":1592,"ield":1593,"td":1594,"uage":1595,"vis":1596,"we":1597,"stamp":1598,"Ġ::":1599,"Ġcre":1600,"Ġcode":1601,"string":1602,"Ġwidth":1603,"Ġreason":1604,"allow":1605,"Ġev":1606,"ped":1607,"lock":1608,"ĠAr":1609,"Ġ-*-":1610,"ĠLO":1611,"vent":1612,"Ġhandler":1613,"names":1614,"ĠPo":1615,"Ġstore":1616,"Ġconform":1617,"Ġconvert":1618,"Ġvar":1619,"Ġresol":1620,"Ġâĸģ\"%":1621,"Ġlibcrypto":1622,"rant":1623,"Ġmessage":1624,"Ġlines":1625,"Ġmax":1626,"Ġcontent":1627,"TIES":1628,"usr":1629,"ditions":1630,"response":1631,"Ġ``":1632,"ĠWARRANTIES":1633,"SupArchList":1634,"requirements":1635,"mission":1636,"ĠQgsA":1637,"'t":1638,"DE":1639,"IR":1640,"NE":1641,"PE":1642,"True":1643,"XT":1644,"XX":1645,"bran":1646,"ging":1647,"iali":1648,"ja":1649,"not":1650,"oo":1651,"pb":1652,"the":1653,"table":1654,"tain":1655,"tings":1656,"}\"":1657,"sent":1658,"Ġsee":1659,"Ġpub":1660,"Ġitem":1661,"lete":1662,"Ġword":1663,"Ġsingle":1664,"ute":1665,"utf":1666,"Ġinformation":1667,"ĠFree":1668,"cket":1669,"Ġstep":1670,"Ġlater":1671,"Ġvalid":1672,"Ġproperty":1673,"sired":1674,"Ġload":1675,"Ġlink":1676,"ĠValue":1677,"ĠVariable":1678,"Ġstruct":1679,"ĠException":1680,"Ġsocket":1681,"Ġpost":1682,"Ġsix":1683,"Return":1684,"anguage":1685,"Ġlogger":1686,"Info":1687,"Ġtensors":1688,"attrs":1689,"Ġ2017":1690,"Ġcharacter":1691,"ĠAnsible":1692,"Ġspecific":1693,"Ġcommand":1694,"Ġmodify":1695,"ĠXenA":1696,"23":1697,"Cont":1698,"DA":1699,"Flag":1700,"SG":1701,"ams":1702,"auth":1703,"be":1704,"bug":1705,"main":1706,"pace":1707,"so":1708,"safe":1709,"ts":1710,"var":1711,"valid":1712,"war":1713,"yte":1714,"lis":1715,"inja":1716,"Ġident":1717,"Ġrel":1718,"Ġdec":1719,"Ġdevice":1720,"Ġdebug":1721,"Ġbod":1722,"Ġmark":1723,"Ġug":1724,"ĠCO":1725,"ĠChar":1726,"ĠTensor":1727,"Ġrlen":1728,"Ġraw":1729,"ĠAttribute":1730,"velo":1731,"etwork":1732,"ĠOK":1733,"Ġresponse":1734,"Ġprogram":1735,"items":1736,"ĠDi":1737,"Ġcomposition":1738,"ĠEU":1739,"ĠError":1740,"ray":1741,"ĠWrite":1742,"Ġusers":1743,"Ġcontain":1744,"host":1745,"ores":1746,"Ġparser":1747,"active":1748,"ĠGetString":1749,"length":1750,"Ġservices":1751,"cond":1752,"Ġlogging":1753,"uments":1754,"Ġlamb":1755,"CHAR":1756,"python":1757,"Ġcharacters":1758,"Ġscaling":1759,"Ġoriginal":1760,"Ġallowed":1761,"Ġroot":1762,"Ġclient":1763,"Ġimplemented":1764,"Ġinitial":1765,"Settings":1766,"OfList":1767,"Signature":1768,"ĠQgsAuth":1769,"branches":1770,"ĠGetStringOfList":1771,"Ġlambda":1772,"-%":1773,"/*":1774,"19":1775,"DID":1776,"FI":1777,"IO":1778,"NO":1779,"NESS":1780,"Network":1781,"Page":1782,"SI":1783,"TO":1784,"TON":1785,"TRI":1786,"crc":1787,"gment":1788,"ique":1789,"man":1790,"max":1791,"pache":1792,"sage":1793,"sub":1794,"ted":1795,"yn":1796,"Ġax":1797,"Ġsecond":1798,"Ġiter":1799,"error":1800,"arser":1801,"iting":1802,"Ġsw":1803,"utine":1804,"Ġ15":1805,"Ġinput":1806,"Ġinstall":1807,"Ġdump":1808,"Ġthere":1809,"Ġedit":1810,"Ġmock":1811,"Ġmatch":1812,"lable":1813,"lobal":1814,"ĠCom":1815,"ĠType":1816,"Ġ+=":1817,"pts":1818,"ĠAs":1819,"ĠFIT":1820,"ĠassertTrue":1821,"ops":1822,"ĠEV":1823,"ower":1824,"Ġmain":1825,"Ġapplication":1826,"ARTI":1827,"ĠMER":1828,"comment":1829,"IND":1830,"ING":1831,"Ġparams":1832,"Ġconfiguration":1833,"ĠInput":1834,"ANTAB":1835,"Ġwhen":1836,"Ġ!/":1837,"CHANTAB":1838,"Ġ>=":1839,"Ġerrors":1840,"Ġdoes":1841,"Ġpermission":1842,"amples":1843,"BUTTON":1844,"Ġabs":1845,"Ġterms":1846,"Ġsettings":1847,"ameters":1848,"ĠLOG":1849,"SettingsWidget":1850,"ĠFITNESS":1851,"ARTIC":1852,"ĠMERCHANTAB":1853,"ĠMERCHANTABILITY":1854,"',":1855,"),":1856,"201":1857,"56":1858,"False":1859,"Or":1860,"ach":1861,"co":1862,"ight":1863,"my":1864,"ns":1865,"password":1866,"vm":1867,"},":1868,"Ġutil":1869,"nection":1870,"sett":1871,"ension":1872,"Ġattri":1873,"Ġcal":1874,"Ġcrc":1875,"Ġite":1876,"Ġfinfo":1877,"Ġfree":1878,"Ġfull":1879,"ersion":1880,"Ġop":1881,"Ġover":1882,"Ġdlen":1883,"ĠCN":1884,"ĠCreate":1885,"ĠTO":1886,"ĠNode":1887,"ĠNews":1888,"apac":1889,"admin":1890,"ĠPUR":1891,"ĠPARTIC":1892,"Ġexp":1893,"Ġexist":1894,"Ġstream":1895,"Ġlanguage":1896,"Ġvariable":1897,"ĠassertFalse":1898,"types":1899,"sive":1900,"ĠWe":1901,"Ġusername":1902,"percent":1903,"Ġalong":1904,"SET":1905,"INE":1906,"ftime":1907,"Ġxenapi":1908,"ENT":1909,"Ġfind":1910,"====":1911,"Ġflavorid":1912,"ĠKIND":1913,"Ġextension":1914,"plugins":1915,"Ġshape":1916,"ĠCONF":1917,"Ġoptions":1918,"ULAR":1919,"oldown":1920,"Ġunittest":1921,"POSE":1922,"Ġeven":1923,"ĠconformTo":1924,"ĠXenAPI":1925,"2312":1926,"ĠQgsAuthSettingsWidget":1927,"TRIBUT":1928,"Ġattrib":1929,"Ġitems":1930,"apacity":1931,"ĠPURPOSE":1932,"ĠPARTICULAR":1933,"04":1934,"Item":1935,"Node":1936,"RO":1937,"Sc":1938,"Up":1939,"asc":1940,"btain":1941,"cli":1942,"clu":1943,"fter":1944,"gh":1945,"ii":1946,"ide":1947,"ject":1948,"mory":1949,"move":1950,"oid":1951,"sv":1952,"void":1953,"wist":1954,"xp":1955,"}.":1956,"ses":1957,"security":1958,"Ġ...":1959,"stant":1960,"Ġsecurity":1961,"Ġcoding":1962,"Ġcollection":1963,"atus":1964,"Ġfro":1965,"Ġframe":1966,"ert":1967,"Ġ24":1968,"Ġdesired":1969,"Ġobtain":1970,"Ġ19":1971,"tection":1972,"ĠApache":1973,"ĠFeature":1974,"ĠLi":1975,"Ġgather":1976,"elpText":1977,"Ġdir":1978,"Ġproce":1979,"fore":1980,"Ġbefore":1981,"Ġstrftime":1982,"files":1983,"strip":1984,"Ġjson":1985,"Ġjinja":1986,"ĠMode":1987,"Ġpreference":1988,"process":1989,"stener":1990,"Ġkeys":1991,"IService":1992,"ĠHelpText":1993,"ferred":1994,"mbol":1995,"deny":1996,"ĠWARRANTY":1997,"Ġtermin":1998,"ollectd":1999,"Ġgener":2000,"Ġgover":2001,"Ġfunc":2002,"Ġreceiv":2003,"AME":2004,"widgets":2005,"Ġstroke":2006,"compatible":2007,"vision":2008,"ĠValueError":2009,"Ġbody":2010,"ĠDict":2011,"subscription":2012,"ĠAssert":2013,"ĠNodeList":2014,"'s":2015,"('":2016,"As":2017,"GS":2018,"LO":2019,"License":2020,"Source":2021,"Some":2022,"_'":2023,"capacity":2024,"day":2025,"essage":2026,"ful":2027,"handler":2028,"hqx":2029,"ized":2030,"val":2031,"nter":2032,"Ġattribut":2033,"Ġattribute":2034,"Ġafter":2035,"Ġtotal":2036,"Ġport":2037,"strap":2038,"Ġ23":2039,"Ġwidget":2040,"Ġwtd":2041,"Ġref":2042,"Ġredi":2043,"Ġden":2044,"Ġevent":2045,"Ġknown":2046,"Ġansible":2047,"load":2048,"served":2049,"ĠCont":2050,"ĠGB":2051,"icode":2052,"vel":2053,"Ġhqx":2054,"unction":2055,"Ġgraph":2056,"Ġproduct":2057,"six":2058,"Ġchoice":2059,"pplication":2060,"ask":2061,"ĠLicensed":2062,"Ġunique":2063,"Ġmetri":2064,"Ġclassmethod":2065,"Ġcontin":2066,"ĠBAS":2067,"Ġsymlinks":2068,"stribute":2069,"Ġ'''":2070,"chars":2071,"press":2072,"LICENSE":2073,"parse":2074,"REQ":2075,"ollector":2076,"Ġwrapped":2077,"Ġinterface":2078,"ickle":2079,"filename":2080,"ootstrap":2081,"results":2082,"Ġcooldown":2083,"FeatureFlag":2084,"ifier":2085,"Ġresolve":2086,"Ġpublis":2087,"Returns":2088,"Content":2089,"ascii":2090,"Ġcollections":2091,"Ġfroz":2092,"Ġredistribute":2093,"Ġmetric":2094,"ĠBASIS":2095,"Ġpublished":2096,"$\"":2097,");":2098,"/>":2099,"ADER":2100,"Bug":2101,"Check":2102,"DIT":2103,"DEC":2104,"DIR":2105,"GR":2106,"LU":2107,"Multi":2108,"News":2109,"RC":2110,"ZE":2111,"cp":2112,"eded":2113,"for":2114,"iod":2115,"iew":2116,"ost":2117,"obuf":2118,"ping":2119,"rt":2120,"run":2121,"source":2122,"}-":2123,"ĠUnless":2124,"liance":2125,"ork":2126,"ors":2127,"orrect":2128,"Ġagre":2129,"Ġsearch":2130,"Ġpw":2131,"omet":2132,"Ġcron":2133,"ating":2134,"Ġfil":2135,"Ġflo":2136,"Ġwhe":2137,"Ġ\"%":2138,"Ġrecur":2139,"Ġrecord":2140,"its":2141,"Ġdel":2142,"Ġdecimal":2143,"Ġnct":2144,"Ġsort":2145,"uto":2146,"Ġ18":2147,"Ġbuild":2148,"row":2149,"loc":2150,"Ġusing":2151,"ĠCheck":2152,"ics":2153,"ical":2154,"ĠFlavor":2155,"apache":2156,"ĠPy":2157,"licable":2158,"Ġexpress":2159,"Ġ====":2160,"Ġstop":2161,"ĠOGR":2162,"Ġfiles":2163,"ĠVersion":2164,"ĠView":2165,"000":2166,"Ġwriting":2167,"Ġapplicable":2168,"ĠsetUp":2169,"Protobuf":2170,"hook":2171,"UTH":2172,"Ġuseful":2173,"Ġadvices":2174,"Ġinte":2175,"Ġmethods":2176,"amic":2177,"Ġneed":2178,"Ġnext":2179,"plain":2180,"context":2181,"Ġerr":2182,"ative":2183,"Ġweave":2184,"Ġlaw":2185,"Ġlabel":2186,"ditor":2187,"Ġhope":2188,"ays":2189,"aces":2190,"ĠUse":2191,"Ġspaces":2192,"Deferred":2193,"Ġhasattr":2194,"Ġlimitations":2195,"symlinks":2196,"PIC":2197,"ĠCONDIT":2198,"Notify":2199,"Ġcompliance":2200,"ĠDECSEL":2201,"TestCase":2202,"image":2203,"Ġparts":2204,"Ġbinascii":2205,"IONS":2206,"Ġwarrant":2207,"Select":2208,"Ġtranslate":2209,"ĠPoint":2210,"DATA":2211,"vars":2212,"ynamic":2213,"Ġpermissions":2214,"settings":2215,"wisted":2216,"ĠLibrary":2217,"Ġgoverning":2218,"Ġreceived":2219,"ĠknownBug":2220,"Ġagreed":2221,"Ġfloat":2222,"Ġ=====":2223,"ĠViewConfig":2224,"ĠCONDITIONS":2225,"Ġwarranty":2226,"\"^":2227,"\");":2228,"200":2229,"256":2230,"66":2231,":%":2232,"Com":2233,"DO":2234,"Exception":2235,"FLA":2236,"KE":2237,"Key":2238,"MP":2239,"Path":2240,"Parser":2241,"Rect":2242,"Scre":2243,"TW":2244,"Tab":2245,"UP":2246,"ast":2247,"bar":2248,"do":2249,"ered":2250,"email":2251,"fact":2252,"gen":2253,"kwargs":2254,"llable":2255,"mant":2256,"match":2257,"ox":2258,"package":2259,"su":2260,"sIn":2261,"vail":2262,"xA":2263,"xfe":2264,"Ġright":2265,"Ġ<=":2266,"lines":2267,"index":2268,"enChar":2269,"Ġpackage":2270,"Ġcapi":2271,"Ġim":2272,"erm":2273,"Ġret":2274,"Ġrepo":2275,"Ġreset":2276,"Ġnp":2277,"Ġsu":2278,"Ġok":2279,"Ġone":2280,"Ġbit":2281,"rol":2282,"server":2283,"ĠCUP":2284,"ĠTe":2285,"ĠTo":2286,"ĠSU":2287,"ĠSup":2288,"ols":2289,"older":2290,"Ġtok":2291,"ĠgetT":2292,"ĠLes":2293,"uncal":2294,"Ġexpect":2295,"enset":2296,"ĠRun":2297,"ĠRect":2298,"Ġbeam":2299,"ĠWSG":2300,"Ġcontri":2301,"Ġsymlink":2302,"ĠassertEquals":2303,"inter":2304,"Ġvalues":2305,"ISTRIBUT":2306,"Request":2307,"TIO":2308,"Ġinto":2309,"umber":2310,"ĠInstall":2311,"Ġrunning":2312,"Ġtimestamp":2313,"Ġhook":2314,"Ġpassword":2315,"ials":2316,"ĠTestCase":2317,"eek":2318,"Ġchanged":2319,"HEADER":2320,"THER":2321,"GET":2322,"ĠDECS":2323,"objects":2324,"username":2325,"ĠDevelo":2326,"specs":2327,"ĠConvert":2328,"ĠFormMulti":2329,"wise":2330,"ytes":2331,"Ġidentifier":2332,"SIZE":2333,"ĠEVP":2334,"ĠInputSource":2335,"Ġterminal":2336,"ĠAssertScre":2337,"Ġcontinue":2338,"Ġfrozenset":2339,"Checked":2340,"DECSEL":2341,"RectEqual":2342,"mantics":2343,"sInRectEqual":2344,"vailable":2345,"enCharsInRectEqual":2346,"ĠLesser":2347,"ĠWSGI":2348,"ĠFormMultiPage":2349,"ĠAssertScreenCharsInRectEqual":2350,"'\"":2351,"11":2352,"BR":2353,"DISTRIBUT":2354,"Enc":2355,"EXT":2356,"FREQ":2357,"None":2358,"Password":2359,"TT":2360,"Tuple":2361,"Term":2362,"Usage":2363,"aned":2364,"book":2365,"cate":2366,"ec":2367,"em":2368,"function":2369,"io":2370,"iTerm":2371,"lan":2372,"node":2373,"ood":2374,"pack":2375,"src":2376,"ting":2377,"yer":2378,"ĠUn":2379,"section":2380,"segment":2381,"inder":2382,"enari":2383,"Ġseen":2384,"Ġtail":2385,"Ġcol":2386,"Ġfname":2387,"leted":2388,"hex":2389,"Ġ22":2390,"Ġwork":2391,"Ġrest":2392,"Ġretur":2393,"Ġremove":2394,"Ġnon":2395,"Ġsame":2396,"Ġinst":2397,"Ġdone":2398,"Ġdown":2399,"Ġdynamic":2400,"mpPath":2401,"Ġmin":2402,"rim":2403,"ripts":2404,"Ġrax":2405,"pted":2406,"ĠSy":2407,"ĠService":2408,"ĠSOF":2409,"olute":2410,"ĠAl":2411,"vize":2412,"ĠFrom":2413,"Ġ->":2414,"thing":2415,"derr":2416,"Ġnames":2417,"mental":2418,"unk":2419,"ĠPar":2420,"Ġorg":2421,"Ġgu":2422,"Ġgen":2423,"Ġglobal":2424,"ists":2425,"ĠRight":2426,"ĠfileEx":2427,"Ġ%(":2428,"Ġarray":2429,"ĠEx":2430,"0000":2431,"Ġmet":2432,"ARE":2433,"ctions":2434,"ĠBuild":2435,"gnu":2436,"ĠGuidProtocolPpiXml":2437,"Ġkeywords":2438,"Ġxml":2439,"Rege":2440,"Regist":2441,"ĠReserved":2442,"ORDER":2443,"ĠInc":2444,"ĠInit":2445,"Ġneeded":2446,"ativize":2447,"ager":2448,"mplement":2449,"ustom":2450,"Ġaddress":2451,"128":2452,"Ġsupport":2453,"ĠQue":2454,"bases":2455,"Ġnumber":2456,"Ġprofiles":2457,"Ġlocker":2458,"TYPIC":2459,"Ġsetting":2460,"Ġwrapper":2461,"PATH":2462,"RATIO":2463,"TABLE":2464,"Ġmathutil":2465,"Ġfeed":2466,"IsSelect":2467,"filer":2468,"ĠNOTE":2469,"arguments":2470,"ForName":2471,"Ġrelativize":2472,"ĠAttributeList":2473,"192":2474,"FILE":2475,"ĠconfigurationTab":2476,"Ġabsolute":2477,"Ġcalled":2478,"client":2479,"Ġproceed":2480,"Ġwhere":2481,"FLAGS":2482,"TWARE":2483,"ĠgetTmpPath":2484,"ytesIO":2485,"DISTRIBUTION":2486,"enario":2487,"Ġreturned":2488,"ĠSOFTWARE":2489,"ĠRights":2490,"ĠfileExists":2491,"TYPICAL":2492,"IsSelected":2493,"ĠconfigurationTabIsSelected":2494,"ĠgetTmpPathForName":2495,"([":2496,"/$\"":2497,"13":2498,"AB":2499,"Class":2500,"Element":2501,"FSET":2502,"GES":2503,"Good":2504,"IM":2505,"IP":2506,"LD":2507,"Model":2508,"NAME":2509,"Object":2510,"PP":2511,"VE":2512,"\\\\":2513,"ags":2514,"aved":2515,"bb":2516,"dle":2517,"dis":2518,"eve":2519,"filter":2520,"find":2521,"fake":2522,"gb":2523,"holder":2524,"latform":2525,"model":2526,"over":2527,"public":2528,"pay":2529,"power":2530,"tml":2531,"true":2532,"unt":2533,"voice":2534,"wer":2535,"ling":2536,"dentials":2537,"stion":2538,"Ġsepar":2539,"Ġtyp":2540,"Ġcsv":2541,"Ġcustom":2542,"Ġign":2543,"Ġfp":2544,"Ġ'__":2545,"les":2546,"Ġwant":2547,"Ġreplace":2548,"ard":2549,"itch":2550,"Ġns":2551,"Ġdp":2552,"Ġdns":2553,"Ġ30":2554,"Ġkill":2555,"Ġuid":2556,"ĠCName":2557,"field":2558,"ric":2559,"iddle":2560,"Ġrv":2561,"Ġforce":2562,"ates":2563,"ĠSe":2564,"ĠField":2565,"ĠFInfo":2566,"xtx":2567,"very":2568,"Ġ-=":2569,"quenc":2570,"Ġhtml":2571,"ured":2572,"ĠRoot":2573,"Ġconditions":2574,"Ġresource":2575,"Ġlibrary":2576,"artic":2577,"abled":2578,"policy":2579,"ĠBase":2580,"aises":2581,"Ġpresent":2582,"prof":2583,"stead":2584,"ĠconfigId":2585,"uffix":2586,"Ġyield":2587,"Reader":2588,"wordcount":2589,"atio":2590,"Ġweb":2591,"Ġattemp":2592,"minTuple":2593,"pression":2594,"Input":2595,"AdminTuple":2596,"Ġmodel":2597,"MACH":2598,"tobuf":2599,"Ġsubscription":2600,"Tests":2601,"ĠXMLReader":2602,"OFFSET":2603,"Ġupdate":2604,"used":2605,"Ġfilters":2606,"Username":2607,"Ġcleaned":2608,"default":2609,"cause":2610,"ĠLICENSE":2611,"rsrc":2612,"Ġloads":2613,"ĠCharField":2614,"Ġeditw":2615,"ĠComment":2616,"Ġvariables":2617,"Scripts":2618,"Ġdeny":2619,"Ġhqxdata":2620,"Ġfilename":2621,"factor":2622,"Ġcontrib":2623,"ĠDECSCA":2624,"ĠDeveloper":2625,"ĠWSGIRequest":2626,"ĠFromXml":2627,"Ġmetadata":2628,"Registered":2629,"untime":2630,")\"":2631,"03":2632,"08":2633,"16":2634,"48":2635,"AT":2636,"Bloc":2637,"En":2638,"GIN":2639,"Lock":2640,"OL":2641,"PR":2642,"Plugin":2643,"Run":2644,"UN":2645,"VER":2646,"\\\"":2647,"feature":2648,"gits":2649,"ied":2650,"ize":2651,"mer":2652,"now":2653,"oy":2654,"pher":2655,"tree":2656,"tag":2657,"uil":2658,"ways":2659,"xy":2660,"Ã¼":2661,"ÃŃ":2662,"Ġ/":2663,"Ġqu":2664,"Ġutf":2665,"network":2666,"status":2667,"return":2668,"orator":2669,"Ġtmp":2670,"Ġpack":2671,"Ġpprof":2672,"Ġcreds":2673,"Ġcorrect":2674,"Ġfla":2675,"Ġfill":2676,"Ġ'.'":2677,"lease":2678,"Ġ20":2679,"Ġ28":2680,"Ġsrc":2681,"Ġsaved":2682,"Ġopt":2683,"ans":2684,"Ġinstead":2685,"Ġthey":2686,"Ġent":2687,"Ġemail":2688,"ssi":2689,"Ġbad":2690,"Ġback":2691,"Ġdefine":2692,"Ġmove":2693,"Ġmulti":2694,"Ġance":2695,"label":2696,"rint":2697,"Ġrle":2698,"Ġrstrip":2699,"ptr":2700,"ĠString":2701,"ĠApplication":2702,"ĠgetL":2703,"chine":2704,"ĠInter":2705,"ado":2706,"__'":2707,"ithub":2708,"update":2709,"Ġthen":2710,"licies":2711,"Ġexit":2712,"Ġstub":2713,"Ġconnection":2714,"esc":2715,"ptions":2716,"Ġproper":2717,"teral":2718,"aint":2719,"ĠDE":2720,"rypted":2721,"distribution":2722,"Ġmachine":2723,"ĠBytesIO":2724,"Ġsetup":2725,"ĠXXX":2726,"Ġsymbol":2727,"gnized":2728,"profiler":2729,"lyRegistered":2730,"Ġparsing":2731,"Ġsize":2732,"cipher":2733,"Ġwritemath":2734,"Ġxs":2735,"Ġ40":2736,"ummy":2737,"acheLock":2738,"ANCE":2739,"ĠHash":2740,"Ġmodules":2741,"Ġescio":2742,"LIB":2743,"abs":2744,"ĠUSE":2745,"ĠnewlyRegistered":2746,"param":2747,"Ġshut":2748,"Add":2749,"MAX":2750,"system":2751,"Ġperiod":2752,"HelpText":2753,"TEQ":2754,"Ġctx":2755,"ĠcommentBloc":2756,"OMM":2757,"Ġfields":2758,"docs":2759,"SupM":2760,"byte":2761,"Ġroutine":2762,"Ġbinhex":2763,"ĠJIS":2764,"cret":2765,"Ġservers":2766,"Ġzf":2767,"FileName":2768,"TensorSignature":2769,"Ġreceive":2770,"Ġindexes":2771,"Format":2772,"Ġvirt":2773,"System":2774,"address":2775,"web":2776,"locked":2777,"Ġdecdata":2778,"ĠTensorSignature":2779,"NOTEQ":2780,"Ġswitch":2781,"cognized":2782,"ĠTODO":2783,"NodeAdminTuple":2784,"Ġgenerate":2785,"ĠTemplate":2786,"Ġexpected":2787,"EXTRA":2788,"TTP":2789,"nodes":2790,"ĠParameters":2791,"Ġguide":2792,"Regexp":2793,"ĠInitial":2794,"payment":2795,"Ġkillwords":2796,"iddleware":2797,"MACHINE":2798,"Ġwritemathid":2799,"ĠHashable":2800,"!\"":2801,"/\"":2802,"18":2803,"24":2804,"99":2805,":\"":2806,">\"":2807,"??":2808,"AUTH":2809,"Base":2810,"Collection":2811,"Collectd":2812,"CLU":2813,"DB":2814,"DS":2815,"FA":2816,"Flow":2817,"GIS":2818,"HER":2819,"KER":2820,"Message":2821,"No":2822,"PU":2823,"PY":2824,"Parent":2825,"QName":2826,"Res":2827,"Raises":2828,"Ste":2829,"SRC":2830,"TD":2831,"UG":2832,"_:":2833,"aml":2834,"cle":2835,"cred":2836,"cpu":2837,"ding":2838,"ebook":2839,"gol":2840,"github":2841,"ix":2842,"iz":2843,"ld":2844,"number":2845,"rb":2846,"ratio":2847,"sses":2848,"sparse":2849,"tx":2850,"tin":2851,"txt":2852,"ties":2853,"ual":2854,"wh":2855,"wo":2856,"week":2857,"xa":2858,"zer":2859,"Ġ&":2860,"Ġquest":2861,"nect":2862,"listener":2863,"device":2864,"delete":2865,"semantics":2866,"ince":2867,"rely":2868,"reng":2869,"record":2870,"env":2871,"enserver":2872,"Ġag":2873,"Ġatt":2874,"Ġsecret":2875,"Ġtask":2876,"Ġtrun":2877,"Ġcm":2878,"Ġcop":2879,"Ġcrypto":2880,"Ġcount":2881,"Ġfake":2882,"Ġ'.":2883,"Ġ'>":2884,"stry":2885,"struct":2886,"stroy":2887,"message":2888,"header":2889,"Ġ21":2890,"Ġwa":2891,"Ġwas":2892,"Ġ\"{":2893,"iter":2894,"ged":2895,"Ġnow":2896,"Ġsave":2897,"Ġsample":2898,"Ġsuffix":2899,"uring":2900,"Ġ100":2901,"ctx":2902,"Ġinclu":2903,"Ġdon":2904,"Ġthem":2905,"Ġeach":2906,"Ġbet":2907,"Ġblan":2908,"routine":2909,"Ġmy":2910,"Ġmox":2911,"login":2912,"Ġuuid":2913,"edError":2914,"ĠCacheLock":2915,"ĠCANCE":2916,"ĠTmp":2917,"idden":2918,"Ġisfile":2919,"ĠShould":2920,"Ġtop":2921,"ĠAd":2922,"ĠFilter":2923,"ĠNow":2924,"Ġnotice":2925,"ĠIService":2926,"Ġhand":2927,"ĠPRO":2928,"lican":2929,"Ġexamples":2930,"onent":2931,"Ġgid":2932,"ĠOTHER":2933,"ĠRet":2934,"Ġconversion":2935,"Ġconstant":2936,"ailure":2937,"ĠassertRaises":2938,"Ġprovi":2939,"Ġbegin":2940,"Ġbecause":2941,"Ġchoo":2942,"Ġloc":2943,"ĠDA":2944,"Ġart":2945,"extra":2946,"lum":2947,"ous":2948,"Ġunpack":2949,"ĠEX":2950,"digits":2951,"Ġalso":2952,"Ġalways":2953,"ĠGuidValue":2954,"okup":2955,"Ġparameter":2956,"Ġparameters":2957,"Ġsimple":2958,"Ġ50":2959,"ĠRequest":2960,"ĠserviceName":2961,"ServiceParent":2962,"dition":2963,"Ġanyone":2964,"Ġacl":2965,"antom":2966,"Ġbytes":2967,"ĠAND":2968,"Ġbased":2969,"Ġpats":2970,"ĠCommand":2971,"Ġtemp":2972,"Ġcallback":2973,"Ġabove":2974,"220":2975,"omething":2976,"ĠtagValue":2977,"ĠNotify":2978,"Start":2979,"Store":2980,"Ġwarn":2981,"Ġwarning":2982,"ĠDecimal":2983,"codereng":2984,"Ġgeom":2985,"places":2986,"placeholder":2987,"IsChecked":2988,"ĠNOT":2989,"CKR":2990,"POST":2991,"Ġclean":2992,"Ġfollowing":2993,"CTW":2994,"GuidType":2995,"ĠLIAB":2996,"wire":2997,"Ġcredentials":2998,"NEL":2999,"author":3000,"sole":3001,"warning":3002,"ĠTensorFlow":3003,"ĠEUCKR":3004,"ĠEUCTW":3005,"Org":3006,"ghi":3007,"Ġframework":3008,"Ġattributename":3009,"/>.":3010,"cpus":3011,"}-{":3012,"Ġrecursive":3013,"ĠPython":3014,"ProtobufMessage":3015,"ĠToXml":3016,"segmenter":3017,"overn":3018,"Ġtypical":3019,"article":3020,"Ġancestry":3021,"ĠXXXX":3022,"Ġguideline":3023,"KERNEL":3024,"Step":3025,"gollum":3026,"weekday":3027,"Ġquestion":3028,"Ġattrs":3029,"Ġblank":3030,"ĠCANCEL":3031,"Ġchoose":3032,"coderengine":3033,"'re":3034,"()":3035,"():":3036,")([":3037,"*'":3038,"/'":3039,"28":3040,"App":3041,"ALI":3042,"By":3043,"BAR":3044,"CRI":3045,"CTION":3046,"Cert":3047,"From":3048,"IC":3049,"Lo":3050,"Men":3051,"OO":3052,"Options":3053,"SON":3054,"TER":3055,"VID":3056,"ale":3057,"cl":3058,"cores":3059,"ds":3060,"dist":3061,"empty":3062,"finder":3063,"gion":3064,"gmail":3065,"govern":3066,"hing":3067,"ib":3068,"ific":3069,"imental":3070,"mo":3071,"ool":3072,"ould":3073,"ply":3074,"rxtx":3075,"sr":3076,"sor":3077,"sinstance":3078,"total":3079,"upto":3080,"vity":3081,"wrap":3082,"}'":3083,"Ġnt":3084,"Ġ<<":3085,"library":3086,"literal":3087,"deleted":3088,"ntax":3089,"sed":3090,"self":3091,"input":3092,"ster":3093,"sted":3094,"start":3095,"Ġauto":3096,"Ġsen":3097,"Ġsections":3098,"Ġtod":3099,"Ġtuple":3100,"Ġpa":3101,"Ġpol":3102,"Ġpower":3103,"omp":3104,"Ġca":3105,"Ġcore":3106,"Ġcollector":3107,"Ġfget":3108,"Ġ'-":3109,"Ġ'\\":3110,"medi":3111,"leep":3112,"hemer":3113,"Ġ27":3114,"ence":3115,"Ġ\"__":3116,"Ġrelease":3117,"arning":3118,"Ġdest":3119,"Ġsleep":3120,"Ġolines":3121,"Ġold":3122,"Ġ13":3123,"cted":3124,"Ġduring":3125,"Ġ31":3126,"Ġ33":3127,"Ġ36":3128,"local":3129,"edit":3130,"seriali":3131,"ĠCL":3132,"ĠClass":3133,"river":3134,"Ġrfile":3135,"ĠGather":3136,"ĠSD":3137,"ĠStr":3138,"ĠAuth":3139,"ĠAPI":3140,"vile":3141,"ĠFor":3142,"ĠFailure":3143,"thread":3144,"ĠNo":3145,"ĠNUL":3146,"ĠList":3147,"ĠIt":3148,"Ġfix":3149,"__\"":3150,"Ġthread":3151,"Ġexec":3152,"Ġstderr":3153,"Ġlate":3154,"ĠRUN":3155,"Ġresort":3156,"Ġdif":3157,"Ġdivision":3158,"Ġprotection":3159,"scores":3160,"Ġbeen":3161,"ultip":3162,"ailed":3163,"Ġlower":3164,"asic":3165,"ĠDIS":3166,"Ġlistener":3167,"Ġstrip":3168,"Ġtests":3169,"Ġcommit":3170,"ough":3171,"Ġunicode":3172,"raw":3173,"Ġ{'":3174,"Ġclassify":3175,"owel":3176,"perimental":3177,"Ġcontrol":3178,"LEN":3179,"ĠGuidType":3180,"Ġsoap":3181,"compose":3182,"ĠBE":3183,"hoice":3184,"Ġprivile":3185,"oken":3186,"INK":3187,"Ġits":3188,"Ġpoint":3189,"Ġpolicies":3190,"acts":3191,"Ġadmin":3192,"Ġ\\\"":3193,"ĠGetCName":3194,"ĠGetSupArchList":3195,"ĠInvalid":3196,"Ġversions":3197,"outine":3198,"ifacts":3199,"Ġunderscores":3200,"timestamp":3201,"ativity":3202,"ENDS":3203,"Ġ60":3204,"bcdef":3205,"Ġfinally":3206,"Ġhex":3207,"Ġlast":3208,"present":3209,"eep":3210,"Ġ2016":3211,"Ġbases":3212,"meta":3213,"metric":3214,"Ġargument":3215,"brand":3216,"ALL":3217,"ToEnc":3218,"Ġcurses":3219,"based":3220,"Ġplt":3221,"Ġsubmit":3222,"Ġhttps":3223,"TEXT":3224,"https":3225,"counter":3226,"ULT":3227,"archive":3228,"Ġimplements":3229,"ĠStomp":3230,"ĠJCollectd":3231,"Ġparsed":3232,"Ġinitiali":3233,"Ġheaders":3234,"shape":3235,"writemath":3236,"Ġcommon":3237,"Ġfunction":3238,"ogger":3239,"argument":3240,"Ġbuffer":3241,"ĠSAXNot":3242,"relx":3243,"relativity":3244,"Ġrules":3245,"ĠProcess":3246,"Ġrdlen":3247,"ĠnamedNodeAdminTuple":3248,"ween":3249,"Ġcreated":3250,"Ġvalidation":3251,"ward":3252,"ĠCharDistributionAnalysis":3253,"Ġiteritems":3254,"Ġmocker":3255,"Order":3256,"Ġoverri":3257,"processing":3258,"Ġstrokelist":3259,"ootstrapHelper":3260,"subject":3261,"Ġretry":3262,"Ġcolor":3263,"Ġcsvrow":3264,"Ġattempt":3265,"ĠWSGIRequestHandler":3266,"uiltin":3267,"Ġsrcpath":3268,"Ġmoves":3269,"Ġmultiprocessing":3270,"ĠgetLogger":3271,"ĠInterface":3272,"Ġstubs":3273,"escape":3274,"Ġproperties":3275,"Ġshutting":3276,"HelpTextList":3277,"txn":3278,"Ġwait":3279,"Ġbetween":3280,"Ġbeginning":3281,"ALID":3282,"uptools":3283,"Ġntpath":3284,"mediate":3285,"hemeral":3286,"ĠRUNCHAR":3287,"ultiple":3288,"bcdefghi":3289,"ToEncrypted":3290,"%(":3291,"''":3292,".,":3293,"05":3294,"211":3295,"404":3296,"8000":3297,"98":3298,"={":3299,">>":3300,">}":3301,"Attribute":3302,"APP":3303,"Byte":3304,"CON":3305,"CLI":3306,"CIP":3307,"DING":3308,"FE":3309,"IG":3310,"IES":3311,"Implement":3312,"LR":3313,"Lin":3314,"MM":3315,"Map":3316,"Met":3317,"MIT":3318,"Mock":3319,"Py":3320,"Pre":3321,"Package":3322,"PLA":3323,"RL":3324,"ROM":3325,"SA":3326,"Software":3327,"SION":3328,"Th":3329,"This":3330,"UM":3331,"Variable":3332,"With":3333,"Yaml":3334,"]+":3335,"`.":3336,"bort":3337,"bare":3338,"block":3339,"call":3340,"crypto":3341,"check":3342,"dst":3343,"dal":3344,"dan":3345,"down":3346,"exception":3347,"fg":3348,"flag":3349,"frame":3350,"gor":3351,"gine":3352,"iName":3353,"js":3354,"ma":3355,"mq":3356,"mac":3357,"maint":3358,"nado":3359,"oz":3360,"ope":3361,"pad":3362,"qnames":3363,"rf":3364,"rase":3365,"rtype":3366,"ten":3367,"tocol":3368,"target":3369,"tags":3370,"ually":3371,"wind":3372,"xml":3373,"xenapi":3374,"zy":3375,"Ãµ":3376,"Ġens":3377,"Ġque":3378,"Ġlicense":3379,"lint":3380,"lish":3381,"defer":3382,"description":3383,"deditor":3384,"ntic":3385,"ntity":3386,"install":3387,"invoice":3388,"state":3389,"stpath":3390,"retri":3391,"rested":3392,"ornado":3393,"Ġass":3394,"Ġseri":3395,"Ġsequenc":3396,"Ġtornado":3397,"Ġptr":3398,"Ġpublic":3399,"Ġptrue":3400,"Ġcmp":3401,"Ġcache":3402,"Ġcmy":3403,"Ġcused":3404,"Ġcfg":3405,"ats":3406,"Ġfm":3407,"Ġfframe":3408,"Ġ'..":3409,"Ġ'_'":3410,"memory":3411,"hentic":3412,"Ġ\"'":3413,"Ġrestri":3414,"Ġreally":3415,"Ġsk":3416,"Ġsdist":3417,"uthentic":3418,"Ġ14":3419,"Ġ17":3420,"ctop":3421,"ano":3422,"Ġinp":3423,"Ġinactive":3424,"Ġdb":3425,"Ġdummy":3426,"Ġdriver":3427,"Ġdstpath":3428,"Ġelement":3429,"Ġeof":3430,"Ġeps":3431,"Ġempty":3432,"root":3433,"Ġmk":3434,"Ġmx":3435,"Ġman":3436,"Ġknow":3437,"illa":3438,"ilva":3439,"pelican":3440,"layer":3441,"lob":3442,"loor":3443,"getNetwork":3444,"ote":3445,"oth":3446,"ĠCF":3447,"ĠCode":3448,"rigin":3449,"odList":3450,"ish":3451,"isol":3452,"ished":3453,"tected":3454,"ĠSc":3455,"ĠSi":3456,"ĠASG":3457,"ĠAbort":3458,"ĠName":3459,"Ġnamelist":3460,"Ġnotebook":3461,"ĠID":3462,"ĠImport":3463,"ĠIMP":3464,"etch":3465,"etter":3466,"uplic":3467,"oded":3468,"oneyp":3469,"Ġgrant":3470,"Ġstill":3471,"Ġlstrip":3472,"ĠOrigin":3473,"ĠRE":3474,"ĠRuntime":3475,"Ġconf":3476,"Ġconn":3477,"Ġconnect":3478,"ell":3479,"Ġproc":3480,"Ġproxy":3481,"scaling":3482,"Ġchunk":3483,"Ġloca":3484,"ĠDen":3485,"ĠVALID":3486,"Property":3487,"dim":3488,"Ġmemory":3489,"Ġwrong":3490,"Ġmaze":3491,"oduleList":3492,"Ġlength":3493,"ĠMA":3494,"ĠMan":3495,"ĠMark":3496,"ĠMulti":3497,"ĠMessage":3498,"comman":3499,"ĠBLO":3500,"ĠBIG":3501,"Ġsetuptools":3502,"ITE":3503,"Ġprevi":3504,"oke":3505,"INF":3506,"props":3507,"product":3508,"project":3509,"protobuf":3510,"Ġpool":3511,"Ġpossi":3512,"Ġside":3513,"Ġâĸģ'%":3514,"ĠconfigAs":3515,"Ġ51":3516,"Ġ59":3517,"Ġargspec":3518,"umer":3519,"ĠGetHelpTextList":3520,"ĠrunCommand":3521,"ĠstartService":3522,"Ġpylint":3523,"Ġerase":3524,"ferent":3525,"ĠHTTP":3526,"ECT":3527,"scripts":3528,"Ġ64":3529,"resource":3530,"Ġacce":3531,"LIED":3532,"ĠURL":3533,"Ġdisable":3534,"Ġ>>>":3535,"links":3536,"Convert":3537,"parator":3538,"Ġ2010":3539,"123":3540,"Ġshow":3541,"Ġhash":3542,"Ġurllib":3543,"Ġargv":3544,"Ġarguments":3545,"Ġ94":3546,"ĠSetCName":3547,"ĠSetSupArchList":3548,"ĠSetNotify":3549,"ToOrder":3550,"Ġcopyright":3551,"Ġpatch":3552,"symbol":3553,"REGE":3554,"ĠQGIS":3555,"dence":3556,"Ġcompatible":3557,"ternative":3558,"porter":3559,"Ġrequirements":3560,"Ġabout":3561,"ĠKeyError":3562,"Ġrequests":3563,"users":3564,"Ġbinary":3565,"ĠState":3566,"ĠNotImplement":3567,"Stream":3568,"PACK":3569,"Ġlevel":3570,"URL":3571,"Ġzip":3572,"Ġzmq":3573,"ogle":3574,"phrase":3575,"Ġendswith":3576,"CTX":3577,"Expression":3578,"Ġrdtype":3579,"Ġrdclass":3580,"Ġstrokes":3581,"ĠArgs":3582,"ĠvarRegexp":3583,"PEM":3584,"Ġseek":3585,"Ġidentity":3586,"Ġdecorator":3587,"/*.":3588,"manager":3589,"ĠTypeError":3590,"2011":3591,"achine":3592,"========":3593,"ĠHelpTextXml":3594,"AsPEM":3595,"Ġattributes":3596,"Ġchoices":3597,"ometry":3598,"ometag":3599,"ĠstopService":3600,"Ġinterested":3601,"Ġerrno":3602,"ĠSupArchList":3603,"ĠSystem":3604,"ĠQueue":3605,"Ġignore":3606,"Ġflags":3607,"ĠStringIO":3608,"SupModuleList":3609,"CLUDING":3610,"FAULT":3611,"Ġcmx":3612,"Ġcopies":3613,"gedStart":3614,"ĠCacheLocker":3615,"ĠFilterExpression":3616,"ĠRetri":3617,"Ġprovided":3618,"ĠDAMA":3619,"Ġwarnings":3620,"CRIP":3621,"ification":3622,"Ġpoll":3623,"Ġ'-'":3624,"serialized":3625,"ĠSDist":3626,"ĠprivilegedStart":3627,"ĠInvalidInput":3628,"outines":3629,"Ġoverride":3630,"CIPHER":3631,"Link":3632,"Metadata":3633,"danms":3634,"Ġensure":3635,"Ġqueue":3636,"Ġseriali":3637,"ctoprint":3638,"isolated":3639,"ĠImportError":3640,"ĠIMPLIED":3641,"oneypot":3642,"Ġgranted":3643,"ĠOriginal":3644,"ĠRuntimeError":3645,"commandeditor":3646,"ĠBLOCK":3647,"Ġpossible":3648,"ĠconfigAsYaml":3649,"resources":3650,"ConvertToEncrypted":3651,"ToOrderMap":3652,"REGEX":3653,"ĠNotImplementedError":3654,"PACKA":3655,"ĠprivilegedStartService":3656,"\",":3657,"\")'":3658,"')":3659,"(?":3660,",'":3661,"02":3662,"32":3663,"40":3664,"59":3665,"75":3666,"81":3667,"90":3668,":'":3669,"</":3670,">\\":3671,"Action":3672,"BUG":3673,"Basic":3674,"Choice":3675,"Down":3676,"EX":3677,"Empty":3678,"Editor":3679,"HIS":3680,"KG":3681,"LL":3682,"Line":3683,"Lib":3684,"MQ":3685,"Mak":3686,"Middleware":3687,"Open":3688,"PL":3689,"Pickle":3690,"QL":3691,"RR":3692,"RES":3693,"Routines":3694,"SO":3695,"TS":3696,"TAR":3697,"TRA":3698,"Yml":3699,"YML":3700,"_%":3701,"aded":3702,"cb":3703,"cs":3704,"can":3705,"cated":3706,"duplic":3707,"ef":3708,"ffer":3709,"gal":3710,"gid":3711,"global":3712,"ig":3713,"ire":3714,"iated":3715,"lation":3716,"mode":3717,"nal":3718,"nConvertToEncrypted":3719,"pat":3720,"plo":3721,"pend":3722,"raise":3723,"spect":3724,"speci":3725,"space":3726,"something":3727,"tnConvertToEncrypted":3728,"ume":3729,"vn":3730,"vid":3731,"vate":3732,"yx":3733,"yle":3734,"yml":3735,"Ã£":3736,"Ã§":3737,"Ã©":3738,"Ãº":3739,"Ġ|":3740,"Ġvery":3741,"next":3742,"like":3743,"nte":3744,"ntil":3745,"see":3746,"Ġ0211":3747,"stats":3748,"request":3749,"recent":3750,"orp":3751,"Ġap":3752,"Ġact":3753,"Ġavailable":3754,"Ġtra":3755,"Ġtrue":3756,"Ġtorrent":3757,"Ġtvm":3758,"Ġtwisted":3759,"Ġtrim":3760,"Ġph":3761,"Ġpk":3762,"Ġput":3763,"Ġpip":3764,"Ġpers":3765,"Ġpts":3766,"Ġcast":3767,"Ġiss":3768,"Ġfo":3769,"erCom":3770,"Ġ'\"":3771,"mem":3772,"level":3773,"hell":3774,"Ġwould":3775,"Ġregion":3776,"alk":3777,"ars":3778,"arDown":3779,"ittorrent":3780,"geom":3781,"Ġdepen":3782,"Ġdevelo":3783,"Ġdestroy":3784,"Ġnb":3785,"Ġnw":3786,"Ġsg":3787,"Ġsure":3788,"Ġsvn":3789,"Ġops":3790,"Ġoctoprint":3791,"ural":3792,"urano":3793,"uted":3794,"ctr":3795,"ctive":3796,"aniz":3797,"Ġinsert":3798,"Ġinspect":3799,"Ġda":3800,"Ġdok":3801,"Ġ300":3802,"Ġthese":3803,"ĠbootstrapHelper":3804,"ĠbtnConvertToEncrypted":3805,"role":3806,"roug":3807,"Ġmb":3808,"Ġmer":3809,"Ġkind":3810,"lace":3811,"lasses":3812,"Ġupp":3813,"Ġuntil":3814,"otes":3815,"other":3816,"ĠCre":3817,"ĠCorp":3818,"fied":3819,"ĠToken":3820,"ĠTHIS":3821,"Ġrm":3822,"ĠGe":3823,"atever":3824,"ĠST":3825,"ĠSilva":3826,"olver":3827,"Ġtoo":3828,"ĠAR":3829,"ĠAg":3830,"ĠAttribut":3831,"ĠAUTH":3832,"ĠAffer":3833,"ĠActive":3834,"icMock":3835,"ĠFla":3836,"verse":3837,"Ġgetattr":3838,"Ġgetmax":3839,"choice":3840,"ulate":3841,"ĠLoc":3842,"Ġnothing":3843,"appen":3844,"Ġ254":3845,"Ġhow":3846,"unic":3847,"unicode":3848,"ĠParser":3849,"Ġgis":3850,"Ġgdal":3851,"Ġglob":3852,"Ġstatus":3853,"tters":3854,"ĠOUT":3855,"ĠRaise":3856,"butor":3857,"Ġval":3858,"Ġresize":3859,"Ġdiff":3860,"scape":3861,"scale":3862,"signatures":3863,"Named":3864,"Ġlocal":3865,"Ġloaded":3866,"andt":3867,"item":3868,"ĠDo":3869,"ĠDoc":3870,"ĠDjango":3871,"ĠValid":3872,"Ġstrings":3873,"ryable":3874,"Process":3875,"Protection":3876,"artbe":3877,"ĠtestWidget":3878,"ĠEn":3879,"rax":3880,"dif":3881,"Ġmemb":3882,"ows":3883,"Ġmade":3884,"Ġjvm":3885,"Ġapply":3886,"Ġalternative":3887,"ĠMag":3888,"ĠMake":3889,"comm":3890,"ĠBost":3891,"Ġsetattr":3892,"ITS":3893,"pile":3894,"Ġsyllable":3895,"property":3896,"step":3897,"stems":3898,"acter":3899,"ĠfailUnlessEqualContent":3900,"Recognized":3901,"TIVE":3902,"Ġ404":3903,"reek":3904,"ĠGetFeatureFlag":3905,"ORS":3906,"ORT":3907,"ORY":3908,"Ġoslo":3909,"ipue":3910,"Ġstarting":3911,"axy":3912,"script":3913,"Ġlayer":3914,"mpleTestCase":3915,"Services":3916,"sonant":3917,"prefix":3918,"Ġflavors":3919,"CHE":3920,"Ġpassphrase":3921,"ayer":3922,"enerTh":3923,"Index":3924,"ĠTestApp":3925,"tests":3926,"ĠUSA":3927,"Ġready":3928,"Ġ81":3929,"Ġchangeset":3930,"Ġ'%(":3931,"Ġ2012":3932,"ĠbaseName":3933,"XmlElement":3934,"Ġnodes":3935,"ivar":3936,"Ġ90":3937,"ToNOTEQ":3938,"Ġcursor":3939,"llvm":3940,"MAKE":3941,"Ġ70":3942,"ĠCommunic":3943,"Ġplan":3944,"methods":3945,"datetime":3946,"ready":3947,"Ġsubprocess":3948,"ĠtearDown":3949,"Ġdtypes":3950,"ofb":3951,"Ġscenario":3952,"ConfigItem":3953,"TYPE":3954,"document":3955,"ĠAny":3956,"ĠXmlNode":3957,"ĠXmlRoutines":3958,"img":3959,"ĠStub":3960,"groups":3961,"values":3962,"ĠJSON":3963,"ĠtagKey":3964,"Ġ128000":3965,"ĠNote":3966,"hedule":3967,"Ġexclu":3968,"Ġdocumentation":3969,"Security":3970,"Separator":3971,"sessions":3972,"Ġspecified":3973,"changed":3974,"Ġchildren":3975,"Ġletters":3976,"Ġqname":3977,"IsEn":3978,"Ġclear":3979,"Ġtranslation":3980,"GuidValue":3981,"backend":3982,"gression":3983,"Ġvia":3984,"ĠProtocol":3985,"Ġmakefile":3986,"ĠmakeService":3987,"poseYml":3988,"Syntax":3989,"ĠnamedServices":3990,"CACHE":3991,"ffect":3992,"allowed":3993,"ĠArg":3994,"ĠArray":3995,"ĠPolicy":3996,"Ġcontents":3997,"DEP":3998,"NEToNOTEQ":3999,"Ġwordcount":4000,"ĠCOPY":4001,"ĠComp":4002,"ĠCreates":4003,"ĠCreateXmlElement":4004,"Ġdirname":4005,"subscriptions":4006,"LUGIN":4007,"ĠnctId":4008,"Ġsorted":4009,"Ġbuildmatch":4010,"6666":4011,"KEY":4012,"llableSeparator":4013,"Ġrights":4014,"Ġimage":4015,"Ġsuch":4016,"Ġbitcode":4017,"Ġbittorrent":4018,"ĠSURE":4019,"Ġtoken":4020,"ĠRunMetadata":4021,"interval":4022,"ĠInstallScripts":4023,"ĠInstallLib":4024,"ĠConvertNEToNOTEQ":4025,"ĠFormMultiPageAction":4026,"emon":4027,"ĠAllow":4028,"unknown":4029,"ĠBuildScripts":4030,"ĠBuildPy":4031,"ĠQuestion":4032,"display":4033,"fields":4034,"veryone":4035,"168":4036,"ĠnewlyRegisteredUser":4037,"systemcommandeditor":4038,"OMMENT":4039,"Ġroutines":4040,"ĠTemplateSyntax":4041,"paymentmethod":4042,"Resolver":4043,"whatever":4044,"recording":4045,"Ġtruncate":4046,"CertAsPEM":4047,"Menus":4048,"wrapped":4049,"ĠAuthors":4050,"Ġlatex":4051,"Ġdifferent":4052,"ĠDISPLA":4053,"Ġinitialize":4054,"ĠSAXNotRecognized":4055,"bcdefghij":4056,"VariableName":4057,"maintain":4058,"ozilla":4059,"ntityResolver":4060,"Ġsequences":4061,"ĠSimpleTestCase":4062,"ĠDeny":4063,"ĠRetrieve":4064,"ĠDAMAGES":4065,"Maker":4066,"YMLINK":4067,"galaxy":4068,"erComposeYml":4069,"ĠdokerComposeYml":4070,"ĠbtnConvertToEncryptedIsEn":4071,"rough":4072,"Ġupper":4073,"ĠTokenParser":4074,"ĠAttributes":4075,"ĠAffero":4076,"ĠActiveMQ":4077,"Ġgetmaxyx":4078,"ĠRaised":4079,"artbeat":4080,"ĠMagicMock":4081,"ĠBoston":4082,"ĠfailUnlessEqualContents":4083,"sonants":4084,"enerThread":4085,"ĠArrayField":4086,"ĠTemplateSyntaxError":4087,"ĠDISPLAY":4088,"ĠSAXNotRecognizedException":4089,"ĠdokerComposeYmlFileName":4090,"ĠbtnConvertToEncryptedIsEnabled":4091,"\":":4092,"))":4093,"*)([":4094,"+)":4095,"-{":4096,"/%":4097,"/.":4098,"/{":4099,"/(?":4100,"50":4101,"53":4102,"64":4103,"67":4104,"89":4105,"=%":4106,">'":4107,"ATIVE":4108,"BA":4109,"BD":4110,"BLI":4111,"Better":4112,"Cre":4113,"Cipher":4114,"Collector":4115,"DES":4116,"Found":4117,"GH":4118,"Ge":4119,"GTH":4120,"GPL":4121,"Hqx":4122,"HALL":4123,"IF":4124,"ISE":4125,"LY":4126,"Len":4127,"Loc":4128,"Me":4129,"Mat":4130,"NATIVE":4131,"Public":4132,"PEC":4133,"Platform":4134,"PKG":4135,"QT":4136,"Rle":4137,"Ret":4138,"Rage":4139,"ROF":4140,"SD":4141,"URI":4142,"WOR":4143,"Week":4144,"](":4145,"]*)([":4146,"_,":4147,"auto":4148,"available":4149,"bf":4150,"bo":4151,"build":4152,"bility":4153,"bootstrap":4154,"builtin":4155,"car":4156,"col":4157,"csv":4158,"cert":4159,"dic":4160,"eader":4161,"earning":4162,"fault":4163,"gr":4164,"gis":4165,"hg":4166,"hat":4167,"honeypot":4168,"istr":4169,"ilit":4170,"jor":4171,"kli":4172,"mble":4173,"mark":4174,"mmetric":4175,"multiple":4176,"nf":4177,"nr":4178,"nly":4179,"oogle":4180,"pc":4181,"pl":4182,"pment":4183,"pow":4184,"pass":4185,"pickle":4186,"platform":4187,"ring":4188,"ril":4189,"rpc":4190,"sk":4191,"sw":4192,"sal":4193,"spe":4194,"sla":4195,"software":4196,"samples":4197,"top":4198,"tensor":4199,"tuple":4200,"task":4201,"twisted":4202,"two":4203,"uc":4204,"ud":4205,"vince":4206,"vcpus":4207,"wb":4208,"xB":4209,"xenserver":4210,"ying":4211,"yril":4212,"{'":4213,"}]":4214,"}{":4215,"Ã¡":4216,"Ã³":4217,"çĽ":4218,"Ġ~":4219,"Ġur":4220,"lier":4221,"dev":4222,"defn":4223,"devices":4224,"desired":4225,"decoderengine":4226,"depend":4227,"sect":4228,"semble":4229,"invalid":4230,"inclu":4231,"stop":4232,"stack":4233,"stderr":4234,"rection":4235,"requenc":4236,"oration":4237,"environ":4238,"Ġau":4239,"Ġavoid":4240,"Ġaster":4241,"Ġsemantics":4242,"Ġts":4243,"Ġton":4244,"Ġtri":4245,"Ġtap":4246,"Ġtable":4247,"Ġtake":4248,"Ġtags":4249,"Ġtwo":4250,"Ġpd":4251,"Ġps":4252,"Ġpid":4253,"Ġpus":4254,"Ġpay":4255,"Ġpickle":4256,"Ġplace":4257,"Ġcor":4258,"Ġcpp":4259,"Ġcert":4260,"Ġcard":4261,"ond":4262,"onger":4263,"atin":4264,"atal":4265,"atap":4266,"atter":4267,"attemp":4268,"Ġiv":4269,"Ġfoo":4270,"Ġfailed":4271,"Ġfrequenc":4272,"err":4273,"Ġ'_":4274,"Ġ','":4275,"Ġ':'":4276,"strings":4277,"memb":4278,"lean":4279,"Ġ[{'":4280,"hel":4281,"heartbeat":4282,"Ġ26":4283,"encoded":4284,"Ġwfile":4285,"Ġway":4286,"Ġwire":4287,"Ġ\"<":4288,"Ġreq":4289,"Ġreal":4290,"Ġrely":4291,"Ġrecognized":4292,"alu":4293,"alph":4294,"arse":4295,"iters":4296,"gent":4297,"gener":4298,"ceil":4299,"Ġdecode":4300,"Ġsome":4301,"Ġsafe":4302,"utput":4303,"cto":4304,"anit":4305,"anup":4306,"Ġinvalid":4307,"Ġinstant":4308,"Ġinvoice":4309,"Ġdist":4310,"Ġ34":4311,"Ġ35":4312,"Ġtheir":4313,"Ġetree":4314,"round":4315,"Ġdefer":4316,"Ġdefinit":4317,"Ġmater":4318,"Ġkw":4319,"Ġkeep":4320,"Ġanother":4321,"pear":4322,"loop":4323,"lookup":4324,"Ġusu":4325,"services":4326,"ĠCPU":4327,"ĠCOMMENT":4328,"fidence":4329,"rix":4330,"ributor":4331,"ptured":4332,"Ġforward":4333,"isk":4334,"isProtobufMessage":4335,"ĠSer":4336,"ĠSub":4337,"ĠSick":4338,"ĠSQL":4339,"ĠSYMLINK":4340,"ĠSHALL":4341,"Ġasyn":4342,"ĠALI":4343,"ĠACTION":4344,"ĠFran":4345,"ĠFif":4346,"ĠFcal":4347,"ĠFbal":4348,"ĠFile":4349,"ĠFuncal":4350,"ĠFOO":4351,"ĠFloor":4352,"xtick":4353,"ĠgetUser":4354,"ĠgetQName":4355,"ĠLearning":4356,"Ġhandl":4357,"Ġhappen":4358,"named":4359,"ithm":4360,"ĠPY":4361,"ĠPer":4362,"ĠPpi":4363,"ĠPIN":4364,"ĠPID":4365,"ĠPLUGIN":4366,"ĠPROF":4367,"Ġthrough":4368,"Ġexample":4369,"Ġexperimental":4370,"Ġgit":4371,"Ġgpu":4372,"ationError":4373,"Ġstd":4374,"Ġstyle":4375,"Ġstars":4376,"Ġlong":4377,"Ġlonger":4378,"ĠOE":4379,"ĠOther":4380,"ĠOnly":4381,"Ġconstruct":4382,"Ġcondition":4383,"Ġconsonants":4384,"Ġdims":4385,"Ġdiam":4386,"Ġdirect":4387,"Ġdirection":4388,"Ġfilepath":4389,"ptional":4390,"Ġproject":4391,"Ġprotobuf":4392,"Ġprotected":4393,"found":4394,"scenario":4395,"sider":4396,"open":4397,"Ġlogin":4398,"Ġlookup":4399,"ando":4400,"andro":4401,"ĠDTD":4402,"Ġarch":4403,"ĠVM":4404,"Prober":4405,"lush":4406,"Ġtesting":4407,"Ġcome":4408,"Ġcompose":4409,"Ġmem":4410,"Ġlinelen":4411,"Ġlineno":4412,"Ġclassification":4413,"ĠWHE":4414,"ĠuserName":4415,"period":4416,"Ġalready":4417,"postion":4418,"Ġsob":4419,"coming":4420,"compare":4421,"ĠBe":4422,"ĠBUT":4423,"ĠBSD":4424,"ĠsetName":4425,"ĠsetConfig":4426,"ĠsetStore":4427,"ITIES":4428,"hobb":4429,"ERP":4430,"gnal":4431,"Ġpretxn":4432,"lessandro":4433,"alibr":4434,"profiles":4435,"trans":4436,"Ġposit":4437,"roups":4438,"Ġsig":4439,"Ġsimp":4440,"ancel":4441,"cio":4442,"ISING":4443,"Ġxenserver":4444,"TIAL":4445,"uman":4446,"ĠGetGuid":4447,"ĠGetUsage":4448,"ĠRead":4449,"ĠRecur":4450,"Ġcases":4451,"Ġnever":4452,"Ġruns":4453,"Ġrunner":4454,"ANITIES":4455,"output":4456,"Ġpaths":4457,"Ġwhom":4458,"Ġwhat":4459,"connection":4460,"Ġenabled":4461,"charset":4462,"atibility":4463,"keep":4464,"usually":4465,"ĠHttp":4466,"ĠHidden":4467,"Ġatom":4468,"ENTA":4469,"ownServiceParent":4470,"ministr":4471,"Ġfinished":4472,"worker":4473,"curial":4474,"Ġlazy":4475,"modules":4476,"Ġextend":4477,"ĠTests":4478,"ĠUN":4479,"Ġcontextlib":4480,"herit":4481,"Ġ80":4482,"Ġ86":4483,"Ġchanges":4484,"Decimal":4485,"ĠGenerate":4486,"Cons":4487,"Ġ2011":4488,"Ġbasename":4489,"1253":4490,"ĠnodeName":4491,"Ġshort":4492,"Ġargtypes":4493,"Additions":4494,"ĠSetFeatureFlag":4495,"ALTER":4496,"ToNE":4497,"RIPE":4498,"RIGH":4499,"ĠCopyFrom":4500,"HOST":4501,"HOLD":4502,"ĠCONTRA":4503,"readable":4504,"Ġbranches":4505,"Ġcomplete":4506,"Ġcompatibility":4507,"TEG":4508,"THRES":4509,"Ġopenrsrc":4510,"Ġhostname":4511,"ephemeral":4512,"inding":4513,"Ġallows":4514,"OME":4515,"application":4516,"ĠDECLR":4517,"ĠWITH":4518,"docweb":4519,"grade":4520,"Ġrequested":4521,"ĠXmlElement":4522,"ĠXmlAttribute":4523,"Ġotherwise":4524,"configured":4525,"Dict":4526,"Directory":4527,"Ġ120":4528,"cremental":4529,"Ġwraps":4530,"LAIM":4531,"Sets":4532,"Ġauthor":4533,"changeset":4534,"changegroup":4535,"Ġenvironment":4536,"pkg":4537,"writecrc":4538,"writeProtobuf":4539,"Ġleft":4540,"Ġpages":4541,"Ġqgis":4542,"ĠConditions":4543,"Ġgoing":4544,"Ġgiving":4545,"STRIPE":4546,"phantom":4547,"CommandEditor":4548,"CharToOrderMap":4549,"Ġtransform":4550,"Ġcoef":4551,"ĠINCLUDING":4552,"Ġprepared":4553,"OfProtobufMessage":4554,"``)":4555,"greg":4556,"Ġview":4557,"related":4558,"Ġ2006":4559,"ĠLIMIT":4560,"Sync":4561,"raphy":4562,"visions":4563,"Ġevalu":4564,"ĠstorePassword":4565,"ĠstoreUsername":4566,"Ġconverted":4567,"Ġresolved":4568,"ĠmessageList":4569,"Ġmaxx":4570,"oolean":4571,"ĠlinkText":4572,"ĠVariables":4573,"ĠVariableName":4574,"belis":4575,"Ġrelx":4576,"Ġcontains":4577,"hostname":4578,"/*/*.":4579,"Ġiterator":4580,"Ġswap":4581,"Ġdumps":4582,"ĠdumpRun":4583,"ĠEVENT":4584,"Ġabspath":4585,"2012":4586,"Ġexpr":4587,"Ġexpandt":4588,"Ġexists":4589,"INELEN":4590,"ĠFeatureFlag":4591,"ĠdirPickle":4592,"IServiceCollection":4593,"Ġgeneral":4594,"LOW":4595,"Ġattributevalues":4596,"Ġdenied":4597,"Ġevents":4598,"ĠContent":4599,"ĠContributor":4600,"Ġrecurse":4601,"Ġrecording":4602,"Ġ188":4603,"ĠOGRGe":4604,"Ġinteger":4605,"packages":4606,"Ġimmediate":4607,"Ġsuds":4608,"ĠSUB":4609,"Ġhooktype":4610,"ĠConvertNOTEQ":4611,"Encoding":4612,"ĠorgName":4613,"ĠExample":4614,"Ġxmlrpc":4615,"1301":4616,"Ġseparate":4617,"Ġreplaced":4618,"Ġnsname":4619,"ĠSession":4620,"ATOM":4621,"OLDER":4622,"PRESS":4623,"Runner":4624,"VERSION":4625,"Ġdefined":4626,"Ġrledata":4627,"ĠDEFAULT":4628,"LIBC":4629,"ĠnewlyRegisteredOrg":4630,"bytes":4631,"PUBLI":4632,"cleanup":4633,"Ġinclude":4634,"ĠAdministr":4635,"ĠPROVID":4636,"Ġartifacts":4637,"ĠEXPRESS":4638,"Ġtempest":4639,"Ġtempfile":4640,"ĠDecimalField":4641,"GuidTypeList":4642,"ĠLIABLE":4643,"ĠLIABILITY":4644,"StepAdvice":4645,"285":4646,"ByQName":4647,"Loader":4648,"governors":4649,"literals":4650,"Ġsend":4651,"Ġpaid":4652,"Ġcaptured":4653,"Ġexecuted":4654,"owels":4655,"Ġpointlist":4656,"Ġhexbin":4657,"ĠJCollectdCollector":4658,"FEED":4659,"Prefix":4660,"WithMenus":4661,"checkcrc":4662,"exceptions":4663,"retries":4664,"Ġassoc":4665,"Ġskip":4666,"Ġmkparam":4667,"getNetworkFor":4668,"Ġlocale":4669,"INFO":4670,"umerate":4671,"Ġaccept":4672,"symbolnr":4673,"PACKAGES":4674,"TARGET":4675,"models":4676,"pattern":4677,"umes":4678,"Ġ02110":4679,"Ġappear":4680,"Ġactual":4681,"Ġperson":4682,"ittorrentStore":4683,"anization":4684,"ĠCorporation":4685,"ĠARISING":4686,"ĠValidationError":4687,"difference":4688,"Ġmembers":4689,"imgur":4690,"SecurityForm":4691,"DEPENDS":4692,"ĠCOPYRIGH":4693,"color":4694,"ilities":4695,"klin":4696,"swap":4697,"include":4698,"Ġasterisk":4699,"Ġtonic":4700,"Ġtapname":4701,"Ġpayload":4702,"Ġusually":4703,"ĠSickRage":4704,"Ġasyncio":4705,"ĠALIVE":4706,"ĠFranklin":4707,"ĠFifth":4708,"Ġhandlers":4709,"ĠPINAX":4710,"ĠPIDFILE":4711,"ĠOtherwise":4712,"Ġdiamond":4713,"ĠWHETHER":4714,"hobbit":4715,"translate":4716,"ĠHiddenInput":4717,"DecimalField":4718,"ALTERNATIVE":4719,"ĠCONTRACT":4720,"THRESHOLD":4721,"ĠDECLRMM":4722,"OfProtobufMessages":4723,"ĠLIMITED":4724,"ĠstorePasswordIsChecked":4725,"ĠstoreUsernameIsChecked":4726,"belisk":4727,"ĠdumpRunCommand":4728,"ĠdirPickleFileName":4729,"ĠConvertNOTEQToNE":4730,"PUBLIC":4731,"ĠPROVIDED":4732,"ĠCOPYRIGHT":4733,"\".":4734,"\"),":4735,"'.":4736,"'^":4737,"'},":4738,"(\\":4739,"._":4740,".%(":4741,"07":4742,"31":4743,"58":4744,"::":4745,"?\"":4746,"@'":4747,"AD":4748,"Application":4749,"BLE":4750,"Can":4751,"COR":4752,"COM":4753,"CFLAGS":4754,"CPP":4755,"Data":4756,"DON":4757,"EMP":4758,"EBAR":4759,"Fact":4760,"Filter":4761,"FLO":4762,"Get":4763,"GRA":4764,"Gyp":4765,"Hex":4766,"HTTP":4767,"Header":4768,"If":4769,"Int":4770,"IAL":4771,"JP":4772,"LW":4773,"LAR":4774,"Lang":4775,"LAN":4776,"ME":4777,"MENT":4778,"ModList":4779,"ND":4780,"NEC":4781,"OC":4782,"On":4783,"Obj":4784,"OUT":4785,"ODE":4786,"Po":4787,"PUT":4788,"PRI":4789,"PTION":4790,"PRO":4791,"QP":4792,"QMAKE":4793,"RAX":4794,"RDEPENDS":4795,"SM":4796,"SP":4797,"SID":4798,"Spec":4799,"The":4800,"Top":4801,"Tag":4802,"Tipue":4803,"US":4804,"UID":4805,"UMA":4806,"UiName":4807,"Var":4808,"Version":4809,"WE":4810,"Wr":4811,"Write":4812,"WISE":4813,"YN":4814,"YES":4815,"]?":4816,"af":4817,"abc":4818,"bod":4819,"bad":4820,"bers":4821,"batch":4822,"bits":4823,"cu":4824,"came":4825,"cmp":4826,"clo":4827,"ccess":4828,"coin":4829,"cron":4830,"correct":4831,"calibr":4832,"db":4833,"dar":4834,"dail":4835,"dtd":4836,"effect":4837,"free":4838,"fetch":4839,"flush":4840,"gge":4841,"grc":4842,"gers":4843,"gres":4844,"gress":4845,"gative":4846,"grim":4847,"gÃ¼":4848,"ha":4849,"hw":4850,"ier":4851,"ider":4852,"implement":4853,"lli":4854,"ldefn":4855,"men":4856,"mic":4857,"mont":4858,"mart":4859,"mount":4860,"mote":4861,"nis":4862,"nch":4863,"none":4864,"os":4865,"obj":4866,"ored":4867,"pri":4868,"part":4869,"parent":4870,"prim":4871,"pAdd":4872,"phemeral":4873,"qÃ¼":4874,"rm":4875,"range":4876,"site":4877,"sum":4878,"save":4879,"snow":4880,"ssed":4881,"sometag":4882,"tmp":4883,"tcp":4884,"tifacts":4885,"uation":4886,"udi":4887,"vend":4888,"voke":4889,"wner":4890,"width":4891,"wtd":4892,"xC":4893,"xE":4894,"xit":4895,"yy":4896,"ync":4897,"zone":4898,"zation":4899,"zes":4900,"zip":4901,"}).":4902,"®é":4903,"Ãª":4904,"å°":4905,"Ġ;":4906,"ĠZ":4907,"Ġver":4908,"Ġless":4909,"ĮĦ":4910,"net":4911,"del":4912,"defi":4913,"desi":4914,"sen":4915,"seed":4916,"search":4917,"ins":4918,"insert":4919,"inHex":4920,"Ġ..":4921,"Ġ00":4922,"ret":4923,"redi":4924,"revision":4925,"reporter":4926,"revisions":4927,"ora":4928,"enge":4929,"ended":4930,"engine":4931,"Ġalo":4932,"Ġate":4933,"Ġack":4934,"Ġable":4935,"Ġsess":4936,"Ġsection":4937,"Ġsegment":4938,"Ġtabs":4939,"Ġtell":4940,"Ġpor":4941,"Ġpdef":4942,"Ġpast":4943,"ompe":4944,"Ġcer":4945,"Ġcollect":4946,"Ġclasses":4947,"atic":4948,"attri":4949,"Ġir":4950,"Ġfur":4951,"Ġfalse":4952,"Ġfew":4953,"Ġfetch":4954,"ery":4955,"erations":4956,"Ġ'\"'":4957,"Ġ'\\\\":4958,"Ġ'*'":4959,"Ġ'@'":4960,"stroke":4961,"let":4962,"encoding":4963,"Ġwg":4964,"Ġwho":4965,"Ġwsg":4966,"Ġways":4967,"Ġwell":4968,"Ġwalk":4969,"Ġ\"!":4970,"Ġ\"/":4971,"Ġ\"_":4972,"Ġ\".\"":4973,"Ġrev":4974,"Ġrepe":4975,"Ġregra":4976,"Ġreposit":4977,"Ġreserved":4978,"Ġreply":4979,"Ġreporter":4980,"itle":4981,"ites":4982,"ities":4983,"itten":4984,"Ġdepre":4985,"Ġdevices":4986,"Ġdelete":4987,"Ġdeleted":4988,"Ġnc":4989,"Ġnl":4990,"Ġnor":4991,"Ġnorm":4992,"Ġsum":4993,"Ġsax":4994,"Ġsince":4995,"Ġsomething":4996,"Ġsometag":4997,"Ġshell":4998,"Ġsanit":4999,"Ġour":5000,"Ġones":5001,"Ġobelisk":5002,"Ġowner":5003,"utor":5004,"utom":5005,"Ġindic":5006,"Ġincoming":5007,"Ġinherit":5008,"Ġinvoke":5009,"Ġdue":5010,"Ġdid":5011,"Ġdas":5012,"Ġdraw":5013,"mpl":5014,"Ġ39":5015,"Ġele":5016,"Ġeuc":5017,"Ġephemeral":5018,"ssumes":5019,"ssync":5020,"Ġbest":5021,"Ġbuiltin":5022,"Ġbig":5023,"Ġboolean":5024,"ros":5025,"roll":5026,"Ġmac":5027,"Ġmight":5028,"Ġmiddleware":5029,"Ġmultiple":5030,"Ġmurano":5031,"ilgrim":5032,"pem":5033,"ortions":5034,"Ġum":5035,"Ġusage":5036,"Ġusr":5037,"edi":5038,"edded":5039,"serve":5040,"gettext":5041,"gether":5042,"getusers":5043,"getLink":5044,"ĠCA":5045,"ĠCollectd":5046,"ĠTh":5047,"ĠTime":5048,"ĠText":5049,"ĠTwisted":5050,"ĠTIM":5051,"ĠTORT":5052,"ries":5053,"Ġrts":5054,"Ġrxtx":5055,"Ġreturns":5056,"ĠGreek":5057,"ĠGoogle":5058,"Ġisn":5059,"ĠSingle":5060,"ĠSpace":5061,"ĠSRC":5062,"ĠAt":5063,"ĠApp":5064,"ĠAudi":5065,"ĠAssumes":5066,"ically":5067,"vider":5068,"ĠFind":5069,"ĠFunction":5070,"ĠFix":5071,"ĠFROM":5072,"Ġoften":5073,"ĠgetB":5074,"ĠgetName":5075,"Ġgetfile":5076,"ĠgetService":5077,"ĠgetValue":5078,"Ġgetvalue":5079,"ĠNet":5080,"ĠNUMA":5081,"ĠLanguage":5082,"ĠLayer":5083,"ĠLatin":5084,"ĠLINELEN":5085,"cker":5086,"ĠInte":5087,"Ġhgrc":5088,"Ġhier":5089,"unsafe":5090,"upper":5091,"ĠPO":5092,"ĠPX":5093,"ĠPh":5094,"ĠPOM":5095,"ĠPlan":5096,"ĠPilgrim":5097,"ĠPortions":5098,"Ġthan":5099,"Ġgot":5100,"Ġgfile":5101,"Ġgive":5102,"Ġgby":5103,"ures":5104,"Ġstompe":5105,"tty":5106,"ĠON":5107,"ĠObject":5108,"ĠOSE":5109,"ĠOptional":5110,"ĠRedi":5111,"Ġconsole":5112,"Ġconfidence":5113,"butes":5114,"Ġvm":5115,"Ġvcpus":5116,"Ġvmem":5117,"Ġdim":5118,"Ġfilecrc":5119,"Ġproto":5120,"Ġprogress":5121,"Ġbelow":5122,"side":5123,"signature":5124,"ained":5125,"opulate":5126,"operations":5127,"Ġâĸģ\"!\"":5128,"Ġloop":5129,"pping":5130,"andles":5131,"andora":5132,"assert":5133,"assemble":5134,"ĠDate":5135,"ĠData":5136,"ĠDIR":5137,"ĠDummy":5138,"Ġlike":5139,"Ġtestlist":5140,"allback":5141,"allenge":5142,"Ġcompile":5143,"Ġunion":5144,"ĠEC":5145,"ĠElement":5146,"ĠEOF":5147,"ĠEmpty":5148,"ĠEveryone":5149,"ĠEntityResolver":5150,"ĠEND":5151,"ragment":5152,"raxp":5153,"Ġwritten":5154,"Ġmak":5155,"Ġmaster":5156,"pers":5157,"ARCH":5158,"post":5159,"ĠMIN":5160,"ĠMEN":5161,"Ġsoon":5162,"Ġbyref":5163,"commit":5164,"ĠBook":5165,"ĠBinding":5166,"ĠBinHex":5167,"ĠdataTo":5168,"SEN":5169,"Ġsystems":5170,"Ġsymmetric":5171,"Ġserve":5172,"gnConfigItem":5173,"Ġprevent":5174,"Ġprivate":5175,"okan":5176,"UTF":5177,"INITS":5178,"propto":5179,"proto":5180,"Ġitself":5181,"ackspace":5182,"Ġpointer":5183,"dataset":5184,"format":5185,"Ġparam":5186,"Ġsignal":5187,"Ġuses":5188,"Ġâĸģ'\\\\":5189,"cii":5190,"ciph":5191,"ĠconfigNetwork":5192,"ĠconfigItem":5193,"Ġ512":5194,"Register":5195,"Revision":5196,"Ġ42":5197,"Ġ45":5198,"Ġ\\'":5199,"ĠGetNotify":5200,"ĠGetSupModuleList":5201,"ĠGetGuidTypeList":5202,"ĠRemove":5203,"ORM":5204,"ORITY":5205,"ĠIncremental":5206,"Ġversionutils":5207,"Ġnet":5208,"Ġnecess":5209,"ourVar":5210,"Ġwhites":5211,"condition":5212,"console":5213,"mitter":5214,"Ġengine":5215,"Ġenumerate":5216,"Ġpyrax":5217,"charfile":5218,"Ġlogar":5219,"Ġwere":5220,"feat":5221,"ĠHAS":5222,"ĠHOLDER":5223,"ĠHandles":5224,"Ġ1024":5225,"ECOMM":5226,"ENCE":5227,"Ġ65":5228,"Ġ67":5229,"Ġ68":5230,"Ġcannot":5231,"pretxn":5232,"Ġtimezone":5233,"Ġanything":5234,"respon":5235,"Ġaccord":5236,"ĠaddService":5237,"ĠaddEmpty":5238,"ĠKeep":5239,"abstop":5240,"Ġgroups":5241,"ĠgroupId":5242,"ĠTestGyp":5243,"ĠUsage":5244,"ĠUiName":5245,"ĠdisownServiceParent":5246,"Ġdisassemble":5247,"Ġsparse":5248,"Ġlists":5249,"Ġcontextmanager":5250,"bufsize":5251,"Ġnewdata":5252,"ĠnewCertAsPEM":5253,"Ġreadline":5254,"Ġ82":5255,"mbedded":5256,"Device":5257,"Default":5258,"Connection":5259,"parsing":5260,"Ġ2014":5261,"Ġdocstrings":5262,"nglish":5263,"Ġshutil":5264,"Ġdocker":5265,"Ġdistribute":5266,"Ġdistribution":5267,"ĠORD":5268,"Ġ98":5269,"ĠSetGuid":5270,"ĠSetUsage":5271,"ĠSetSupModuleList":5272,"ALLOW":5273,"pycrypto":5274,"MAGE":5275,"sync":5276,"Ġ72":5277,"Ġ77":5278,"RESET":5279,"Ġperform":5280,"Ġpermit":5281,"Ġpercent":5282,"ĠCONNEC":5283,"NotFound":5284,"gerField":5285,"denied":5286,"Ġsubdir":5287,"orgroups":5288,"Ġcomponent":5289,"Ġcalls":5290,"Ġsche":5291,"Ġscrap":5292,"Ġschedule":5293,"Ġoptional":5294,"buttons":5295,"Ġopenrf":5296,"vironment":5297,"...\"":5298,"Ġrequire":5299,"Ġnumbers":5300,"Ġallowbranches":5301,"Artifacts":5302,"flavorid":5303,"ĠcurrentStep":5304,"byname":5305,"Ġroute":5306,"Ġpartial":5307,"archy":5308,"Ġimplementation":5309,"configuration":5310,"Ġtagname":5311,"Ġ'/'":5312,"Ġ123":5313,"ĠenvAdditions":5314,"Stack":5315,"Ġinternal":5316,"Ġintersect":5317,"Ġdocuments":5318,"Any":5319,"Search":5320,"SetProber":5321,"Ġauthm":5322,"ypart":5323,"Ġlead":5324,"Ġleave":5325,"Ġfolder":5326,"Ġupload":5327,"ĠISO":5328,"ĠCommonObject":5329,"URCE":5330,"Ġqnames":5331,"required":5332,"Ġfeat":5333,"ĠConfig":5334,"Ġgood":5335,"Ġcpuinfo":5336,"Ġprefixes":5337,"php":5338,"Ġrespected":5339,"Character":5340,"CharSetProber":5341,"opts":5342,"umpy":5343,"Ġbreaks":5344,"exp":5345,"example":5346,"nova":5347,"Ġ2001":5348,"Ġ2009":5349,"ĠFormat":5350,"SyllableSeparator":5351,"ified":5352,"Ġidx":5353,"ĠregisterCom":5354,"Ġnamedtuple":5355,"ĠnamedAny":5356,"addLink":5357,"Ġprocessing":5358,"Ġprocessuid":5359,"Ġprocessgid":5360,"Ġhereby":5361,"ForFile":5362,"Ġcodecs":5363,"Ġmessages":5364,"Ġpublish":5365,"Ġwords":5366,"Ġvalidate":5367,"Ġlinks":5368,"InfoForFile":5369,"ĠAnsibleFilter":5370,"ĠXenAP":5371,"Containers":5372,"DATE":5373,"beam":5374,"warn":5375,"Ġbodypart":5376,"Ġmarker":5377,"Ġuglier":5378,"Ġusersorgroups":5379,"Ġcontaining":5380,"Ġparsers":5381,"Ġclients":5382,"/**":5383,"FIG":5384,"FIX":5385,"errors":5386,"ĠdumpFile":5387,"Ġdoesn":5388,"2017":5389,"coder":5390,"Ġcalling":5391,"Ġoversize":5392,"ĠWeave":5393,"Ġ1998":5394,"ĠHelpTextObj":5395,"Ġfuncname":5396,"Ġtotalwtd":5397,"Ġreflect":5398,"ĠControl":5399,"Ġinterfaces":5400,"DIRECT":5401,"Ġfilled":5402,"ĠCheckin":5403,"ĠPydocweb":5404,"ĠOGRIndex":5405,"ĠsetUpClass":5406,"hooks":5407,"Ġintegers":5408,"Ġnextrely":5409,"Ġnextrelx":5410,"imageid":5411,"DOUT":5412,"does":5413,"Ġimg":5414,"ĠSupModList":5415,"HEADERS":5416,"categor":5417,"inderContainers":5418,"Ġworker":5419,"Ġrestype":5420,"ĠremoveService":5421,"Ġinstal":5422,"ĠServices":5423,"Ġorganization":5424,"ĠExamples":5425,"Ġsupports":5426,"FILES":5427,"fakeimageid":5428,"Ġseparator":5429,"ĠSelect":5430,"ĠBaseArtifacts":5431,"Ġwebhook":5432,"Ġwebserver":5433,"Ġattempts":5434,"ĠCommentSecurityForm":5435,"Ġdenybranches":5436,"PROF":5437,"\\\"\"":5438,"Ġquotes":5439,"Ġcorrectly":5440,"ĠDEBUG":5441,"cipherbyname":5442,"SupModList":5443,"bytefile":5444,"SystemId":5445,"webhook":5446,"PYRAX":5447,"deviceA":5448,"Ġagain":5449,"Ġaggr":5450,"Ġtopdir":5451,"ĠAdd":5452,"ĠIServiceCollection":5453,"Ġhandle":5454,"ĠOTHERWISE":5455,"Ġlocation":5456,"ĠRequestFact":5457,"ByName":5458,"ICES":5459,"ICODE":5460,"clang":5461,"governor":5462,"Ġautoscale":5463,"Ġtodo":5464,"Ġtoday":5465,"Ġpaste":5466,"Ġoldline":5467,"ĠClassify":5468,"ĠListenerThread":5469,"Ġfixer":5470,"LENGTH":5471,"ĠGuidTypes":5472,"ĠBEGIN":5473,"ĠStompSpec":5474,"ByteStream":5475,"ByteCharSetProber":5476,"CONFIG":5477,"CLIENT":5478,"]+)'":5479,"callback":5480,"download":5481,"windows":5482,"Ġfmt":5483,"ĠfmForm":5484,"uthentication":5485,"Ġmany":5486,"Ġchunks":5487,"ĠMultiService":5488,"ĠMultiByteCharSetProber":5489,"ĠMessageMiddleware":5490,"Ġprevious":5491,"ĠpreviourVar":5492,"Ġzipfile":5493,"CRIPT":5494,"Ġserializer":5495,"RRECOMM":5496,"SOURCE":5497,"duplicate":5498,"plot":5499,"specific":5500,"requested":5501,"Ġtrace":5502,"Ġphantom":5503,"Ġpkg":5504,"Ġisspace":5505,"Ġdeveloping":5506,"Ġdaemon":5507,"Ġmercurial":5508,"ĠCreator":5509,"Ġrmtree":5510,"ĠSTDOUT":5511,"ĠAUTHOR":5512,"ĠFlags":5513,"ĠDocument":5514,"ryableError":5515,"common":5516,"Ġchangesets":5517,"ĠCommunications":5518,"ĠtearDownClass":5519,"ĠComponent":5520,"GPLv":5521,"PublicId":5522,"autoescape":5523,"nfssync":5524,"speed":5525,"slave":5526,"çĽ®é":5527,"Ġ~/.":5528,"depends":5529,"Ġtrigge":5530,"Ġpsutil":5531,"Ġpush":5532,"Ġcorrespon":5533,"Ġfrequency":5534,"member":5535,"alpha":5536,"Ġinvoices":5537,"Ġdistutils":5538,"Ġdefinition":5539,"ĠgetUserName":5540,"ĠPermission":5541,"Ġstdout":5542,"Ġdirectly":5543,"Ġsigned":5544,"ĠRecursive":5545,"ĠUNICODE":5546,"Ġexpandtabs":5547,"Ġxmlrpclib":5548,"2851":5549,"Ġassociated":5550,"patterns":5551,"Cannot":5552,"CORE":5553,"CPPFLAGS":5554,"FLOAT":5555,"Intended":5556,"LangModel":5557,"Posit":5558,"PRIORITY":5559,"SIDEBAR":5560,"Topic":5561,"TagValue":5562,"body":5563,"camelli":5564,"daily":5565,"iderman":5566,"implementation":5567,"micros":5568,"month":5569,"nchron":5570,"primary":5571,"pAddress":5572,"inserted":5573,"Ġalone":5574,"Ġatexit":5575,"Ġsegmentation":5576,"Ġcertain":5577,"attributes":5578,"Ġ'\\\\'":5579,"Ġwsgi":5580,"Ġrepository":5581,"Ġdeprecated":5582,"Ġdashes":5583,"getLinkInfoForFile":5584,"ĠTIME":5585,"ĠGreekLangModel":5586,"ĠAudience":5587,"Ġgetfileinfo":5588,"ĠNetscape":5589,"ĠIntegerField":5590,"Ġhgrcusers":5591,"Ġhierarchy":5592,"ĠPlanForm":5593,"Ġstompest":5594,"ĠOSError":5595,"Ġprogressreporter":5596,"ĠDIRECT":5597,"raxpub":5598,"ĠdataToWrite":5599,"INITSCRIPT":5600,"ciphers":5601,"ĠIncrementalParser":5602,"Ġwhitespace":5603,"ĠHOLDERS":5604,"Ġaccording":5605,"ĠaddEmptyLine":5606,"ĠCONNECTION":5607,"CharacterStream":5608,"ĠregisterComposition":5609,"ĠAnsibleFilterError":5610,"ĠOGRIndexError":5611,"categories":5612,"ĠBaseArtifactsTest":5613,"ĠRequestFactory":5614,"ĠpreviourVarPrefix":5615,"RRECOMMENDS":5616,"çĽ®éĮĦ":5617,"Ġtriggered":5618,"Ġcorresponding":5619,"camellia":5620,"!'":5621,"!</":5622,"\"|":5623,"\"\\\\":5624,"$'":5625,"${":5626,"';":5627,"'<":5628,"'|":5629,"'}":5630,"'),":5631,"(\"":5632,"(*":5633,"+\"":5634,"+'":5635,"+.":5636,"+)'":5637,",\"":5638,"-\"":5639,".)":5640,".\\":5641,".{":5642,"/__":5643,"/..":5644,"/%(":5645,"09":5646,"10":5647,"14":5648,"100":5649,"21":5650,"34":5651,"38":5652,"65":5653,"92":5654,"956":5655,"=\"":5656,">).":5657,"?\\":5658,"AG":5659,"AP":5660,"AUT":5661,"All":5662,"API":5663,"AGE":5664,"Agent":5665,"Authentication":5666,"BE":5667,"BJ":5668,"BU":5669,"Be":5670,"Bin":5671,"Bad":5672,"BIT":5673,"BytesIO":5674,"BOO":5675,"BittorrentStore":5676,"CL":5677,"CM":5678,"CP":5679,"Call":5680,"CXX":5681,"Could":5682,"CLAIM":5683,"CLIBC":5684,"CJP":5685,"DI":5686,"Dis":5687,"Det":5688,"DAL":5689,"DRI":5690,"DTD":5691,"EG":5692,"ET":5693,"EV":5694,"EntityResolver":5695,"Embedded":5696,"English":5697,"FS":5698,"Flavor":5699,"FLI":5700,"FSS":5701,"FAL":5702,"Foo":5703,"Failed":5704,"FROM":5705,"FFIX":5706,"GN":5707,"Got":5708,"Group":5709,"Greek":5710,"GLIBC":5711,"GENCE":5712,"HH":5713,"Host":5714,"Ign":5715,"IRE":5716,"IProcess":5717,"Impl":5718,"IMAGE":5719,"JIS":5720,"JOR":5721,"Json":5722,"Le":5723,"LIS":5724,"Look":5725,"LINE":5726,"Letter":5727,"Layer":5728,"MS":5729,"Man":5730,"Module":5731,"MUT":5732,"MESS":5733,"Machine":5734,"Mozilla":5735,"New":5736,"NSI":5737,"Number":5738,"NMen":5739,"NRevision":5740,"NORM":5741,"NFSS":5742,"OE":5743,"OError":5744,"Octo":5745,"OICES":5746,"Per":5747,"PAR":5748,"PRE":5749,"Pream":5750,"Pem":5751,"Print":5752,"Pool":5753,"QU":5754,"Que":5755,"QGIS":5756,"Rot":5757,"Rule":5758,"RIN":5759,"RAS":5760,"Ratio":5761,"Runtime":5762,"RSRC":5763,"SF":5764,"SH":5765,"SU":5766,"Ser":5767,"Sal":5768,"Sub":5769,"STA":5770,"SLA":5771,"Space":5772,"SCons":5773,"SOME":5774,"Toc":5775,"Time":5776,"TRU":5777,"TML":5778,"Torrent":5779,"Typ":5780,"TTRIBUT":5781,"Title":5782,"UX":5783,"Ur":5784,"USE":5785,"UCH":5786,"UAL":5787,"UCLIBC":5788,"UIRE":5789,"VIN":5790,"VNRevision":5791,"WN":5792,"WS":5793,"Watch":5794,"What":5795,"[\\":5796,"[^":5797,"\\'":5798,"\\.\\":5799,"].":5800,"_\\":5801,"`,":5802,"aut":5803,"aware":5804,"abcdefghi":5805,"authentic":5806,"bv":5807,"bit":5808,"biderman":5809,"cv":5810,"css":5811,"cla":5812,"core":5813,"ccur":5814,"collection":5815,"collectd":5816,"collector":5817,"corator":5818,"classes":5819,"cyril":5820,"catal":5821,"cancel":5822,"du":5823,"done":5824,"dtype":5825,"dlen":5826,"dings":5827,"django":5828,"dock":5829,"dtemp":5830,"dump":5831,"dRot":5832,"ev":5833,"emp":5834,"ever":5835,"exce":5836,"eval":5837,"elican":5838,"fall":5839,"finfo":5840,"fill":5841,"fdir":5842,"folder":5843,"floor":5844,"fying":5845,"got":5846,"gner":5847,"gend":5848,"gpu":5849,"gyp":5850,"gpl":5851,"ground":5852,"graphy":5853,"hd":5854,"hz":5855,"hen":5856,"hge":5857,"how":5858,"hpu":5859,"hind":5860,"href":5861,"hidden":5862,"hmac":5863,"imp":5864,"iss":5865,"iate":5866,"ipo":5867,"ign":5868,"ift":5869,"irst":5870,"iating":5871,"ipping":5872,"jinja":5873,"ka":5874,"kit":5875,"known":5876,"lue":5877,"long":5878,"ming":5879,"map":5880,"mature":5881,"mary":5882,"make":5883,"mute":5884,"mwise":5885,"machine":5886,"mTyp":5887,"nh":5888,"nm":5889,"nho":5890,"num":5891,"nip":5892,"nished":5893,"oD":5894,"ose":5895,"oder":5896,"oint":5897,"osh":5898,"pap":5899,"pError":5900,"pus":5901,"pull":5902,"pically":5903,"populate":5904,"rand":5905,"rum":5906,"rlen":5907,"rÃŃ":5908,"riter":5909,"sd":5910,"sort":5911,"sable":5912,"some":5913,"suffix":5914,"tc":5915,"tf":5916,"twist":5917,"token":5918,"uch":5919,"uDis":5920,"vp":5921,"vowel":5922,"ws":5923,"wrt":5924,"writer":5925,"xb":5926,"xff":5927,"yes":5928,"ylabel":5929,"ycle":5930,"zA":5931,"zgu":5932,"¨çĽ®éĮĦ":5933,"Ã¢":5934,"Ã´":5935,"Ãł":5936,"âĢ":5937,"åľ":5938,"æī":5939,"æĸ":5940,"èª":5941,"Ġ^":5942,"Ġnewline":5943,"Ġut":5944,"Ġ//":5945,"Ģåľ":5946,"limit":5947,"lius":5948,"liog":5949,"libcrypto":5950,"linemark":5951,"des":5952,"dere":5953,"dele":5954,"decode":5955,"demo":5956,"nto":5957,"ntool":5958,"Ġ('":5959,"Ġ(<":5960,"Ġ(@":5961,"ini":5962,"inx":5963,"ination":5964,"inner":5965,"information":5966,"infilename":5967,"dentation":5968,"stal":5969,"states":5970,"reen":5971,"reable":5972,"resize":5973,"report":5974,"register":5975,"reply":5976,"Ġ=>":5977,"orcollection":5978,"endi":5979,"Ġao":5980,"Ġast":5981,"Ġapi":5982,"Ġapache":5983,"Ġassi":5984,"Ġaround":5985,"Ġamount":5986,"Ġautom":5987,"Ġseed":5988,"Ġsever":5989,"Ġsell":5990,"Ġselect":5991,"Ġtf":5992,"Ġtr":5993,"Ġtak":5994,"Ġpt":5995,"Ġpur":5996,"Ġping":5997,"Ġpad":5998,"Ġpai":5999,"Ġpas":6000,"Ġpow":6001,"Ġpull":6002,"oma":6003,"omi":6004,"omain":6005,"omType":6006,"Ġcap":6007,"Ġcare":6008,"Ġcas":6009,"Ġcollectd":6010,"Ġcycle":6011,"onfdir":6012,"atplot":6013,"atomi":6014,"Ġio":6015,"Ġfh":6016,"Ġfid":6017,"Ġfuture":6018,"erRuntime":6019,"lfer":6020,"Ġ'*":6021,"Ġ'{":6022,"Ġ'),":6023,"Ġ'??":6024,"lent":6025,"hether":6026,"Ġ29":6027,"Ġ204":6028,"ency":6029,"Ġwin":6030,"Ġ\":":6031,"Ġ\"\\":6032,"Ġ\"========":6033,"Ġ\",\"":6034,"Ġreache":6035,"Ġremin":6036,"Ġreader":6037,"Ġretri":6038,"Ġreference":6039,"Ġremain":6040,"Ġreject":6041,"Ġrevision":6042,"Ġrepresent":6043,"Ġreverse":6044,"Ġremote":6045,"Ġrecv":6046,"alt":6047,"aly":6048,"alted":6049,"arrow":6050,"ionando":6051,"itect":6052,"itel":6053,"gest":6054,"cedence":6055,"Ġdeal":6056,"Ġdesc":6057,"Ġdesi":6058,"Ġdetection":6059,"Ġdecipher":6060,"Ġdetected":6061,"Ġndi":6062,"Ġnice":6063,"Ġnick":6064,"Ġnull":6065,"Ġnumpy":6066,"Ġnntool":6067,"Ġsli":6068,"Ġsla":6069,"Ġsublic":6070,"Ġsalted":6071,"Ġsitel":6072,"Ġoth":6073,"Ġoccur":6074,"uri":6075,"uratomi":6076,"Ġ101":6077,"Ġ112":6078,"andom":6079,"anumber":6080,"anumer":6081,"Ġindi":6082,"Ġinverse":6083,"Ġinside":6084,"Ġdsize":6085,"Ġdatal":6086,"Ġ37":6087,"Ġ38":6088,"Ġ3000":6089,"Ġtheme":6090,"Ġtheory":6091,"Ġec":6092,"Ġeas":6093,"Ġequi":6094,"Ġenter":6095,"Ġeffect":6096,"Ġeveryone":6097,"Ġetc":6098,"ssl":6099,"ssue":6100,"Ġbb":6101,"Ġbel":6102,"Ġbind":6103,"Ġbook":6104,"Ġbool":6105,"Ġbasic":6106,"Ġboth":6107,"Ġbrand":6108,"ross":6109,"rocar":6110,"rovider":6111,"Ġmis":6112,"Ġmout":6113,"Ġmbe":6114,"Ġmost":6115,"Ġmuch":6116,"last":6117,"lake":6118,"lazy":6119,"lopen":6120,"lots":6121,"loud":6122,"edsettings":6123,"edException":6124,"getpelican":6125,"getitem":6126,"ĠCh":6127,"ĠCar":6128,"ĠCit":6129,"ĠCan":6130,"ĠCall":6131,"ĠCoding":6132,"ĠCOM":6133,"ĠChoice":6134,"ĠCLAIM":6135,"ĠCloud":6136,"figs":6137,"first":6138,"ĠTry":6139,"ĠTable":6140,"ĠTrans":6141,"rian":6142,"ription":6143,"Ġrdata":6144,"Ġrnm":6145,"Ġrandom":6146,"Ġimporting":6147,"isc":6148,"isList":6149,"isgression":6150,"isDict":6151,"ĠGroup":6152,"ĠGID":6153,"ĠGFile":6154,"ĠGDA":6155,"ĠGUID":6156,"ĠGDAL":6157,"ateMachine":6158,"Ġislink":6159,"Ġisclass":6160,"Ġisnot":6161,"Ġisbits":6162,"romain":6163,"ĠSA":6164,"ĠSO":6165,"ĠSR":6166,"ĠSol":6167,"ĠSum":6168,"ĠSource":6169,"ĠSTD":6170,"ĠSITE":6171,"ĠSPEC":6172,"ĠSCons":6173,"ĠSJIS":6174,"ĠSVNRevision":6175,"Ġasm":6176,"Ġasp":6177,"Ġascii":6178,"ĠAM":6179,"ĠAls":6180,"ĠACK":6181,"ĠAuto":6182,"ĠAvailable":6183,"ĠALL":6184,"ĠAlessandro":6185,"ĠAccess":6186,"ĠACL":6187,"ĠATTRIBUT":6188,"icionando":6189,"vious":6190,"ĠFri":6191,"ĠFName":6192,"ĠFore":6193,"ĠFSS":6194,"ĠFUL":6195,"ĠFallback":6196,"ĠFinderContainers":6197,"ĠFirst":6198,"xture":6199,"Ġoff":6200,"Ġofname":6201,"verify":6202,"Ġgets":6203,"ĠgetConfig":6204,"Ġgetsource":6205,"ĠgetCertAsPEM":6206,"Ġgetpass":6207,"ĠgetDirectory":6208,"Ġgethostname":6209,"ĠgetEncoding":6210,"ĠgetSystemId":6211,"ĠgetByteStream":6212,"ĠgetPublicId":6213,"ĠgetCharacterStream":6214,"though":6215,"thoma":6216,"ypes":6217,"ĠNe":6218,"ĠNON":6219,"ĠNOM":6220,"ĠNAME":6221,"ĠNEG":6222,"ulerRuntime":6223,"quid":6224,"ĠLms":6225,"ĠLook":6226,"aps":6227,"ĠImplement":6228,"ĠIPlugin":6229,"ĠIProcess":6230,"ĠIpAddress":6231,"ĠIOError":6232,"ĠIssue":6233,"veox":6234,"Ġ250":6235,"Ġhidden":6236,"Ġhoneypot":6237,"Ġhuman":6238,"Ġhwrt":6239,"unpack":6240,"unused":6241,"unix":6242,"unwrap":6243,"unha":6244,"ador":6245,"adim":6246,"adows":6247,"Ġfig":6248,"Ġfixture":6249,"__.":6250,"upTorrent":6251,"ĠPA":6252,"ĠPath":6253,"ĠPlugin":6254,"ĠPlatform":6255,"ĠPBD":6256,"ĠPIF":6257,"Ġthose":6258,"licit":6259,"Ġord":6260,"Ġgzip":6261,"ationField":6262,"Ġstatic":6263,"Ġlname":6264,"Ġlatter":6265,"oca":6266,"ocial":6267,"ĠOS":6268,"ĠOr":6269,"ĠOutput":6270,"ĠOpError":6271,"ĠRes":6272,"ĠRLE":6273,"ĠRackspace":6274,"ĠRomain":6275,"Ġconv":6276,"Ġconclu":6277,"Ġvs":6278,"Ġvotes":6279,"Ġvowels":6280,"Ġresp":6281,"ĠassertIn":6282,"Ġfileinput":6283,"Ġ%}{":6284,"Ġprobab":6285,"Ġprovid":6286,"ginner":6287,"schedule":6288,"sconfdir":6289,"Ġbehind":6290,"ailing":6291,"Ġâĸģ\"/":6292,"Ġchr":6293,"Ġchain":6294,"acing":6295,"aclass":6296,"access":6297,"asp":6298,"ĠDa":6299,"ĠDon":6300,"ĠDesc":6301,"ĠDatap":6302,"ĠDOC":6303,"ĠDisgression":6304,"Ġlib":6305,"Ġliteral":6306,"Ġarange":6307,"Ġarrow":6308,"figures":6309,"ĠVer":6310,"ĠVER":6311,"ĠVBD":6312,"ĠVIF":6313,"ĠVLAN":6314,"ĠVDI":6315,"Ġstri":6316,"Ġstrutils":6317,"Ġwithin":6318,"rying":6319,"Profile":6320,"Program":6321,"Province":6322,"nerp":6323,"Ġcomput":6324,"Ġcomments":6325,"Ġcompression":6326,"ouble":6327,"Ġunnamed":6328,"Ġundefi":6329,"Ġungettext":6330,"Ġunknown":6331,"ĠEden":6332,"ĠEvent":6333,"ĠENO":6334,"ĠExp":6335,"ĠEditor":6336,"ĠERR":6337,"ĠEscape":6338,"ĠEcu":6339,"digest":6340,"Ġ{(":6341,"Ġ{{":6342,"Ġ{}":6343,"Ġ{}\"":6344,"Ġmeans":6345,"Ġclassifier":6346,"ONAB":6347,"ĠWill":6348,"ĠWork":6349,"ĠWarning":6350,"ĠWhen":6351,"ĠWhether":6352,"Ġmajor":6353,"ĠuserSet":6354,"Ġapps":6355,"Ġapplied":6356,"Ġalgor":6357,"ARM":6358,"ART":6359,"pool":6360,"policies":6361,"ĠMa":6362,"ĠMe":6363,"ĠMen":6364,"ĠMet":6365,"ĠMac":6366,"ĠMIT":6367,"ĠMapp":6368,"ĠModel":6369,"ĠMaint":6370,"ĠMachine":6371,"ĠMozilla":6372,"LES":6373,"LEY":6374,"LException":6375,"ĠGuidObject":6376,"Ġ}}":6377,"Ġ}}{":6378,"Ġbychoice":6379,"composition":6380,"compile":6381,"msg":6382,"ĠBran":6383,"ĠBootstrap":6384,"ĠBig":6385,"ĠBittorrentStore":6386,"ĠBokan":6387,"ĠBrian":6388,"Ġsets":6389,"ĠsetPassword":6390,"ĠsetUsername":6391,"ĠsetServiceParent":6392,"ĠsetEncoding":6393,"ĠsetLe":6394,"thodConfig":6395,"Unable":6396,"Ġdatabase":6397,"SEQU":6398,"Ġsyntax":6399,"Ġsynchron":6400,"Listener":6401,"ListenerThread":6402,"ERN":6403,"gnments":6404,"Ġpref":6405,"Ġprior":6406,"Ġexceed":6407,"ality":6408,"alized":6409,"INUM":6410,"INCLUDING":6411,"INSTA":6412,"program":6413,"argspec":6414,"ĠfailIf":6415,"Ġposix":6416,"stributions":6417,"assim":6418,"intosh":6419,"Ġâĸģ'/":6420,"Ġâĸģ'\\":6421,"Ġâĸģ')'":6422,"Ġâĸģ'('":6423,"Ġâĸģ'?\\":6424,"ESSEN":6425,"cia":6426,"cial":6427,"cies":6428,"Ġraised":6429,"opyright":6430,"Ġyaml":6431,"urlencoded":6432,"ISO":6433,"typically":6434,"Ġ52":6435,"Ġ53":6436,"Ġ54":6437,"Ġ55":6438,"Ġ56":6439,"Ġ57":6440,"Ġ58":6441,"Ġ589":6442,"Ġxrange":6443,"Ġxvp":6444,"Ġadded":6445,"Read":6446,"Report":6447,"Region":6448,"TIBLE":6449,"Ġ41":6450,"Ġ43":6451,"Ġ44":6452,"Ġ46":6453,"Ġ47":6454,"Ġ48":6455,"Ġ49":6456,"Ġ401":6457,"Ġintbv":6458,"umn":6459,"ĠRemin":6460,"ĠReader":6461,"ĠReport":6462,"ĠRegra":6463,"ErrorHandler":6464,"ORIES":6465,"ĠIndex":6466,"ĠInformation":6467,"Ġnegative":6468,"AND":6469,"ains":6470,"ifp":6471,"ipulate":6472,"Ġstarted":6473,"conn":6474,"connect":6475,"construct":6476,"configs":6477,"Ġpyutil":6478,"Ġpytest":6479,"charToOrderMap":6480,"Ġlogic":6481,"timeout":6482,"Ġ!@":6483,"ersist":6484,"ershell":6485,"quested":6486,"usage":6487,"ĠHO":6488,"ĠHP":6489,"ĠHex":6490,"ĠHTML":6491,"Ġ102":6492,"Ġ103":6493,"Ġ104":6494,"Ġ105":6495,"Ġ106":6496,"Ġ107":6497,"Ġ108":6498,"Ġ109":6499,"Ġ1048":6500,"undle":6501,"ENTIAL":6502,"Ġ61":6503,"Ġ63":6504,"Ġ66":6505,"Ġ69":6506,"Ġresulting":6507,"minor":6508,"Ġfinal":6509,"Ġfinish":6510,"Ġoutfilename":6511,"Ġhel":6512,"==\"":6513,"ServiceName":6514,"Ġdicts":6515,"precedence":6516,"previous":6517,"Ġtimes":6518,"Ġtimeout":6519,"Ġescape":6520,"CHOICES":6521,"Ġaccount":6522,"Ġaccomp":6523,"antini":6524,"Ġaddr":6525,"LIGENCE":6526,"listen":6527,"Init":6528,"Invalid":6529,"Incorrect":6530,"ĠmsgLen":6531,"ĠTestBase":6532,"ĠTestBittorrentStore":6533,"ĠUt":6534,"ĠUser":6535,"ĠUID":6536,"ĠURI":6537,"Ġ```":6538,"Ġdisk":6539,"Ġdiscla":6540,"Ġdisconnect":6541,"TAGS":6542,"Ġspacing":6543,"Ġlistdir":6544,"Ġreadlines":6545,"Ġcharge":6546,"Ġcharfile":6547,"Ġbytefile":6548,"ives":6549,"iveRatio":6550,"Ġ83":6551,"Ġ84":6552,"Ġ85":6553,"Ġ87":6554,"Ġ88":6555,"Ġ89":6556,"Ġplugins":6557,"Ġerrorgeom":6558,"parser":6559,"Ġ2013":6560,"Ġ2015":6561,"Ġdocs":6562,"Ġmapping":6563,"127":6564,"bindir":6565,"bindings":6566,"rects":6567,"Ġfeaturetype":6568,"metaclass":6569,"Ġsha":6570,"Ġshare":6571,"Ġshall":6572,"Ġshadows":6573,"Ġurlparse":6574,"Ġranges":6575,"Ġarglen":6576,"SSWOR":6577,"Ġ91":6578,"Ġ92":6579,"Ġ93":6580,"Ġ95":6581,"Ġ96":6582,"Ġ97":6583,"Ġ99":6584,"pected":6585,"ĠSets":6586,"Ġoutputfilename":6587,"ALING":6588,"ToFile":6589,"dedOn":6590,"setup":6591,"setServiceParent":6592,"Ġsuppose":6593,"Ġtextfile":6594,"Ġlimitation":6595,"ASONAB":6596,"sym":6597,"sys":6598,"sysconfdir":6599,"Ġ71":6600,"Ġ73":6601,"Ġ74":6602,"Ġ75":6603,"Ġ76":6604,"Ġ78":6605,"Ġ79":6606,"HOME":6607,"RET":6608,"together":6609,"ators":6610,"ĠCONTRIBUT":6611,"ĠCONSEQU":6612,"baseName":6613,"tons":6614,"Ġplural":6615,"callable":6616,"dencies":6617,"readheader":6618,"Ġsubstant":6619,"Ġsubplo":6620,"classify":6621,"ocks":6622,"Ġencode":6623,"Ġencrypted":6624,"Ġencoded":6625,"Ġcompat":6626,"Ġscope":6627,"ĠOpenERP":6628,"ĠOpenStack":6629,"ĠOpenEmbedded":6630,"THIS":6631,"raper":6632,"playbook":6633,"portedException":6634,"ĠfileNameToc":6635,"Configuration":6636,"GEMENT":6637,"Ġbuttons":6638,"Ġdefaultdict":6639,"ĠDECSET":6640,"ĠDECRESET":6641,"ĠKeys":6642,"Ġextract":6643,"Ġformatter":6644,"flavors":6645,"Ġsetter":6646,"Ġsetters":6647,"ĠAnd":6648,"ĠXmlList":6649,"Ġcurrently":6650,"DERR":6651,"SupportedException":6652,"imer":6653,"usermatch":6654,"Ġparty":6655,"Ġimplementations":6656,"ĠStop":6657,"ĠStart":6658,"ĠStates":6659,"groupname":6660,"Ġ121":6661,"Ġ124":6662,"ĠNotEn":6663,"ĠenvPream":6664,"Ġsplitlines":6665,"StateMachine":6666,"credentials":6667,"hedulerRuntime":6668,"Ġstatement":6669,"ailsForm":6670,"ĠDecode":6671,"ĠDecorator":6672,"Ġserverlist":6673,"Ġinterpre":6674,"Ġinteractive":6675,"Ġinterval":6676,"Ġinternet":6677,"PATIBLE":6678,"PASSWOR":6679,"Session":6680,"ship":6681,"Ġchecks":6682,"Ġchecked":6683,"Ġcheckout":6684,"Ġspecial":6685,"Ġinstances":6686,"changeme":6687,"changePer":6688,"writeinfo":6689,"writeNetwork":6690,"Ġlegend":6691,"Ġgene":6692,"Ġupgrade":6693,"ĠCommonXml":6694,"ysical":6695,"require":6696,"Ġ110":6697,"Ġ111":6698,"Ġ113":6699,"Ġ114":6700,"Ġ115":6701,"Ġ116":6702,"Ġ117":6703,"Ġ118":6704,"Ġ119":6705,"logout":6706,"ĠConsole":6707,"ĠConsider":6708,"Ġgoogle":6709,"foobar":6710,"Ġzipo":6711,"Ġcreatelinemark":6712,"Ġfuncto":6713,"Ġ\"./{":6714,"FileHandler":6715,"ILD":6716,"STDIR":6717,"UserAdvice":6718,"ogr":6719,"phinx":6720,"tempest":6721,"Ġrespects":6722,"psm":6723,"Ġends":6724,"defs":6725,"Ġcoder":6726,"Ġbufsize":6727,"ĠSAXException":6728,"ĠINDIRECT":6729,"Ġorders":6730,"ĠprepareParser":6731,"CTS":6732,"Exec":6733,"Expected":6734,"``.":6735,"cale":6736,"experimental":6737,"gui":6738,"Ġvim":6739,"Ġviews":6740,"Ġ2003":6741,"Ġ2004":6742,"Ġ2007":6743,"Ġ2008":6744,"ĠFormError":6745,"ĠFormBase":6746,"ĠProject":6747,"poses":6748,"AMD":6749,"CEPTION":6750,"SignConfigItem":6751,"ificial":6752,"ĠregisterOrg":6753,"ĠregisterNamed":6754,"ĠregisterUserAdvice":6755,"Ġrdr":6756,"ĠdirectoryNetwork":6757,"ĠprocessName":6758,"compat":6759,"complete":6760,"TIONS":6761,"contents":6762,"ĠCommonDefinesXml":6763,"CATEG":6764,"ForWidget":6765,"Ġcreator":6766,"Ġcreating":6767,"Ġcodes":6768,"Ġreasons":6769,"ĠArrum":6770,"ĠLOSS":6771,"Ġresolver":6772,"Ġmaxy":6773,"ĠQgsApplication":6774,"DEFAULT":6775,"DEBUG":6776,"DELEY":6777,"ialize":6778,"ializes":6779,"Ġsteps":6780,"ĠlinkTitle":6781,"Ġpostfix":6782,"Ġpostgres":6783,"Ġspecification":6784,"Ġcommands":6785,"Ġrelated":6786,"ĠCOc":6787,"Ġrawreply":6788,"ĠOKBUTTON":6789,"ĠcompositionCall":6790,"ĠEUCJP":6791,"ĠErrorHandler":6792,"ĠErrorDict":6793,"oresSc":6794,"ĠoriginalLine":6795,"ĠQgsAuthMe":6796,"1900":6797,"NOT":6798,"TOOL":6799,"TOUCH":6800,"iqueAttribute":6801,"many":6802,"Ġ157":6803,"Ġinputs":6804,"Ġediting":6805,"Ġeditable":6806,"ĠLOGFILE":6807,"2013":6808,"acher":6809,"cooldown":6810,"setting":6811,"ĠfullNetwork":6812,"Ġexpl":6813,"Ġexpan":6814,"Ġexisting":6815,"Ġfindall":6816,"Ġshapes":6817,"Scenario":6818,"Update":6819,"moryPool":6820,"Ġ...}.":6821,"Ġ247":6822,"Ġobtaining":6823,"Ġprocesses":6824,"ĠbeforeStepAdvice":6825,"IServiceMaker":6826,"ĠHelpTextItem":6827,"Ġterminate":6828,"Ġreceiving":6829,"('\\":6830,"AsPem":6831,"ĠafterStepAdvice":6832,"ĠafterScenario":6833,"Ġportions":6834,"Ġ233":6835,"Ġeventlet":6836,"Ġhqxer":6837,"Ġhqxifp":6838,"Ġcontinuation":6839,"REQUIRE":6840,"Ġresolves":6841,"ContentHandler":6842,"Ġfrozen":6843,"/>,":6844,"forward":6845,"runner":6846,"running":6847,"atingFileHandler":6848,"Ġwhether":6849,"Ġ187":6850,"location":6851,"icalPosit":6852,"ĠFlavorList":6853,"ĠFlavorNotFound":6854,"Ġstopall":6855,"hookedsettings":6856,"Ġneeds":6857,"Ġtranslates":6858,"Comment":6859,"KeyAsPem":6860,"MPL":6861,"aster":6862,"indexes":6863,"Ġsubject":6864,"rollius":6865,"ĠSUITE":6866,"Ġtokens":6867,"ĠRunOptions":6868,"ĠDECSLR":6869,"ĠFormMultiPageWithMenus":6870,"EXTRAS":6871,"PasswordChecked":6872,"TTERN":6873,"ĠUnicode":6874,"ĠUnix":6875,"ĠUnclo":6876,"ĠUniqueAttribute":6877,"segmented":6878,"Ġcolon":6879,"Ġdowngrade":6880,"Ġminor":6881,"ĠSystems":6882,"ĠSyllableSeparator":6883,"Ġnamespace":6884,"ĠParse":6885,"ĠorgCert":6886,"00000000":6887,"Regex":6888,"ĠInitializes":6889,"ClassProperty":6890,"IMUM":6891,"LDFLAGS":6892,"Ġseparation":6893,"Ġtyping":6894,"Ġcsvfile":6895,"Ġignores":6896,"Ġignored":6897,"articles":6898,"Ġwebapp":6899,"Ġsubscriptions":6900,"UsernameChecked":6901,"ĠCommentModel":6902,"ĠCommentDet":6903,"Ġflask":6904,"answer":6905,"Ġentry":6906,"Ġentities":6907,"Ġbackup":6908,"Ġbackground":6909,"Ġmultiline":6910,"labels":6911,"Ġrlecode":6912,"Ġrledecode":6913,"ĠApplications":6914,"ĠApplicationRunner":6915,"ĠApplicationSession":6916,"Ġproperly":6917,"ĠDEALING":6918,"LIBS":6919,"ĠroutineRegexp":6920,"SystemCommandEditor":6921,"SystemLoader":6922,"Ġdecdatacur":6923,"NodeAdminTupleAdvice":6924,"1899":6925,"??'":6926,"AUTHOR":6927,"CLUDE":6928,"FAKE":6929,"Response":6930,"SRCDATE":6931,"UGH":6932,"clear":6933,"zero":6934,"Ġtruncated":6935,"Ġcopied":6936,"Ġ'./":6937,"headers":6938,"Ġ214":6939,"Ġsavefig":6940,"Ġincluded":6941,"Ġincluding":6942,"ĠCacheLockedError":6943,"Ġtopic":6944,"ĠIServiceMaker":6945,"Ġhandles":6946,"ĠPROVIN":6947,"ĠassertRaisesRegex":6948,"Ġprovide":6949,"ĠDATA":6950,"ĠEUCKRDistributionAnalysis":6951,"ĠEUCTWDistributionAnalysis":6952,"Login":6953,"VIDES":6954,"clc":6955,"ibliog":6956,"moved":6957,"inputfilename":6958,"Ġautoescape":6959,"editable":6960,"editorcollection":6961,"ĠAuthor":6962,"Ġfixed":6963,"Ġthreading":6964,"Ġexecute":6965,"Ġdifference":6966,"ĠDISCLAIM":6967,"oughSpace":6968,"Ġhexdigest":6969,"archives":6970,"ĠStompConfig":6971,"ĠSAXNotSupportedException":6972,"ootstrapHelperAdvice":6973,"Ġretrying":6974,"982851":6975,"APPWE":6976,"CLIAdvice":6977,"Premature":6978,"UMENTA":6979,"blocks":6980,"openerp":6981,"invoices":6982,"statement":6983,"retrieve":6984,"Ġ'..'":6985,"Ġ'...'":6986,"Ġrestriction":6987,"Ġrestrictions":6988,"Ġskipping":6989,"Ġmkdtemp":6990,"Ġmanage":6991,"Ġknows":6992,"getNetworkGroup":6993,"others":6994,"ĠCFc":6995,"ĠScaling":6996,"ĠSchedulerRuntime":6997,"ĠREASONAB":6998,"ĠManager":6999,"ĠManipulate":7000,"ĠMarkup":7001,"ITEMS":7002,"INFRIN":7003,"ĠHTTPS":7004,"ĠURLField":7005,"URLTestCase":7006,"Ġzmqcontext":7007,"==========\"":7008,"ĠSystemCommandEditor":7009,"CRIPTION":7010,"ĠSDistCommand":7011,"PACKAGE":7012,"9092":7013,"BasicTests":7014,"EXCLUDE":7015,"OpenSSL":7016,"OpenERP":7017,"cannot":7018,"duplicates":7019,"vidual":7020,"Ġphysical":7021,"Ġcasts":7022,"Ġissue":7023,"ĠdependedOn":7024,"Ġdevelopment":7025,"ĠbootstrapHelperSignConfigItem":7026,"Ġmerge":7027,"ĠrmFile":7028,"ĠGeometry":7029,"ĠGeoD":7030,"ĠSTDERR":7031,"ĠAggreg":7032,"ĠAUTHORS":7033,"ĠFlask":7034,"ĠLocal":7035,"ĠLocator":7036,"Ġhowever":7037,"itemap":7038,"ĠDjangoItem":7039,"ĠtestWidgetUsername":7040,"ĠEnd":7041,"ĠEnvironment":7042,"Ġsyllables":7043,"ĠCommunicator":7044,"Ġexcluded":7045,"Ġexclusive":7046,"ĠProtocolObject":7047,"66666666":7048,"ĠInstallScriptsCommand":7049,"ĠInstallLibCommand":7050,"ĠFormMultiPageActionWithMenus":7051,"ĠBuildScriptsCommand":7052,"ĠBuildPyCommand":7053,"ĠRetrieves":7054,"ĠAttributesImpl":7055,"+)/$\"":7056,"+)/\"":7057,"BASE":7058,"Created":7059,"CipherInit":7060,"CipherUpdate":7061,"DESCRIPTION":7062,"Hqxcoderengine":7063,"Hqxdecoderengine":7064,"LenFeature":7065,"Locale":7066,"MemoryPool":7067,"Matrix":7068,"Rlecoderengine":7069,"Rledecoderengine":7070,"RetryableError":7071,"_,}":7072,"builtins":7073,"powershell":7074,"salt":7075,"toplevel":7076,"vinces":7077,"Ġurls":7078,"Ġurlopen":7079,"Ġpidfile":7080,"Ġplaceholder":7081,"ataprovider":7082,"attempt":7083,"attempts":7084,"help":7085,"helpers":7086,"Ġrealm":7087,"generate":7088,"generator":7089,"Ġinstantiated":7090,"Ġmaterial":7091,"Ġmaterials":7092,"ĠCOMMENTS":7093,"ĠServer":7094,"ĠSerialize":7095,"ĠSubmit":7096,"ĠSubclasses":7097,"ĠFileSystemLoader":7098,"xticks":7099,"xticklabels":7100,"ĠgetQNames":7101,"ĠgetQNameByName":7102,"ĠPpiObject":7103,"ĠPROFITS":7104,"ĠPROFANITIES":7105,"ĠprojectName":7106,"openssl":7107,"Ġarchive":7108,"Ġarchitect":7109,"periods":7110,"ĠBeam":7111,"ĠBecause":7112,"ĠsetConfigId":7113,"ĠsetStorePasswordChecked":7114,"ĠsetStoreUsernameChecked":7115,"Ġpretxnchangegroup":7116,"Ġpretxncommit":7117,"Ġposition":7118,"Ġpositive":7119,"Ġsimply":7120,"charsetName":7121,"keeping":7122,"keepEnglish":7123,"ĠHttpRequest":7124,"ĠHttpResponse":7125,"ENTAL":7126,"Ġextends":7127,"Ġ86400":7128,"Ġevaluate":7129,"/*/*.*'":7130,"ĠContentType":7131,"ĠContentHandler":7132,"ĠOGRGeometry":7133,"ĠOGRGeomType":7134,"ĠAdministration":7135,"ĠskipException":7136,"getNetworkForConfig":7137,"getNetworkForDirectory":7138,"Ġpersons":7139,"'^([":7140,"COMPATIBLE":7141,"DONT":7142,"GRAM":7143,"LARGE":7144,"PROVIDES":7145,"QPF":7146,"SMModel":7147,"Writing":7148,"YNC":7149,"abcd":7150,"calibration":7151,"menus":7152,"martin":7153,"niscale":7154,"snowfall":7155,"vendor":7156,"å°į":7157,"Ġverbo":7158,"designer":7159,"retryable":7160,"redirects":7161,"Ġfurnished":7162,"ĠwgNMen":7163,"Ġwhole":7164,"Ġwalker":7165,"Ġrepeated":7166,"Ġsaxutils":7167,"Ġsanitize":7168,"Ġindicates":7169,"Ġelemwise":7170,"rollRegion":7171,"ĠCATEG":7172,"ĠTimedRot":7173,"ĠSingleLayer":7174,"ĠgetBootstrapHelperAdvice":7175,"ĠgetNameByQName":7176,"ĠgetServiceNamed":7177,"ĠgetValueByQName":7178,"ĠPhD":7179,"ĠRedistributions":7180,"ĠECProvince":7181,"Ġmakes":7182,"ĠMINIMUM":7183,"ĠMENDELEY":7184,"ĠprivateKeyAsPem":7185,"Ġnetloc":7186,"Ġnecessary":7187,"conditional":7188,"mitterBasicTests":7189,"Ġlogarithm":7190,"pretxnchangegroup":7191,"DeviceInfo":7192,"Ġpercentage":7193,"Ġcomponents":7194,"Ġscheme":7195,"Ġscraping":7196,"Ġleading":7197,"ĠConfiguration":7198,"addLinkToFile":7199,"Ġreflects":7200,"Ġinstalled":7201,"PROFANITIES":7202,"Ġtraceback":7203,"ĠsignedConfigItem":7204,"ĠRecursiveMiddleware":7205,"TagValueAdvice":7206,"dailyprogram":7207,"monthly":7208,"ĠTIMEOUT":7209,"ĠregisterCompositionAdvice":7210,"${}-":7211,"149":7212,"BJAM":7213,"BUILD":7214,"Beginner":7215,"CXXFLAGS":7216,"DRIVER":7217,"DTDHandler":7218,"EVP":7219,"FLICTS":7220,"FALSE":7221,"GNOME":7222,"GreekModel":7223,"IgnoresSc":7224,"LIST":7225,"Looks":7226,"Manager":7227,"MUTEX":7228,"MESSAGE":7229,"NORMAL":7230,"NFSSYNC":7231,"OctoPrint":7232,"SUFFIX":7233,"Salandora":7234,"SubmitterBasicTests":7235,"TRUE":7236,"Url":7237,"\\.\\-":7238,"authenticate":7239,"bitcoin":7240,"catalog":7241,"docker":7242,"emplo":7243,"except":7244,"hgext":7245,"hpux":7246,"issing":7247,"ignKey":7248,"iftwidth":7249,"mTypicalPosit":7250,"numa":7251,"sableBytesIO":7252,"twistd":7253,"uDisplay":7254,"xffff":7255,"zguide":7256,"æīĢåľ":7257,"Ġutilities":7258,"derer":7259,"deley":7260,"endian":7261,"Ġassignments":7262,"Ġseveral":7263,"Ġtaken":7264,"Ġpassed":7265,"Ġcaso":7266,"atplotlib":7267,"Ġ'????'":7268,"Ġ\"==================\"":7269,"Ġreached":7270,"Ġremind":7271,"Ġretrieve":7272,"Ġdesireable":7273,"Ġndims":7274,"Ġnntoolkit":7275,"Ġslash":7276,"Ġsublicense":7277,"Ġothers":7278,"Ġindividual":7279,"Ġinversepower":7280,"Ġdatalen":7281,"Ġeasy":7282,"Ġmouth":7283,"Ġmbean":7284,"ĠCodingStateMachine":7285,"ĠCOMMA":7286,"isListOfProtobufMessages":7287,"isDictOfProtobufMessages":7288,"ĠGDALException":7289,"ĠGDALBase":7290,"Ġisnotanumber":7291,"ĠSTDIN":7292,"ĠSPECIAL":7293,"ĠSJISDistributionAnalysis":7294,"ĠAlso":7295,"ĠAutoscale":7296,"ĠATTRIBUTES":7297,"ĠForeignKey":7298,"ĠFSSpec":7299,"ĠFULL":7300,"Ġgetsourcefile":7301,"ĠNONINFRIN":7302,"ĠNOMINUM":7303,"ĠNEGLIGENCE":7304,"ĠLmsSync":7305,"ĠLookupTorrent":7306,"ĠIssueSubmitterBasicTests":7307,"Ġstaticmethod":7308,"ĠResort":7309,"Ġconclusion":7310,"Ġ%}{{":7311,"Ġprobably":7312,"Ġproviding":7313,"ĠDescription":7314,"ĠDatapoint":7315,"ĠDOCUMENTA":7316,"ĠVERSION":7317,"Programming":7318,"Ġundefined":7319,"ĠENOUGH":7320,"ĠERROR":7321,"ĠEscaped":7322,"ĠEcuador":7323,"ĠuserSetTagValueAdvice":7324,"Ġalgorithm":7325,"ĠMapping":7326,"Ġ}}{%":7327,"ĠBranch":7328,"ĠsetLevel":7329,"INSTALL":7330,"assimo":7331,"ESSENTIAL":7332,"ĠReminder":7333,"constructor":7334,"ĠHexBin":7335,"precedenceMatrix":7336,"Ġaccompan":7337,"ĠmsgLength":7338,"Ġdisclaimer":7339,"Ġshadowsocks":7340,"Ġsupposed":7341,"ĠCONTRIBUTORS":7342,"ĠCONSEQUENTIAL":7343,"Ġsubstantial":7344,"Ġsubplots":7345,"ĠfileNameTocheck":7346,"ĠNotEnoughSpace":7347,"ĠenvPreamble":7348,"PASSWORD":7349,"changePercent":7350,"writeNetworkJson":7351,"Ġzipoutput":7352,"Ġcreatelinemarker":7353,"Ġfunctools":7354,"ĠFormBaseNew":7355,"ĠregisterOrgAdvice":7356,"ĠregisterNamedNodeAdminTupleAdvice":7357,"ĠcompositionCallCLIAdvice":7358,"ĠEUCJPDistributionAnalysis":7359,"ĠQgsAuthMethodConfig":7360,"ĠafterScenarioAdvice":7361,"REQUIRED":7362,"ĠDECSLRM":7363,"EXTRASPEC":7364,"ĠUnclosableBytesIO":7365,"ĠUniqueAttributeValue":7366,"ĠCommentDetailsForm":7367,"ĠDEALINGS":7368,"ĠPROVINCE":7369,"ibliography":7370,"APPWEB":7371,"ĠREASONABLY":7372,"ĠSystemCommandEditorPlugin":7373,"ĠdependedOnServiceName":7374,"ĠbootstrapHelperSignConfigItemAdvice":7375,"ĠAggregate":7376,"Ġarchitecture":7377,"keepEnglishLetter":7378,"designers":7379,"ĠwgNMenuDisplay":7380,"ĠTimedRotatingFileHandler":7381,"ĠSingleLayerRule":7382,"ĠECProvinceSelect":7383,"dailyprogrammer":7384,"IgnoresScrollRegion":7385,"mTypicalPositiveRatio":7386,"æīĢåľ¨çĽ®éĮĦ":7387,"ĠNONINFRINGEMENT":7388,"ĠLookupTorrentURLTestCase":7389,"ĠDOCUMENTATION":7390,"ĠNotEnoughSpaceForWidget":7391},"merges":["Ġ â","ĸ ģ","Ġâ ĸģ","n e","Ġ <","Ġ ,","l i","li ne","ne w","new line","d e","n t","Ġ (","Ġ )","s e","i n","Ġ .","Ġ 0","de nt","s t","r e","Ġ =","o r","e n","Ġ a","Ġ se","Ġ t","Ġ p","o m","Ġ :","Ġ c","o n","a t","Ġ i","Ġ f","e r","l f","Ġse lf","Ġ '","st r","in dent","de dent","m e","l e","Ġ #","Ġ [","str newline","h e","Ġ 2","en c","Ġ ]","Ġ w","Ġ \"","d om","enc dom","Ġ re","a l","a r","i on","i t","g e","c e","Ġ de","Ġ n","Ġ s","Ġ o","u r","a me","u t","Ġ 1","c t","a n","Ġ in","Ġ d","m p","Ġ 3","Ġt he","Ġ e","s s","Ġ b","r o","Ġde f","Ġ m","Ġ _","Ġ k","in g","i l","Ġa n","p e","Ġi f","l a","or t","l o","Ġ u","e d","se r","ge t","o t","t ur","Ġi mp","tur n","Ġ C","u e","f i","Ġ T","r i","Ġ\" \"","i d","Ġ r","Ġ\"\" \"","Ġ +","p t","Ġre turn","Ġf or","Ġan d","Ġimp ort","o d","i s","Ġ G","at e","t e","Ġi s","r om","Ġ S","o l","Ġa s","Ġt o","Ġ A","i c","v i","Ġ F","x t","Ġf rom","Ġo f","v er","Ġ -","Ġ get","t h","y pe","Ġ N","c h","de r","Ġn ame","u l","q u","Ġ L","me nt","Ġn ot","a p","c k","Ġ I","v e","Ġ2 5","Ġ h","u n","a d","Ġf i","_ _","b le","n ame","at a","it h","e t","u p","o de","e st","vi ce","Ġ P","a ge","Ġt h","g s","u le","li c","o nt","a se","Ġe x","o ne","Ġ or","Ġ g","at ion","at h","en se","u re","Ġ= =","i st","Ġ st","t t","Ġ_ _","ser t","Ġ l","o c","e ct","b j","Ġ O","Ġ R","Ġc on","b ut","m l","e l","Ġ v","la ss","a il","qu al","E qual","Ġre s","Ġas sert","e s","Ġ *","Ġd i","Ġfi le","t ype","Ġ %","pt ion","Ġp ro","s ion","g in","u id","f o","s c","Ġb e","a re","s i","t er","ic ense","ul t","N ame","a i","o p","u b","Ġâĸģ \"","Ġc h","al ue","bj ect","Ġ lo","p p","r or","an d","it e","a c","a s","ĠN one","e y","i me","Ġ D","Ġ li","Ġa r","fi g","Ġ V","ĠL icense","Ġ str","Ġw ith","at ure","r y","P ro","e xt","h t","l u","ar t","ne r","Ġt est","al l","a ble","Ġc om","ver sion","o u","Ġu n","Ġ E","0 0","r a","fi le","or m","str i","d i","Ġ {","Ġ me","Ġ line","Ġc lass","Ġw r","w or","o w","O N","Ġ W","r ue","Ġm a","Ġu ser","od ule","Ġl en","Ġ j","ss ion","V t","Ġp Vt","an ge","p er","Ġa pp","re d","Ġ25 5","Ġa l","Ġc ont","A R","p o","Ġ M","Ġ on","L E","ct ion","Ġe l","ĠG uid","Ġ }","Ġs o","Ġb y","c om","m s","Ġ B","Ġse t","lo w","th od","Pro t","I T","p i","Ġ X","Ġo bject","lu gin","U n","Ġd ata","S E","en s","Ġs y","ut il","Ġel se","L ist","h o","Ġ25 3","oc ol","Ġ @","Ġse r","ai se","E R","g n","v or","Ġp re","Ġp ri","le ss","la vor","Ġth is","Ġex ce","p ut","en d","o k","P pi","a li","Prot ocol","U T","I N","p ro","ĠGuid Protocol","ĠGuidProtocol Ppi","l y","ar gs","ĠT rue","ens or","r ror","t r","Ġth at","Un less","o re","Ġi t","el d","a ck","Ġf ail","f t","Ġp o","al se","stri but","Ġpri nt","d ata","f orm","st e","e nt","l s","Ġp ar","ro up","Ġassert Equal","e ature","q ue","Ġs i","Ġk ey","Ġu se","a ss","in fo","ce ss","an ce","i nt","p en","Ġâĸģ '","Ġv alue","E S","c i","Ġr aise","0 1","Ġ' '","Ġcon fig","r an","er vice","op y","Ġwr ite","Ġfail Unless","u f","Ġ y","a ct","w are","ur l","I S","t y","Ġ 5","z e","Ġ x","in it","Ġa d","ĠfailUnless Equal","R e","T I","Ġ 4","Ġi nt","il l","Ġar gs","u m","Ġ \\","re e","ĠG et","w args","an g","ĠR e","ac he","E rror","li f","O R","l en","Ġc ase","Ġe lif","ĠI n","tt p","l ate","Ġ version","Ġo s","ĠF alse","Ġme thod","Ġser vice","a m","h is","Ġ ne","Ġr un","A N","a in","g ht","o ut","p la","it y","ht ml","wor d","i f","i p","o ur","Ġp ath","pt o","Ġst art","ft ware","o in","Ġt ype","Ġw h","tt ri","util s","- -","a ve","c on","m it","w w","st ance","re nt","ut h","R U","Ġ en","Ġp y","ing s","ul d","a x","c ont","n k","r c","ĠT his","ch ar","Ġlo g","Ġun der","i ne","m d","t ime","u ment","Ġ !","Ġ er","Ġa re","at i","ĠT he","k e","er s","Ġw e","Ġk wargs","que st","/ /","f e","u s","Ġ H","Ġa t","Ġj oin","RU LE","a g","Ġ1 0","Ġm odule","ub lic",": //","E C","qu i","un d","sc ri","E N","Ġ 6","om m","Ġc an","Ġres ult","ry pto","ow n","b c","m in","Ġf in","Ġo ut","th on","wor k","ho uld","F i","c ur","Ġ he","Ġ la","re ate","Ġse ssion","Ġc ls","he ck","mp le","gn ature","Ġexce pt",". \"","= =","S ervice","s on","u st","Ġdi ct","and l","a der","d it","p re","Ġt ime","Ġf lavor","Ġd ate","Ġe sc","Ġan y","id get","Ġh o","C H","f er","s g","re s","Ġa c","mp late","te m","te xt","ol le","si ble","a nt","m odule","p ath","Ġp ass","Ġad d","L I","a y","e ner","n ing","Ġ K","li st","il d","ste m","if y","ttri but","andl er","I n","a b","i al","Ġe xt","Ġm sg","ri ght","lic y","Ġg roup","Ġt ry","Ġt ensor","ar i","Ġn o","Ġs hould","ĠT est","te st","a ce","e e","e w","p lugin","r on","Ġ U","Ġ `","Ġd is","T A","Ġ >","or y","Ġs p","od ing","Ġli st","Ġcont ext","b uf","o und","Ġ new","Ġw ill","Ġre ad","Ġfor m","Ġch ar","Ġby te","scri ption","h er","i ve","j ang","u ct","Ġ 8","li nk","at ed","at tr","Ġch ange","Ġapp end","jang o","m b","Ġp lugin","Ġ' %","le ment","are nt","Ġer ror","D e","ĠG ener","ĠA N","ou nt","C on","a ult","p ar","p age","r ite","w ith","Ġ2 01","Ġd oc","Ġb ase","Ġm ap","Ġ* *","Ġma y","Ġal l","1 2","X ml","b in","i ce","n g","re ct","Ġf eature","me t","Ġn ode","Ġs h","Ġd o","il ter","fi x","Ġh as","ad ata","Ġdi stribut","ac l","di r","Ġ! =","I D","N U","c md","i v","Ġ url","or d","ar y","ar get","Ġr ange","ĠO R","Ġar g","our ce","Ġesc cmd","A d","S S","b r","p on","Ġ 9","Ġm ode","pe ct","ĠS et","ap i","Ġout put","A L","T o","p y","Ġc ur","Ġc opy","ĠG NU","ĠP ublic","Ġy ou","ĠGener al","R I","l l","de d","de x","se t","Ġs up","Ġ1 6","Ġd jango","Ġexce ption","ali d","r st","r ule","x ce","in stance","Ġt ext","Ġp at","ss age","Ġli mit","ari able","A S","M A","h ar","p u","s y","v a","Ġ 7","Ġc lo","ĠC opy","ver t","th er","Ġpo licy","Ġdistribut ed","H O","P I","R E","t o","Ġ Q","Ġt arget","Ġp er","at or","Ġ3 2","pe c","ĠC ON","ĠC omm","pon se","M L","b ase","j son","m link","t on","Ġp l","Ġp arent","me thod","gnature s","xce ption","Ġclo se","H E","H el","N ot","a pe","c al","d ate","g er","i es","o ftware","li b","de n","re ad","Ġs ub","Ġo bj","mp ort","ment s","Ġfi rst","si ze","ttribut e","a mple","c lass","g ist","o ck","u g","Ġ enc","or g","Ġt e","Ġd type","Ġb ran","Ġif p","Ġof p","Ġh ttp","Ġh ave","ai ner","Ġcom p","Ġchar act","ĠAN Y","R AN","T E","h ttp","o f","st all","Ġc all","Ġs c","Ġo ption","ĠI f","lic ation","lic ense","ĠO F","ĠO pen","but ton","ter n","Ġstr ing","ĠW AR","Ġso ftware","ĠRe turn","ww w","Ġpy thon","Fi eld","Ġdate time","Ġac cess","ĠCopy right","T H","c ount","i gin","r ap","re n","Ġc t","at ch","Ġo pen","vi ron","Ġ- -","ith er","Ġor igin","Ġcom ment","red s","po int","pla y","Ġjoin point","cur ity","Ġho st","ĠWAR RAN",". .","Y ou","e p","p ort","s it","li t","in d","en ame","at form","Ġre qui","ion s","Ġn um","Ġe ither","pe ci","Ġfile Name","as h","all y","Ġal low","Ġsi gnatures","Con fig","ainer s","B UT","G E","O M","c ache","or rent","Ġa b","Ġt er","Ġb ut","Ġdef ault","ap p","Ġfi eld","Ġpro file","Ġlo ck","ĠD EC","Ġwith out","ĠW IT","Ġsy stem","olle ct","ĠK ey","Ġext ra","Ġform at","Ġbran ch","A r","T Y","T est","U L","d oc","f lavor","g ra","i mport","o ve","q x","v ed","Ġse tt","Ġre quest","ĠS ee","ĠA n","Ġon ly","ĠX ml","ĠX ML","stribut ion","Ġcur rent","2 2","A X","D ER","O F","S up","V alue","a k","b y","i m","o bject","t work","u ser","Ġ ro","Ġ You","ne d","Ġp art","om e","Ġc li","ar ch","Ġo ther","Ġb in","Ġm ore","Ġimp lement","ĠS t","ack age","con fig","cont ainers","Ġfin der","ew s","met adata","SS L","br ary",") .","D i","I ON","a ke","g roup","m ail","v alue","Ġ J","Ġt ag","Ġ' /","Ġ1 2","fi c","Ġis instance","ĠN ot","per ty","Ġpar se","Ġen v","Ġresult s","Ġsp lit","S t","T ext","b al","c re","o ice","s with","Ġ utils","on g","he d","Ġw ar","Ġin it","ol d","Ġex c","Ġst ate","ail s","ĠD e","Ġwr ap","Ġobject s","Ġser ver","tr ing","Ġint er","Ġhe ader","Ġno va","Ġdoc ument","Ġsup er","HO UT","Hel per","ĠOpen SSL","ĠWIT HOUT","A n","C rypto","L A","P A","R A","S e","S et","b er","f n","p are","s h","u ild","li ed","se ssion","Ġa uth","Ġc heck","ar k","Ġs peci","Ġin stance","ĠS oftware","ch ange","ĠR ule","ult i","Ġch ild","ip her","Ġen viron","TA B","Ġenc oding","ĠOpenSSL Crypto","I d","c f","c ode","g th","i le","m ath","p k","w rite","y p","Ġ le","Ġ ge","in ax","Ġp age","Ġf ol","he s","Ġde t","ur ce","Ġm ath","Ġu p","Ġfor ms","te mplate","ic k","ĠI S","Ġcom m","po sit","Ġso urce","Ġsy s","ass word","pla ce","rect ory","ĠComm on","mlink s","Ar ch","cf b","' :",") :","U R","a es","c reds","i r","i li","n der","s pec","t orrent","u se","y s","Ġ q","re ss","re qui","re ments","Ġf e","Ġf ilter","Ġre nder","ce nt","ut ure","Ġ1 1","Ġm ust","lo g","Ġimp lied","ĠC on","Ġg o","fo o","ali ng","olle ction","buf fer","Ġpat tern","gist er","license s","Ġct xt","Ġdet ails","Arch List","ili ty","\" '","4 00","C ase","I s","W idget","f il","m i","m al","o ot","p inax","s ing","t ri","u uid","Ġ z","re am","Ġc reate","Ġc pu","Ġf un","le d","Ġ\" .","ur ation","ame ter","la g","ic h","Ġ- --","ĠN O","ĠI tem","Ġg iv","ation s","Ġun it","IT Y","SE L","Ġpre fix","ES S","ci mal","ran s","Fi le","res ult","Ġdis play","ren ce","Ġrequi red",") '","C K","C EN","C omm","E D","I L","P O","S T","T ype","T ensor","U ser","a mp","c ord","c hes","f low","f uture","n c","o g","p h","p Text","ne s","re f","Ġt ree","Ġc le","Ġc ipher","at er","Ġf n","Ġre ce","an sible","Ġin dex","Ġu i","te mp","ĠF ound","ul l","vice s","Ġres pect","stri pe","Ġuse d","word s","Ġwh ich","fe rence","Ġpl atform","Ġfol low","CEN SE","Comm and","8 22","C har","H andler","b ab","h ash","k ey","o pt","p s","r ame","u mp","z ed","Ġ end","de f","re ak","Ġt rans","Ġc o","Ġc md","Ġf ound","ar g","Ġin fo","Ġb uf","Ġb reak","id th","ĠS AX","ĠI N","up le","Ġor der","ath er","di ct","Ġpre pare","form ation","Ġstart swith","Ġmode ls","Ġte mplate","posit ion","Ġ--- --","ĠFound ation",". '","C T","E x","F orm","F eature","G uid","O f","` `","a fe","b el","b ack","c a","d uct","e x","g u","g re","n o","o ok","Ġ vi","re l","re q","or der","en api","le ct","Ġ2 00","al ys","mp ty","Ġb ar","ing le","ot al","ĠT HE","Ġr ule","ĠF orm","ĠL I","ode l","ĠP ro","Ġma ke","po se","Ġy our","Ġne twork","ati ble","bc rypto","Ġmap x","Ġfeature s","Ad vice","ĠQ gs","gra m","stribution An","Di stributionAn","IL ITY","alys is","A M","C E","C Name","S i","S y","c reate","f ace","f req","i fi","n own","r s","w i","w idget","Ġi d","Ġre gister","Ġde scription","Ġm od","fi nes","Ġr d","ĠA ll","ĠF OR","Ġname d","Ġ25 2","ad d","Ġdi rectory","Ġpro cess","as on","Ġstr ok","Ġj ust","com p","ĠX en","pro bab","TI ON","Ġwh ile","cont ent","Ġhe re","Ġtensor flow","Ġcontext Helper","De fines","page s","ĠReturn s","rap h","ĠCommon Defines","Ġgiv en","DistributionAn alysis","probab ility","* -","C A","F or","S tring","a w","d a","f f","f rom","i eld","t d","u age","v is","w e","st amp","Ġ: :","Ġc re","Ġc ode","str ing","Ġw idth","Ġre ason","al low","Ġe v","pe d","lo ck","ĠA r","Ġ- *-","ĠL O","ve nt","Ġh andler","name s","ĠP o","Ġst ore","Ġcon form","Ġcon vert","Ġv ar","Ġres ol","Ġâĸģ\" %","Ġli bcrypto","ra nt","Ġme ssage","Ġline s","Ġma x","Ġcont ent","TI ES","us r","dit ions","res ponse","Ġ` `","ĠWARRAN TIES","Sup ArchList","requi rements","mi ssion","ĠQgs A","' t","D E","I R","N E","P E","T rue","X T","X X","b ran","g ing","i ali","j a","n ot","o o","p b","t he","t able","t ain","t ings","} \"","se nt","Ġse e","Ġp ub","Ġi tem","le te","Ġw ord","Ġs ingle","ut e","ut f","Ġin formation","ĠF ree","ck et","Ġst ep","Ġl ater","Ġv alid","Ġpro perty","si red","Ġlo ad","Ġli nk","ĠV alue","ĠV ariable","Ġstr uct","ĠE xception","Ġso cket","Ġpo st","Ġsi x","Re turn","ang uage","Ġlog ger","In fo","Ġtensor s","attr s","Ġ201 7","Ġcharact er","ĠAn sible","Ġspeci fic","Ġcomm and","Ġmod ify","ĠXen A","2 3","C ont","D A","F lag","S G","a ms","a uth","b e","b ug","m ain","p ace","s o","s afe","t s","v ar","v alid","w ar","y te","li s","in ja","Ġi dent","Ġre l","Ġde c","Ġde vice","Ġde bug","Ġb od","Ġm ark","Ġu g","ĠC O","ĠC har","ĠT ensor","Ġr len","Ġr aw","ĠA ttribute","ve lo","et work","ĠO K","Ġres ponse","Ġpro gram","ite ms","ĠD i","Ġcom position","ĠE U","ĠE rror","ra y","ĠW rite","Ġuser s","Ġcont ain","ho st","ore s","Ġpar ser","act ive","ĠGet String","len gth","Ġservice s","con d","Ġlog ging","ument s","Ġla mb","CH AR","py thon","Ġcharact ers","Ġsc aling","Ġorigin al","Ġallow ed","Ġro ot","Ġcli ent","Ġimplement ed","Ġinit ial","Set tings","Of List","Si gnature","ĠQgsA uth","bran ches","ĠGetString OfList","Ġlamb da","- %","/ *","1 9","D ID","F I","I O","N O","N ESS","N etwork","P age","S I","T O","T ON","T RI","c rc","g ment","i que","m an","m ax","p ache","s age","s ub","t ed","y n","Ġa x","Ġse cond","Ġi ter","er ror","ar ser","it ing","Ġs w","ut ine","Ġ1 5","Ġin put","Ġin stall","Ġd ump","Ġthe re","Ġe dit","Ġm ock","Ġm atch","la ble","lo bal","ĠC om","ĠT ype","Ġ+ =","pt s","ĠA s","ĠF IT","Ġassert True","op s","ĠE V","ow er","Ġma in","Ġapp lication","AR TI","ĠM ER","com ment","IN D","IN G","Ġpar ams","Ġconfig uration","ĠIn put","AN TAB","Ġwh en","Ġ! /","CH ANTAB","Ġ> =","Ġerror s","Ġdo es","Ġper mission","ample s","BUT TON","Ġab s","Ġter ms","Ġsett ings","ameter s","ĠLO G","Settings Widget","ĠFIT NESS","ARTI C","ĠMER CHANTAB","ĠMERCHANTAB ILITY","' ,",") ,","2 01","5 6","F alse","O r","a ch","c o","i ght","m y","n s","p assword","v m","} ,","Ġ util","ne ction","se tt","en sion","Ġa ttri","Ġc al","Ġc rc","Ġi te","Ġf info","Ġf ree","Ġf ull","er sion","Ġo p","Ġo ver","Ġd len","ĠC N","ĠC reate","ĠT O","ĠN ode","ĠN ews","ap ac","ad min","ĠP UR","ĠP ARTIC","Ġex p","Ġex ist","Ġst ream","Ġl anguage","Ġv ariable","Ġassert False","type s","si ve","ĠW e","Ġuser name","per cent","Ġal ong","SE T","IN E","ft ime","Ġx enapi","EN T","Ġfin d","== ==","Ġflavor id","ĠK IND","Ġext ension","plugin s","Ġsh ape","ĠCON F","Ġoption s","UL AR","old own","Ġunit test","PO SE","Ġev en","Ġconform To","ĠXenA PI","23 12","ĠQgsAuth SettingsWidget","TRI BUT","Ġattri b","Ġite ms","apac ity","ĠPUR POSE","ĠPARTIC ULAR","0 4","I tem","N ode","R O","S c","U p","a sc","b tain","c li","c lu","f ter","g h","i i","i de","j ect","m ory","m ove","o id","s v","v oid","w ist","x p","} .","se s","se curity","Ġ. ..","st ant","Ġse curity","Ġc oding","Ġc ollection","at us","Ġf ro","Ġf rame","er t","Ġ2 4","Ġde sired","Ġo btain","Ġ1 9","te ction","ĠA pache","ĠF eature","ĠL i","Ġg ather","el pText","Ġdi r","Ġpro ce","fo re","Ġbe fore","Ġstr ftime","file s","stri p","Ġj son","Ġj inja","ĠM ode","Ġpre ference","pro cess","ste ner","Ġkey s","IS ervice","ĠH elpText","fer red","mb ol","den y","ĠWARRAN TY","Ġter min","ollect d","Ġge ner","Ġgo ver","Ġfun c","Ġrece iv","AM E","widget s","Ġstrok e","comp atible","vis ion","ĠValue Error","Ġbod y","ĠDi ct","sub scription","ĠAs sert","ĠNode List","' s","( '","A s","G S","L O","L icense","S ource","S ome","_ '","c apacity","d ay","e ssage","f ul","h andler","h qx","i zed","v al","nt er","Ġa ttribut","Ġa ttribute","Ġa fter","Ġt otal","Ġp ort","str ap","Ġ2 3","Ġw idget","Ġw td","Ġre f","Ġre di","Ġde n","Ġe vent","Ġk nown","Ġan sible","lo ad","ser ved","ĠC ont","ĠG B","ic ode","ve l","Ġh qx","un ction","Ġg raph","Ġpro duct","si x","Ġch oice","pp lication","as k","ĠLicense d","Ġun ique","Ġme tri","Ġclass method","Ġcont in","ĠB AS","Ġsy mlinks","stribut e","Ġ'' '","char s","pre ss","LI CENSE","par se","RE Q","ollect or","Ġwrap ped","Ġinter face","ick le","fil ename","oot strap","result s","Ġco oldown","Feature Flag","ifi er","Ġresol ve","Ġpub lis","Return s","Cont ent","asc ii","Ġcollection s","Ġfro z","Ġredi stribute","Ġmetri c","ĠBAS IS","Ġpublis hed","$ \"",") ;","/ >","A DER","B ug","C heck","D IT","D EC","D IR","G R","L U","M ulti","N ews","R C","Z E","c p","e ded","f or","i od","i ew","o st","o buf","p ing","r t","r un","s ource","} -","Ġ Unless","li ance","or k","or s","or rect","Ġa gre","Ġse arch","Ġp w","om et","Ġc ron","at ing","Ġf il","Ġf lo","Ġw he","Ġ\" %","Ġre cur","Ġre cord","it s","Ġde l","Ġde cimal","Ġn ct","Ġs ort","ut o","Ġ1 8","Ġb uild","ro w","lo c","Ġu sing","ĠC heck","ic s","ic al","ĠF lavor","ap ache","ĠP y","lic able","Ġex press","Ġ== ==","Ġst op","ĠO GR","Ġfile s","ĠV ersion","ĠV iew","00 0","Ġwr iting","Ġapp licable","Ġset Up","Prot obuf","ho ok","UT H","Ġuse ful","Ġad vices","Ġint e","Ġmethod s","am ic","Ġne ed","Ġne xt","pla in","cont ext","Ġer r","ati ve","Ġwe ave","Ġla w","Ġla bel","dit or","Ġho pe","ay s","ace s","ĠU se","Ġsp aces","De ferred","Ġhas attr","Ġlimit ations","sy mlinks","PI C","ĠCON DIT","Not ify","Ġcomp liance","ĠDEC SEL","Test Case","im age","Ġpart s","Ġbin ascii","ION S","Ġwar rant","Se lect","Ġtrans late","ĠPo int","DA TA","var s","yn amic","Ġpermission s","sett ings","wist ed","ĠLi brary","Ġgover ning","Ġreceiv ed","Ġknown Bug","Ġagre ed","Ġflo at","Ġ==== =","ĠView Config","ĠCONDIT IONS","Ġwarrant y","\" ^","\" );","2 00","2 56","6 6",": %","C om","D O","E xception","F LA","K E","K ey","M P","P ath","P arser","R ect","S cre","T W","T ab","U P","a st","b ar","d o","e red","e mail","f act","g en","k wargs","l lable","m ant","m atch","o x","p ackage","s u","s In","v ail","x A","x fe","Ġ right","Ġ< =","line s","in dex","en Char","Ġp ackage","Ġc api","Ġi m","er m","Ġre t","Ġre po","Ġre set","Ġn p","Ġs u","Ġo k","Ġo ne","Ġb it","ro l","ser ver","ĠC UP","ĠT e","ĠT o","ĠS U","ĠS up","ol s","ol der","Ġto k","Ġget T","ĠL es","un cal","Ġex pect","ense t","ĠR un","ĠR ect","Ġbe am","ĠW SG","Ġcont ri","Ġsy mlink","ĠassertEqual s","int er","Ġvalue s","IS TRIBUT","Re quest","TI O","Ġint o","um ber","ĠIn stall","Ġrun ning","Ġtime stamp","Ġho ok","Ġpass word","ial s","ĠTest Case","ee k","Ġchange d","HE ADER","TH ER","GE T","ĠDEC S","object s","user name","ĠDe velo","spec s","ĠCon vert","ĠForm Multi","wi se","yte s","Ġident ifier","SI ZE","ĠEV P","ĠInput Source","Ġtermin al","ĠAssert Scre","Ġcontin ue","Ġfroz enset","Check ed","DEC SEL","Rect Equal","mant ics","sIn RectEqual","vail able","enChar sInRectEqual","ĠLes ser","ĠWSG I","ĠFormMulti Page","ĠAssertScre enCharsInRectEqual","' \"","1 1","B R","D ISTRIBUT","E nc","E XT","F REQ","N one","P assword","T T","T uple","T erm","U sage","a ned","b ook","c ate","e c","e m","f unction","i o","i Term","l an","n ode","o od","p ack","s rc","t ing","y er","Ġ Un","se ction","se gment","in der","en ari","Ġse en","Ġt ail","Ġc ol","Ġf name","le ted","he x","Ġ2 2","Ġw ork","Ġre st","Ġre tur","Ġre move","Ġn on","Ġs ame","Ġin st","Ġd one","Ġd own","Ġd ynamic","mp Path","Ġm in","ri m","ri pts","Ġr ax","pt ed","ĠS y","ĠS ervice","ĠS OF","ol ute","ĠA l","vi ze","ĠF rom","Ġ- >","th ing","der r","Ġname s","ment al","un k","ĠP ar","Ġor g","Ġg u","Ġg en","Ġg lobal","ist s","ĠR ight","Ġfile Ex","Ġ% (","Ġar ray","ĠE x","00 00","Ġme t","AR E","ction s","ĠB uild","gn u","ĠGuidProtocolPpi Xml","Ġkey words","Ġx ml","Re ge","Re gist","ĠRe served","OR DER","ĠIn c","ĠIn it","Ġne eded","ati vize","ag er","mple ment","ust om","Ġadd ress","12 8","Ġsup port","ĠQ ue","base s","Ġnum ber","Ġprofile s","Ġlock er","TY PIC","Ġsett ing","Ġwrap per","PA TH","RA TIO","TAB LE","Ġmath util","Ġfe ed","Is Select","fil er","ĠNO TE","arg uments","For Name","Ġrel ativize","ĠAttribute List","19 2","FI LE","Ġconfiguration Tab","Ġabs olute","Ġcal led","cli ent","Ġproce ed","Ġwhe re","FLA GS","TW ARE","ĠgetT mpPath","ytes IO","DISTRIBUT ION","enari o","Ġretur ned","ĠSOF TWARE","ĠRight s","ĠfileEx ists","TYPIC AL","IsSelect ed","ĠconfigurationTab IsSelected","ĠgetTmpPath ForName","( [","/ $\"","1 3","A B","C lass","E lement","F SET","G ES","G ood","I M","I P","L D","M odel","N AME","O bject","P P","V E","\\ \\","a gs","a ved","b b","d le","d is","e ve","f ilter","f ind","f ake","g b","h older","l atform","m odel","o ver","p ublic","p ay","p ower","t ml","t rue","u nt","v oice","w er","li ng","dent ials","st ion","Ġse par","Ġt yp","Ġc sv","Ġc ustom","Ġi gn","Ġf p","Ġ' __","le s","Ġw ant","Ġre place","ar d","it ch","Ġn s","Ġd p","Ġd ns","Ġ3 0","Ġk ill","Ġu id","ĠC Name","fi eld","ri c","id dle","Ġr v","Ġfor ce","ate s","ĠS e","ĠF ield","ĠF Info","xt x","ver y","Ġ- =","qu enc","Ġh tml","ure d","ĠR oot","Ġcon ditions","Ġres ource","Ġli brary","art ic","able d","po licy","ĠB ase","aise s","Ġpre sent","pro f","ste ad","Ġconfig Id","uf fix","Ġy ield","Re ader","word count","ati o","Ġwe b","Ġat temp","min Tuple","pre ssion","In put","Ad minTuple","Ġmode l","MA CH","to buf","Ġsub scription","Test s","ĠXML Reader","OF FSET","Ġup date","use d","Ġfilter s","User name","Ġcle aned","def ault","ca use","ĠLI CENSE","rs rc","Ġload s","ĠChar Field","Ġedit w","ĠCom ment","Ġvariable s","Sc ripts","Ġden y","Ġhqx data","Ġfil ename","fact or","Ġcontri b","ĠDECS CA","ĠDevelo per","ĠWSGI Request","ĠFrom Xml","Ġmet adata","Regist ered","unt ime",") \"","0 3","0 8","1 6","4 8","A T","B loc","E n","G IN","L ock","O L","P R","P lugin","R un","U N","V ER","\\ \"","f eature","g its","i ed","i ze","m er","n ow","o y","p her","t ree","t ag","u il","w ays","x y","Ã ¼","Ã Ń","Ġ /","Ġ qu","Ġ utf","ne twork","st atus","re turn","or ator","Ġt mp","Ġp ack","Ġp prof","Ġc reds","Ġc orrect","Ġf la","Ġf ill","Ġ' .'","le ase","Ġ2 0","Ġ2 8","Ġs rc","Ġs aved","Ġo pt","an s","Ġin stead","Ġthe y","Ġe nt","Ġe mail","ss i","Ġb ad","Ġb ack","Ġdef ine","Ġm ove","Ġm ulti","Ġan ce","la bel","ri nt","Ġr le","Ġr strip","pt r","ĠS tring","ĠA pplication","Ġget L","ch ine","ĠI nter","ad o","__ '","ith ub","up date","Ġth en","lic ies","Ġex it","Ġst ub","Ġcon nection","es c","ption s","Ġpro per","ter al","ai nt","ĠD E","ry pted","di stribution","Ġma chine","ĠB ytesIO","Ġset up","ĠX XX","Ġsy mbol","gn ized","pro filer","ly Registered","Ġpar sing","Ġsi ze","ci pher","Ġwrite math","Ġx s","Ġ4 0","um my","ache Lock","AN CE","ĠH ash","Ġmodule s","Ġesc io","LI B","ab s","ĠU SE","Ġnew lyRegistered","par am","Ġsh ut","Ad d","MA X","sy stem","Ġper iod","Hel pText","TE Q","Ġct x","Ġcomment Bloc","OM M","Ġfield s","doc s","Sup M","by te","Ġro utine","Ġbin hex","ĠJ IS","cre t","Ġserver s","Ġz f","File Name","Tensor Signature","Ġrece ive","Ġindex es","Form at","Ġvi rt","Sy stem","add ress","we b","lock ed","Ġdec data","ĠTensor Signature","NO TEQ","Ġsw itch","co gnized","ĠTO DO","Node AdminTuple","Ġgener ate","ĠTe mplate","Ġexpect ed","EXT RA","TT P","node s","ĠPar ameters","Ġgu ide","Rege xp","ĠInit ial","pay ment","Ġkill words","iddle ware","MACH INE","Ġwritemath id","ĠHash able","! \"","/ \"","1 8","2 4","9 9",": \"","> \"","? ?","A UTH","B ase","C ollection","C ollectd","C LU","D B","D S","F A","F low","G IS","H ER","K ER","M essage","N o","P U","P Y","P arent","Q Name","R es","R aises","S te","S RC","T D","U G","_ :","a ml","c le","c red","c pu","d ing","e book","g ol","g ithub","i x","i z","l d","n umber","r b","r atio","s ses","s parse","t x","t in","t xt","t ies","u al","w h","w o","w eek","x a","z er","Ġ &","Ġ quest","ne ct","li stener","de vice","de lete","se mantics","in ce","re ly","re ng","re cord","en v","en server","Ġa g","Ġa tt","Ġse cret","Ġt ask","Ġt run","Ġc m","Ġc op","Ġc rypto","Ġc ount","Ġf ake","Ġ' .","Ġ' >","str y","str uct","str oy","me ssage","he ader","Ġ2 1","Ġw a","Ġw as","Ġ\" {","it er","ge d","Ġn ow","Ġs ave","Ġs ample","Ġs uffix","ur ing","Ġ1 00","ct x","Ġin clu","Ġd on","Ġthe m","Ġe ach","Ġb et","Ġb lan","ro utine","Ġm y","Ġm ox","lo gin","Ġu uid","ed Error","ĠC acheLock","ĠC ANCE","ĠT mp","id den","Ġis file","ĠS hould","Ġto p","ĠA d","ĠF ilter","ĠN ow","Ġnot ice","ĠI Service","Ġh and","ĠP RO","lic an","Ġex amples","one nt","Ġg id","ĠO THER","ĠR et","Ġcon version","Ġcon stant","ail ure","Ġassert Raises","Ġpro vi","Ġbe gin","Ġbe cause","Ġch oo","Ġlo c","ĠD A","Ġar t","ext ra","lu m","ou s","Ġun pack","ĠE X","di gits","Ġal so","Ġal ways","ĠGuid Value","ok up","Ġpar ameter","Ġpar ameters","Ġsi mple","Ġ5 0","ĠRe quest","Ġservice Name","Service Parent","dit ion","Ġany one","Ġac l","ant om","Ġbyte s","ĠAN D","Ġbase d","Ġpat s","ĠComm and","Ġte mp","Ġcall back","Ġab ove","22 0","ome thing","Ġtag Value","ĠNot ify","St art","St ore","Ġwar n","Ġwar ning","ĠDe cimal","code reng","Ġge om","place s","place holder","Is Checked","ĠNO T","CK R","PO ST","Ġcle an","Ġfollow ing","CT W","Guid Type","ĠLI AB","wi re","Ġcre dentials","NE L","auth or","so le","war ning","ĠTensor Flow","ĠEU CKR","ĠEU CTW","Or g","gh i","Ġframe work","Ġattribut ename","/> .","cp us","}- {","Ġrecur sive","ĠPy thon","Protobuf Message","ĠTo Xml","segment er","over n","Ġtyp ical","artic le","Ġance stry","ĠXXX X","Ġguide line","KER NEL","Ste p","gol lum","week day","Ġquest ion","Ġatt rs","Ġblan k","ĠCANCE L","Ġchoo se","codereng ine","' re","( )","( ):",") ([","* '","/ '","2 8","A pp","A LI","B y","B AR","C RI","C TION","C ert","F rom","I C","L o","M en","O O","O ptions","S ON","T ER","V ID","a le","c l","c ores","d s","d ist","e mpty","f inder","g ion","g mail","g overn","h ing","i b","i fic","i mental","m o","o ol","o uld","p ly","r xtx","s r","s or","s instance","t otal","u pto","v ity","w rap","} '","Ġ nt","Ġ< <","li brary","li teral","de leted","nt ax","se d","se lf","in put","st er","st ed","st art","Ġa uto","Ġse n","Ġse ctions","Ġt od","Ġt uple","Ġp a","Ġp ol","Ġp ower","om p","Ġc a","Ġc ore","Ġc ollector","Ġf get","Ġ' -","Ġ' \\","me di","le ep","he mer","Ġ2 7","enc e","Ġ\" __","Ġre lease","ar ning","Ġde st","Ġs leep","Ġo lines","Ġo ld","Ġ1 3","ct ed","Ġd uring","Ġ3 1","Ġ3 3","Ġ3 6","lo cal","ed it","ser iali","ĠC L","ĠC lass","ri ver","Ġr file","ĠG ather","ĠS D","ĠS tr","ĠA uth","ĠA PI","vi le","ĠF or","ĠF ailure","th read","ĠN o","ĠN UL","ĠL ist","ĠI t","Ġfi x","__ \"","Ġth read","Ġex ec","Ġst derr","Ġl ate","ĠR UN","Ġres ort","Ġdi f","Ġdi vision","Ġpro tection","sc ores","Ġbe en","ult ip","ai led","Ġlo wer","as ic","ĠD IS","Ġli stener","Ġstr ip","Ġtest s","Ġcom mit","ou gh","Ġun icode","ra w","Ġ{ '","Ġclass ify","ow el","per imental","Ġcont rol","LE N","ĠGuid Type","Ġso ap","com pose","ĠB E","ho ice","Ġpri vile","ok en","IN K","Ġit s","Ġpo int","Ġpo licies","act s","Ġad min","Ġ\\ \"","ĠGet CName","ĠGet SupArchList","ĠIn valid","Ġversion s","out ine","if acts","Ġunder scores","time stamp","ati vity","EN DS","Ġ6 0","bc def","Ġfin ally","Ġhe x","Ġla st","pre sent","ee p","Ġ201 6","Ġbase s","met a","met ric","Ġarg ument","br and","AL L","To Enc","Ġcur ses","base d","Ġpl t","Ġsub mit","Ġhttp s","TE XT","http s","count er","UL T","arch ive","Ġimplement s","ĠSt omp","ĠJ Collectd","Ġparse d","Ġinit iali","Ġheader s","sh ape","write math","Ġcomm on","Ġfun ction","og ger","arg ument","Ġbuf fer","ĠSAX Not","rel x","rel ativity","Ġrule s","ĠPro cess","Ġrd len","Ġnamed NodeAdminTuple","we en","Ġcre ated","Ġvalid ation","war d","ĠChar DistributionAnalysis","Ġiter items","Ġmock er","Or der","Ġover ri","process ing","Ġstroke list","ootstrap Helper","su bject","Ġret ry","Ġcol or","Ġcsv row","Ġattemp t","ĠWSGIRequest Handler","uil tin","Ġsrc path","Ġmove s","Ġmulti processing","ĠgetL ogger","ĠInter face","Ġstub s","esc ape","Ġproper ties","Ġshut ting","HelpText List","tx n","Ġwa it","Ġbet ween","Ġbegin ning","ALI D","upto ols","Ġnt path","medi ate","hemer al","ĠRUN CHAR","ultip le","bcdef ghi","ToEnc rypted","% (","' '",". ,","0 5","2 11","4 04","8 000","9 8","= {","> >","> }","A ttribute","A PP","B yte","C ON","C LI","C IP","D ING","F E","I G","I ES","I mplement","L R","L in","M M","M ap","M et","M IT","M ock","P y","P re","P ackage","P LA","R L","R OM","S A","S oftware","S ION","T h","T his","U M","V ariable","W ith","Y aml","] +","` .","b ort","b are","b lock","c all","c rypto","c heck","d st","d al","d an","d own","e xception","f g","f lag","f rame","g or","g ine","i Name","j s","m a","m q","m ac","m aint","n ado","o z","o pe","p ad","q names","r f","r ase","r type","t en","t ocol","t arget","t ags","u ally","w ind","x ml","x enapi","z y","Ã µ","Ġ ens","Ġ que","Ġ license","li nt","li sh","de fer","de scription","de ditor","nt ic","nt ity","in stall","in voice","st ate","st path","re tri","re sted","or nado","Ġa ss","Ġse ri","Ġse quenc","Ġt ornado","Ġp tr","Ġp ublic","Ġp true","Ġc mp","Ġc ache","Ġc my","Ġc used","Ġc fg","at s","Ġf m","Ġf frame","Ġ' ..","Ġ' _'","me mory","he ntic","Ġ\" '","Ġre stri","Ġre ally","Ġs k","Ġs dist","ut hentic","Ġ1 4","Ġ1 7","ct op","an o","Ġin p","Ġin active","Ġd b","Ġd ummy","Ġd river","Ġd stpath","Ġe lement","Ġe of","Ġe ps","Ġe mpty","ro ot","Ġm k","Ġm x","Ġm an","Ġk now","il la","il va","pe lican","la yer","lo b","lo or","get Network","ot e","ot h","ĠC F","ĠC ode","ri gin","od List","is h","is ol","is hed","te cted","ĠS c","ĠS i","ĠA SG","ĠA bort","ĠN ame","Ġname list","Ġnot ebook","ĠI D","ĠI mport","ĠI MP","et ch","et ter","up lic","ode d","one yp","Ġg rant","Ġst ill","Ġl strip","ĠO rigin","ĠR E","ĠR untime","Ġcon f","Ġcon n","Ġcon nect","el l","Ġpro c","Ġpro xy","sc aling","Ġch unk","Ġlo ca","ĠD en","ĠV ALID","Pro perty","di m","Ġme mory","Ġwr ong","Ġma ze","odule List","Ġlen gth","ĠM A","ĠM an","ĠM ark","ĠM ulti","ĠM essage","com man","ĠB LO","ĠB IG","Ġset uptools","IT E","Ġpre vi","ok e","IN F","pro ps","pro duct","pro ject","pro tobuf","Ġpo ol","Ġpo ssi","Ġsi de","Ġâĸģ' %","Ġconfig As","Ġ5 1","Ġ5 9","Ġargs pec","um er","ĠGet HelpTextList","Ġrun Command","Ġstart Service","Ġpy lint","Ġer ase","fe rent","ĠH TTP","EC T","scri pts","Ġ6 4","res ource","Ġac ce","LI ED","ĠU RL","Ġdis able","Ġ> >>","link s","Con vert","par ator","Ġ201 0","12 3","Ġsh ow","Ġhas h","Ġurl lib","Ġarg v","Ġarg uments","Ġ9 4","ĠSet CName","ĠSet SupArchList","ĠSet Notify","To Order","Ġcopy right","Ġpat ch","sy mbol","RE GE","ĠQ GIS","den ce","Ġcomp atible","tern ative","port er","Ġrequi rements","Ġab out","ĠKey Error","Ġrequest s","user s","Ġbin ary","ĠSt ate","ĠNot Implement","St ream","PA CK","Ġle vel","UR L","Ġz ip","Ġz mq","og le","ph rase","Ġend swith","CT X","Ex pression","Ġrd type","Ġrd class","Ġstrok es","ĠAr gs","Ġvar Regexp","PE M","Ġsee k","Ġident ity","Ġdec orator","/* .","man ager","ĠType Error","201 1","ach ine","==== ====","ĠHelpText Xml","As PEM","Ġattribut es","Ġchoice s","omet ry","omet ag","Ġstop Service","Ġinte rested","Ġerr no","ĠSup ArchList","ĠSy stem","ĠQue ue","Ġign ore","Ġfla gs","ĠString IO","SupM oduleList","CLU DING","FA ULT","Ġcm x","Ġcop ies","ged Start","ĠCacheLock er","ĠFilter Expression","ĠRet ri","Ġprovi ded","ĠDA MA","Ġwarn ings","CRI P","ific ation","Ġpol l","Ġ'- '","seriali zed","ĠSD ist","Ġprivile gedStart","ĠInvalid Input","outine s","Ġoverri de","CIP HER","Lin k","Met adata","dan ms","Ġens ure","Ġque ue","Ġseri ali","ctop rint","isol ated","ĠImport Error","ĠIMP LIED","oneyp ot","Ġgrant ed","ĠOrigin al","ĠRuntime Error","comman deditor","ĠBLO CK","Ġpossi ble","ĠconfigAs Yaml","resource s","Convert ToEncrypted","ToOrder Map","REGE X","ĠNotImplement edError","PACK A","ĠprivilegedStart Service","\" ,","\" )'","' )","( ?",", '","0 2","3 2","4 0","5 9","7 5","8 1","9 0",": '","< /","> \\","A ction","B UG","B asic","C hoice","D own","E X","E mpty","E ditor","H IS","K G","L L","L ine","L ib","M Q","M ak","M iddleware","O pen","P L","P ickle","Q L","R R","R ES","R outines","S O","T S","T AR","T RA","Y ml","Y ML","_ %","a ded","c b","c s","c an","c ated","d uplic","e f","f fer","g al","g id","g lobal","i g","i re","i ated","l ation","m ode","n al","n ConvertToEncrypted","p at","p lo","p end","r aise","s pect","s peci","s pace","s omething","t nConvertToEncrypted","u me","v n","v id","v ate","y x","y le","y ml","Ã £","Ã §","Ã ©","Ã º","Ġ |","Ġ very","ne xt","li ke","nt e","nt il","se e","Ġ0 211","st ats","re quest","re cent","or p","Ġa p","Ġa ct","Ġa vailable","Ġt ra","Ġt rue","Ġt orrent","Ġt vm","Ġt wisted","Ġt rim","Ġp h","Ġp k","Ġp ut","Ġp ip","Ġp ers","Ġp ts","Ġc ast","Ġi ss","Ġf o","er Com","Ġ' \"","me m","le vel","he ll","Ġw ould","Ġre gion","al k","ar s","ar Down","it torrent","ge om","Ġde pen","Ġde velo","Ġde stroy","Ġn b","Ġn w","Ġs g","Ġs ure","Ġs vn","Ġo ps","Ġo ctoprint","ur al","ur ano","ut ed","ct r","ct ive","an iz","Ġin sert","Ġin spect","Ġd a","Ġd ok","Ġ3 00","Ġthe se","Ġb ootstrapHelper","Ġb tnConvertToEncrypted","ro le","ro ug","Ġm b","Ġm er","Ġk ind","la ce","la sses","Ġu pp","Ġu ntil","ot es","ot her","ĠC re","ĠC orp","fi ed","ĠT oken","ĠT HIS","Ġr m","ĠG e","ate ver","ĠS T","ĠS ilva","ol ver","Ġto o","ĠA R","ĠA g","ĠA ttribut","ĠA UTH","ĠA ffer","ĠA ctive","ic Mock","ĠF la","ver se","Ġget attr","Ġget max","ch oice","ul ate","ĠL oc","Ġnot hing","ap pen","Ġ25 4","Ġh ow","un ic","un icode","ĠP arser","Ġg is","Ġg dal","Ġg lob","Ġst atus","tt ers","ĠO UT","ĠR aise","but or","Ġv al","Ġres ize","Ġdi ff","sc ape","sc ale","si gnatures","Name d","Ġlo cal","Ġlo aded","and t","ite m","ĠD o","ĠD oc","ĠD jango","ĠV alid","Ġstr ings","ry able","Pro cess","Pro tection","art be","Ġtest Widget","ĠE n","ra x","di f","Ġme mb","ow s","Ġma de","Ġj vm","Ġapp ly","Ġal ternative","ĠM ag","ĠM ake","com m","ĠB ost","Ġset attr","IT S","pi le","Ġsy llable","pro perty","ste p","ste ms","act er","ĠfailUnlessEqual Content","Re cognized","TI VE","Ġ4 04","ree k","ĠGet FeatureFlag","OR S","OR T","OR Y","Ġos lo","ip ue","Ġstart ing","ax y","scri pt","Ġla yer","mple TestCase","Service s","son ant","pre fix","Ġflavor s","CH E","Ġpass phrase","ay er","ener Th","In dex","ĠTest App","test s","ĠU SA","Ġread y","Ġ8 1","Ġchange set","Ġ'% (","Ġ201 2","Ġbase Name","Xml Element","Ġnode s","iv ar","Ġ9 0","To NOTEQ","Ġcur sor","ll vm","MA KE","Ġ7 0","ĠComm unic","Ġpl an","method s","date time","read y","Ġsub process","Ġte arDown","Ġdtype s","of b","Ġsc enario","Config Item","TY PE","doc ument","ĠAn y","ĠXml Node","ĠXml Routines","im g","ĠSt ub","group s","value s","ĠJ SON","Ġtag Key","Ġ12 8000","ĠNot e","hed ule","Ġexc lu","Ġdocument ation","Se curity","Se parator","session s","Ġspeci fied","change d","Ġchild ren","Ġle tters","Ġq name","Is En","Ġcle ar","Ġtrans lation","Guid Value","back end","gre ssion","Ġvi a","ĠPro tocol","Ġmake file","Ġmake Service","pose Yml","Sy ntax","Ġnamed Services","CA CHE","ff ect","allow ed","ĠAr g","ĠAr ray","ĠPo licy","Ġcontent s","DE P","NE ToNOTEQ","Ġword count","ĠCO PY","ĠCom p","ĠCreate s","ĠCreate XmlElement","Ġdir name","subscription s","LU GIN","Ġnct Id","Ġsort ed","Ġbuild match","66 66","KE Y","llable Separator","Ġright s","Ġim age","Ġsu ch","Ġbit code","Ġbit torrent","ĠSU RE","Ġtok en","ĠRun Metadata","inter val","ĠInstall Scripts","ĠInstall Lib","ĠConvert NEToNOTEQ","ĠFormMultiPage Action","em on","ĠAl low","unk nown","ĠBuild Scripts","ĠBuild Py","ĠQue stion","dis play","field s","very one","16 8","ĠnewlyRegistered User","system commandeditor","OMM ENT","Ġroutine s","ĠTemplate Syntax","payment method","Res olver","wh atever","record ing","Ġtrun cate","Cert AsPEM","Men us","wrap ped","ĠAuth ors","Ġlate x","Ġdif ferent","ĠDIS PLA","Ġinitiali ze","ĠSAXNot Recognized","bcdefghi j","Variable Name","maint ain","oz illa","ntity Resolver","Ġsequenc es","ĠSi mpleTestCase","ĠDen y","ĠRetri eve","ĠDAMA GES","Mak er","YML INK","gal axy","erCom poseYml","Ġdok erComposeYml","ĠbtnConvertToEncrypted IsEn","roug h","Ġupp er","ĠToken Parser","ĠAttribut es","ĠAffer o","ĠActive MQ","Ġgetmax yx","ĠRaise d","artbe at","ĠMag icMock","ĠBost on","ĠfailUnlessEqualContent s","sonant s","enerTh read","ĠArray Field","ĠTemplateSyntax Error","ĠDISPLA Y","ĠSAXNotRecognized Exception","ĠdokerComposeYml FileName","ĠbtnConvertToEncryptedIsEn abled","\" :",") )","* )([","+ )","- {","/ %","/ .","/ {","/ (?","5 0","5 3","6 4","6 7","8 9","= %","> '","A TIVE","B A","B D","B LI","B etter","C re","C ipher","C ollector","D ES","F ound","G H","G e","G TH","G PL","H qx","H ALL","I F","I SE","L Y","L en","L oc","M e","M at","N ATIVE","P ublic","P EC","P latform","P KG","Q T","R le","R et","R age","R OF","S D","U RI","W OR","W eek","] (","] *)([","_ ,","a uto","a vailable","b f","b o","b uild","b ility","b ootstrap","b uiltin","c ar","c ol","c sv","c ert","d ic","e ader","e arning","f ault","g r","g is","h g","h at","h oneypot","i str","i lit","j or","k li","m ble","m ark","m metric","m ultiple","n f","n r","n ly","o ogle","p c","p l","p ment","p ow","p ass","p ickle","p latform","r ing","r il","r pc","s k","s w","s al","s pe","s la","s oftware","s amples","t op","t ensor","t uple","t ask","t wisted","t wo","u c","u d","v ince","v cpus","w b","x B","x enserver","y ing","y ril","{ '","} ]","} {","Ã ¡","Ã ³","ç Ľ","Ġ ~","Ġ ur","li er","de v","de fn","de vices","de sired","de coderengine","de pend","se ct","se mble","in valid","in clu","st op","st ack","st derr","re ction","re quenc","or ation","en viron","Ġa u","Ġa void","Ġa ster","Ġse mantics","Ġt s","Ġt on","Ġt ri","Ġt ap","Ġt able","Ġt ake","Ġt ags","Ġt wo","Ġp d","Ġp s","Ġp id","Ġp us","Ġp ay","Ġp ickle","Ġp lace","Ġc or","Ġc pp","Ġc ert","Ġc ard","on d","on ger","at in","at al","at ap","at ter","at temp","Ġi v","Ġf oo","Ġf ailed","Ġf requenc","er r","Ġ' _","Ġ' ,'","Ġ' :'","str ings","me mb","le an","Ġ[ {'","he l","he artbeat","Ġ2 6","enc oded","Ġw file","Ġw ay","Ġw ire","Ġ\" <","Ġre q","Ġre al","Ġre ly","Ġre cognized","al u","al ph","ar se","it ers","ge nt","ge ner","ce il","Ġde code","Ġs ome","Ġs afe","ut put","ct o","an it","an up","Ġin valid","Ġin stant","Ġin voice","Ġd ist","Ġ3 4","Ġ3 5","Ġthe ir","Ġe tree","ro und","Ġdef er","Ġdef init","Ġm ater","Ġk w","Ġk eep","Ġan other","pe ar","lo op","lo okup","Ġu su","ser vices","ĠC PU","ĠC OMMENT","fi dence","ri x","ri butor","pt ured","Ġfor ward","is k","is ProtobufMessage","ĠS er","ĠS ub","ĠS ick","ĠS QL","ĠS YMLINK","ĠS HALL","Ġas yn","ĠA LI","ĠA CTION","ĠF ran","ĠF if","ĠF cal","ĠF bal","ĠF ile","ĠF uncal","ĠF OO","ĠF loor","xt ick","Ġget User","Ġget QName","ĠL earning","Ġh andl","Ġh appen","name d","ith m","ĠP Y","ĠP er","ĠP pi","ĠP IN","ĠP ID","ĠP LUGIN","ĠP ROF","Ġth rough","Ġex ample","Ġex perimental","Ġg it","Ġg pu","ation Error","Ġst d","Ġst yle","Ġst ars","Ġl ong","Ġl onger","ĠO E","ĠO ther","ĠO nly","Ġcon struct","Ġcon dition","Ġcon sonants","Ġdi ms","Ġdi am","Ġdi rect","Ġdi rection","Ġfile path","ption al","Ġpro ject","Ġpro tobuf","Ġpro tected","fo und","sc enario","si der","op en","Ġlo gin","Ġlo okup","and o","and ro","ĠD TD","Ġar ch","ĠV M","Pro ber","lu sh","Ġtest ing","Ġcom e","Ġcom pose","Ġme m","Ġline len","Ġline no","Ġclass ification","ĠW HE","Ġuser Name","per iod","Ġal ready","po stion","Ġso b","com ing","com pare","ĠB e","ĠB UT","ĠB SD","Ġset Name","Ġset Config","Ġset Store","IT IES","ho bb","ER P","gn al","Ġpre txn","less andro","ali br","pro files","tr ans","Ġpo sit","roup s","Ġsi g","Ġsi mp","ance l","ci o","IS ING","Ġx enserver","TI AL","um an","ĠGet Guid","ĠGet Usage","ĠRe ad","ĠRe cur","Ġcase s","Ġne ver","Ġrun s","Ġrun ner","AN ITIES","out put","Ġpath s","Ġwh om","Ġwh at","con nection","Ġen abled","char set","ati bility","ke ep","us ually","ĠH ttp","ĠH idden","Ġat om","EN TA","own ServiceParent","min istr","Ġfin ished","work er","cur ial","Ġla zy","module s","Ġext end","ĠTest s","ĠU N","Ġcontext lib","her it","Ġ8 0","Ġ8 6","Ġchange s","De cimal","ĠGener ate","Con s","Ġ201 1","Ġbase name","12 53","Ġnode Name","Ġsh ort","Ġarg types","Ad ditions","ĠSet FeatureFlag","AL TER","To NE","RI PE","RI GH","ĠCopy From","HO ST","HO LD","ĠCON TRA","read able","Ġbran ches","Ġcomp lete","Ġcomp atibility","TE G","TH RES","Ġopen rsrc","Ġhost name","ep hemeral","ind ing","Ġallow s","OM E","app lication","ĠDEC LR","ĠWIT H","doc web","gra de","Ġrequest ed","ĠXml Element","ĠXml Attribute","Ġother wise","config ured","Di ct","Di rectory","Ġ12 0","cre mental","Ġwrap s","LA IM","Set s","Ġauth or","change set","change group","Ġenviron ment","pk g","write crc","write Protobuf","Ġle ft","Ġpage s","Ġq gis","ĠCon ditions","Ġgo ing","Ġgiv ing","ST RIPE","ph antom","Command Editor","Char ToOrderMap","Ġtrans form","Ġco ef","ĠIN CLUDING","Ġprepare d","Of ProtobufMessage","`` )","gre g","Ġvi ew","rel ated","Ġ200 6","ĠLI MIT","Sy nc","raph y","vis ions","Ġev alu","Ġstore Password","Ġstore Username","Ġconvert ed","Ġresol ved","Ġmessage List","Ġmax x","oo lean","Ġlink Text","ĠVariable s","ĠVariable Name","be lis","Ġrel x","Ġcontain s","host name","/* /*.","Ġiter ator","Ġsw ap","Ġdump s","Ġdump Run","ĠEV ENT","Ġabs path","201 2","Ġexp r","Ġexp andt","Ġexist s","INE LEN","ĠFeature Flag","Ġdir Pickle","IService Collection","Ġgener al","LO W","Ġattribute values","Ġden ied","Ġevent s","ĠCont ent","ĠCont ributor","Ġrecur se","Ġrecord ing","Ġ18 8","ĠOGR Ge","Ġinte ger","package s","Ġim mediate","Ġsu ds","ĠSU B","Ġhook type","ĠConvert NOTEQ","Enc oding","Ġorg Name","ĠEx ample","Ġxml rpc","13 01","Ġsepar ate","Ġreplace d","Ġns name","ĠSe ssion","AT OM","OL DER","PR ESS","Run ner","VER SION","Ġdefine d","Ġrle data","ĠDE FAULT","LIB C","ĠnewlyRegistered Org","byte s","PU BLI","cle anup","Ġinclu de","ĠAd ministr","ĠPRO VID","Ġart ifacts","ĠEX PRESS","Ġtemp est","Ġtemp file","ĠDecimal Field","GuidType List","ĠLIAB LE","ĠLIAB ILITY","Step Advice","28 5","By QName","Lo ader","govern ors","literal s","Ġsen d","Ġpa id","Ġca ptured","Ġexec uted","owel s","Ġpoint list","Ġhex bin","ĠJCollectd Collector","FE ED","Pre fix","With Menus","check crc","exception s","retri es","Ġass oc","Ġsk ip","Ġmk param","getNetwork For","Ġloca le","INF O","umer ate","Ġacce pt","symbol nr","PACKA GES","TAR GET","mode ls","pat tern","ume s","Ġ0211 0","Ġap pear","Ġact ual","Ġpers on","ittorrent Store","aniz ation","ĠCorp oration","ĠAR ISING","ĠValid ationError","dif ference","Ġmemb ers","img ur","Security Form","DEP ENDS","ĠCOPY RIGH","col or","ilit ies","kli n","sw ap","inclu de","Ġaster isk","Ġton ic","Ġtap name","Ġpay load","Ġusu ally","ĠSick Rage","Ġasyn cio","ĠALI VE","ĠFran klin","ĠFif th","Ġhandl ers","ĠPIN AX","ĠPID FILE","ĠOther wise","Ġdiam ond","ĠWHE THER","hobb it","trans late","ĠHidden Input","Decimal Field","ALTER NATIVE","ĠCONTRA CT","THRES HOLD","ĠDECLR MM","OfProtobufMessage s","ĠLIMIT ED","ĠstorePassword IsChecked","ĠstoreUsername IsChecked","belis k","ĠdumpRun Command","ĠdirPickle FileName","ĠConvertNOTEQ ToNE","PUBLI C","ĠPROVID ED","ĠCOPYRIGH T","\" .","\" ),","' .","' ^","' },","( \\",". _",". %(","0 7","3 1","5 8",": :","? \"","@ '","A D","A pplication","B LE","C an","C OR","C OM","C FLAGS","C PP","D ata","D ON","E MP","E BAR","F act","F ilter","F LO","G et","G RA","G yp","H ex","H TTP","H eader","I f","I nt","I AL","J P","L W","L AR","L ang","L AN","M E","M ENT","M odList","N D","N EC","O C","O n","O bj","O UT","O DE","P o","P UT","P RI","P TION","P RO","Q P","Q MAKE","R AX","R DEPENDS","S M","S P","S ID","S pec","T he","T op","T ag","T ipue","U S","U ID","U MA","U iName","V ar","V ersion","W E","W r","W rite","W ISE","Y N","Y ES","] ?","a f","a bc","b od","b ad","b ers","b atch","b its","c u","c ame","c mp","c lo","c cess","c oin","c ron","c orrect","c alibr","d b","d ar","d ail","d td","e ffect","f ree","f etch","f lush","g ge","g rc","g ers","g res","g ress","g ative","g rim","g Ã¼","h a","h w","i er","i der","i mplement","l li","l defn","m en","m ic","m ont","m art","m ount","m ote","n is","n ch","n one","o s","o bj","o red","p ri","p art","p arent","p rim","p Add","p hemeral","q Ã¼","r m","r ange","s ite","s um","s ave","s now","s sed","s ometag","t mp","t cp","t ifacts","u ation","u di","v end","v oke","w ner","w idth","w td","x C","x E","x it","y y","y nc","z one","z ation","z es","z ip","} ).","® é","Ã ª","å °","Ġ ;","Ġ Z","Ġ ver","Ġ less","Į Ħ","ne t","de l","de fi","de si","se n","se ed","se arch","in s","in sert","in Hex","Ġ. .","Ġ0 0","re t","re di","re vision","re porter","re visions","or a","en ge","en ded","en gine","Ġa lo","Ġa te","Ġa ck","Ġa ble","Ġse ss","Ġse ction","Ġse gment","Ġt abs","Ġt ell","Ġp or","Ġp def","Ġp ast","om pe","Ġc er","Ġc ollect","Ġc lasses","at ic","at tri","Ġi r","Ġf ur","Ġf alse","Ġf ew","Ġf etch","er y","er ations","Ġ' \"'","Ġ' \\\\","Ġ' *'","Ġ' @'","str oke","le t","enc oding","Ġw g","Ġw ho","Ġw sg","Ġw ays","Ġw ell","Ġw alk","Ġ\" !","Ġ\" /","Ġ\" _","Ġ\" .\"","Ġre v","Ġre pe","Ġre gra","Ġre posit","Ġre served","Ġre ply","Ġre porter","it le","it es","it ies","it ten","Ġde pre","Ġde vices","Ġde lete","Ġde leted","Ġn c","Ġn l","Ġn or","Ġn orm","Ġs um","Ġs ax","Ġs ince","Ġs omething","Ġs ometag","Ġs hell","Ġs anit","Ġo ur","Ġo nes","Ġo belisk","Ġo wner","ut or","ut om","Ġin dic","Ġin coming","Ġin herit","Ġin voke","Ġd ue","Ġd id","Ġd as","Ġd raw","mp l","Ġ3 9","Ġe le","Ġe uc","Ġe phemeral","ss umes","ss ync","Ġb est","Ġb uiltin","Ġb ig","Ġb oolean","ro s","ro ll","Ġm ac","Ġm ight","Ġm iddleware","Ġm ultiple","Ġm urano","il grim","pe m","ort ions","Ġu m","Ġu sage","Ġu sr","ed i","ed ded","ser ve","get text","get her","get users","get Link","ĠC A","ĠC ollectd","ĠT h","ĠT ime","ĠT ext","ĠT wisted","ĠT IM","ĠT ORT","ri es","Ġr ts","Ġr xtx","Ġreturn s","ĠG reek","ĠG oogle","Ġis n","ĠS ingle","ĠS pace","ĠS RC","ĠA t","ĠA pp","ĠA udi","ĠA ssumes","ic ally","vi der","ĠF ind","ĠF unction","ĠF ix","ĠF ROM","Ġof ten","Ġget B","Ġget Name","Ġget file","Ġget Service","Ġget Value","Ġget value","ĠN et","ĠN UMA","ĠL anguage","ĠL ayer","ĠL atin","ĠL INELEN","ck er","ĠI nte","Ġh grc","Ġh ier","un safe","up per","ĠP O","ĠP X","ĠP h","ĠP OM","ĠP lan","ĠP ilgrim","ĠP ortions","Ġth an","Ġg ot","Ġg file","Ġg ive","Ġg by","ure s","Ġst ompe","tt y","ĠO N","ĠO bject","ĠO SE","ĠO ptional","ĠR edi","Ġcon sole","Ġcon fidence","but es","Ġv m","Ġv cpus","Ġv mem","Ġdi m","Ġfile crc","Ġpro to","Ġpro gress","Ġbe low","si de","si gnature","ai ned","op ulate","op erations","Ġâĸģ\" !\"","Ġlo op","pp ing","and les","and ora","as sert","as semble","ĠD ate","ĠD ata","ĠD IR","ĠD ummy","Ġli ke","Ġtest list","all back","all enge","Ġcom pile","Ġun ion","ĠE C","ĠE lement","ĠE OF","ĠE mpty","ĠE veryone","ĠE ntityResolver","ĠE ND","ra gment","ra xp","Ġwr itten","Ġma k","Ġma ster","per s","AR CH","po st","ĠM IN","ĠM EN","Ġso on","Ġby ref","com mit","ĠB ook","ĠB inding","ĠB inHex","Ġdata To","SE N","Ġsy stems","Ġsy mmetric","Ġser ve","gn ConfigItem","Ġpre vent","Ġpri vate","ok an","UT F","IN ITS","pro pto","pro to","Ġit self","ack space","Ġpo inter","data set","form at","Ġpar am","Ġsi gnal","Ġuse s","Ġâĸģ' \\\\","ci i","ci ph","Ġconfig Network","Ġconfig Item","Ġ5 12","Re gister","Re vision","Ġ4 2","Ġ4 5","Ġ\\ '","ĠGet Notify","ĠGet SupModuleList","ĠGet GuidTypeList","ĠRe move","OR M","OR ITY","ĠIn cremental","Ġversion utils","Ġne t","Ġne cess","our Var","Ġwh ites","con dition","con sole","mit ter","Ġen gine","Ġen umerate","Ġpy rax","char file","Ġlog ar","Ġwe re","fe at","ĠH AS","ĠH OLDER","ĠH andles","Ġ10 24","EC OMM","EN CE","Ġ6 5","Ġ6 7","Ġ6 8","Ġcan not","pre txn","Ġtime zone","Ġany thing","res pon","Ġac cord","Ġadd Service","Ġadd Empty","ĠK eep","ab stop","Ġgroup s","Ġgroup Id","ĠTest Gyp","ĠU sage","ĠU iName","Ġdis ownServiceParent","Ġdis assemble","Ġsp arse","Ġlist s","Ġcontext manager","buf size","Ġnew data","Ġnew CertAsPEM","Ġread line","Ġ8 2","mb edded","De vice","De fault","Con nection","par sing","Ġ201 4","Ġdoc strings","ng lish","Ġsh util","Ġdo cker","Ġdistribut e","Ġdistribut ion","ĠOR D","Ġ9 8","ĠSet Guid","ĠSet Usage","ĠSet SupModuleList","AL LOW","py crypto","MA GE","sy nc","Ġ7 2","Ġ7 7","RE SET","Ġper form","Ġper mit","Ġper cent","ĠCON NEC","Not Found","ger Field","den ied","Ġsub dir","org roups","Ġcomp onent","Ġcall s","Ġsc he","Ġsc rap","Ġsc hedule","Ġoption al","button s","Ġopen rf","viron ment",".. .\"","Ġrequi re","Ġnum bers","Ġallow branches","Ar tifacts","flavor id","Ġcurrent Step","by name","Ġro ute","Ġpart ial","arch y","Ġimplement ation","config uration","Ġtag name","Ġ'/ '","Ġ12 3","Ġenv Additions","St ack","Ġinter nal","Ġinter sect","Ġdocument s","An y","Se arch","Set Prober","Ġauth m","yp art","Ġle ad","Ġle ave","Ġfol der","Ġup load","ĠIS O","ĠCommon Object","UR CE","Ġq names","requi red","Ġfe at","ĠCon fig","Ġgo od","Ġcpu info","Ġprefix es","ph p","Ġrespect ed","Char acter","Char SetProber","opt s","ump y","Ġbreak s","ex p","ex ample","no va","Ġ200 1","Ġ200 9","ĠForm at","Sy llableSeparator","ifi ed","Ġid x","Ġregister Com","Ġnamed tuple","Ġnamed Any","add Link","Ġprocess ing","Ġprocess uid","Ġprocess gid","Ġhere by","For File","Ġcode cs","Ġmessage s","Ġpub lish","Ġword s","Ġvalid ate","Ġlink s","Info ForFile","ĠAnsible Filter","ĠXenA P","Cont ainers","DA TE","be am","war n","Ġbod ypart","Ġmark er","Ġug lier","Ġusers orgroups","Ġcontain ing","Ġparser s","Ġclient s","/* *","FI G","FI X","error s","Ġdump File","Ġdoes n","201 7","co der","Ġcal ling","Ġover size","ĠWe ave","Ġ19 98","ĠHelpText Obj","Ġfunc name","Ġtotal wtd","Ġref lect","ĠCont rol","Ġinterface s","DIR ECT","Ġfil led","ĠCheck in","ĠPy docweb","ĠOGR Index","ĠsetUp Class","hook s","Ġinte gers","Ġnext rely","Ġnext relx","image id","DO UT","do es","Ġim g","ĠSup ModList","HEADER S","cate gor","inder Containers","Ġwork er","Ġrest ype","Ġremove Service","Ġinst al","ĠService s","Ġorg anization","ĠEx amples","Ġsupport s","FILE S","fake imageid","Ġsepar ator","ĠSe lect","ĠBase Artifacts","Ġweb hook","Ġweb server","Ġattemp ts","ĠComment SecurityForm","Ġdeny branches","PR OF","\\\" \"","Ġqu otes","Ġcorrect ly","ĠDE BUG","cipher byname","SupM odList","byte file","System Id","web hook","PY RAX","device A","Ġag ain","Ġag gr","Ġtop dir","ĠAd d","ĠIService Collection","Ġhand le","ĠOTHER WISE","Ġloc ation","ĠRequest Fact","By Name","IC ES","IC ODE","cl ang","govern or","Ġauto scale","Ġtod o","Ġtod ay","Ġpa ste","Ġold line","ĠClass ify","ĠList enerThread","Ġfix er","LEN GTH","ĠGuidType s","ĠBE GIN","ĠStomp Spec","Byte Stream","Byte CharSetProber","CON FIG","CLI ENT","]+ )'","call back","down load","wind ows","Ġfm t","Ġfm Form","uthentic ation","Ġman y","Ġchunk s","ĠMulti Service","ĠMulti ByteCharSetProber","ĠMessage Middleware","Ġprevi ous","Ġprevi ourVar","Ġzip file","CRIP T","Ġseriali zer","RR ECOMM","SO URCE","duplic ate","plo t","speci fic","request ed","Ġtra ce","Ġph antom","Ġpk g","Ġiss pace","Ġdevelo ping","Ġda emon","Ġmer curial","ĠCre ator","Ġrm tree","ĠST DOUT","ĠAUTH OR","ĠFla gs","ĠDoc ument","ryable Error","comm on","Ġchangeset s","ĠCommunic ations","ĠtearDown Class","ĠComp onent","GPL v","Public Id","auto escape","nf ssync","spe ed","sla ve","çĽ ®é","Ġ~ /.","depend s","Ġtri gge","Ġps util","Ġpus h","Ġcor respon","Ġfrequenc y","memb er","alph a","Ġinvoice s","Ġdist utils","Ġdefinit ion","ĠgetUser Name","ĠPer mission","Ġstd out","Ġdirect ly","Ġsig ned","ĠRecur sive","ĠUN ICODE","Ġexpandt abs","Ġxmlrpc lib","285 1","Ġassoc iated","pattern s","Can not","COR E","CPP FLAGS","FLO AT","Int ended","Lang Model","Po sit","PRI ORITY","SID EBAR","Top ic","Tag Value","bod y","came lli","dail y","ider man","implement ation","mic ros","mont h","nch ron","prim ary","pAdd ress","insert ed","Ġalo ne","Ġate xit","Ġsegment ation","Ġcer tain","attri butes","Ġ'\\\\ '","Ġwsg i","Ġreposit ory","Ġdepre cated","Ġdas hes","getLink InfoForFile","ĠTIM E","ĠGreek LangModel","ĠAudi ence","Ġgetfile info","ĠNet scape","ĠInte gerField","Ġhgrc users","Ġhier archy","ĠPlan Form","Ġstompe st","ĠOSE rror","Ġprogress reporter","ĠDIR ECT","raxp ub","ĠdataTo Write","INITS CRIPT","ciph ers","ĠIncremental Parser","Ġwhites pace","ĠHOLDER S","Ġaccord ing","ĠaddEmpty Line","ĠCONNEC TION","Character Stream","ĠregisterCom position","ĠAnsibleFilter Error","ĠOGRIndex Error","categor ies","ĠBaseArtifacts Test","ĠRequestFact ory","ĠpreviourVar Prefix","RRECOMM ENDS","çĽ®é ĮĦ","Ġtrigge red","Ġcorrespon ding","camelli a","! '","! </","\" |","\" \\\\","$ '","$ {","' ;","' <","' |","' }","' ),","( \"","( *","+ \"","+ '","+ .","+ )'",", \"","- \"",". )",". \\",". {","/ __","/ ..","/ %(","0 9","1 0","1 4","1 00","2 1","3 4","3 8","6 5","9 2","9 56","= \"","> ).","? \\","A G","A P","A UT","A ll","A PI","A GE","A gent","A uthentication","B E","B J","B U","B e","B in","B ad","B IT","B ytesIO","B OO","B ittorrentStore","C L","C M","C P","C all","C XX","C ould","C LAIM","C LIBC","C JP","D I","D is","D et","D AL","D RI","D TD","E G","E T","E V","E ntityResolver","E mbedded","E nglish","F S","F lavor","F LI","F SS","F AL","F oo","F ailed","F ROM","F FIX","G N","G ot","G roup","G reek","G LIBC","G ENCE","H H","H ost","I gn","I RE","I Process","I mpl","I MAGE","J IS","J OR","J son","L e","L IS","L ook","L INE","L etter","L ayer","M S","M an","M odule","M UT","M ESS","M achine","M ozilla","N ew","N SI","N umber","N Men","N Revision","N ORM","N FSS","O E","O Error","O cto","O ICES","P er","P AR","P RE","P ream","P em","P rint","P ool","Q U","Q ue","Q GIS","R ot","R ule","R IN","R AS","R atio","R untime","R SRC","S F","S H","S U","S er","S al","S ub","S TA","S LA","S pace","S Cons","S OME","T oc","T ime","T RU","T ML","T orrent","T yp","T TRIBUT","T itle","U X","U r","U SE","U CH","U AL","U CLIBC","U IRE","V IN","V NRevision","W N","W S","W atch","W hat","[ \\","[ ^","\\ '","\\ .\\","] .","_ \\","` ,","a ut","a ware","a bcdefghi","a uthentic","b v","b it","b iderman","c v","c ss","c la","c ore","c cur","c ollection","c ollectd","c ollector","c orator","c lasses","c yril","c atal","c ancel","d u","d one","d type","d len","d ings","d jango","d ock","d temp","d ump","d Rot","e v","e mp","e ver","e xce","e val","e lican","f all","f info","f ill","f dir","f older","f loor","f ying","g ot","g ner","g end","g pu","g yp","g pl","g round","g raphy","h d","h z","h en","h ge","h ow","h pu","h ind","h ref","h idden","h mac","i mp","i ss","i ate","i po","i gn","i ft","i rst","i ating","i pping","j inja","k a","k it","k nown","l ue","l ong","m ing","m ap","m ature","m ary","m ake","m ute","m wise","m achine","m Typ","n h","n m","n ho","n um","n ip","n ished","o D","o se","o der","o int","o sh","p ap","p Error","p us","p ull","p ically","p opulate","r and","r um","r len","r ÃŃ","r iter","s d","s ort","s able","s ome","s uffix","t c","t f","t wist","t oken","u ch","u Dis","v p","v owel","w s","w rt","w riter","x b","x ff","y es","y label","y cle","z A","z gu","¨ çĽ®éĮĦ","Ã ¢","Ã ´","Ã ł","â Ģ","å ľ","æ ī","æ ĸ","è ª","Ġ ^","Ġ newline","Ġ ut","Ġ //","Ģ åľ","li mit","li us","li og","li bcrypto","line mark","de s","de re","de le","de code","de mo","nt o","nt ool","Ġ( '","Ġ( <","Ġ( @","in i","in x","in ation","in ner","in formation","in filename","dent ation","st al","st ates","re en","re able","re size","re port","re gister","re ply","Ġ= >","or collection","en di","Ġa o","Ġa st","Ġa pi","Ġa pache","Ġa ssi","Ġa round","Ġa mount","Ġa utom","Ġse ed","Ġse ver","Ġse ll","Ġse lect","Ġt f","Ġt r","Ġt ak","Ġp t","Ġp ur","Ġp ing","Ġp ad","Ġp ai","Ġp as","Ġp ow","Ġp ull","om a","om i","om ain","om Type","Ġc ap","Ġc are","Ġc as","Ġc ollectd","Ġc ycle","on fdir","at plot","at omi","Ġi o","Ġf h","Ġf id","Ġf uture","er Runtime","lf er","Ġ' *","Ġ' {","Ġ' ),","Ġ' ??","le nt","he ther","Ġ2 9","Ġ2 04","enc y","Ġw in","Ġ\" :","Ġ\" \\","Ġ\" ========","Ġ\" ,\"","Ġre ache","Ġre min","Ġre ader","Ġre tri","Ġre ference","Ġre main","Ġre ject","Ġre vision","Ġre present","Ġre verse","Ġre mote","Ġre cv","al t","al y","al ted","ar row","ion ando","it ect","it el","ge st","ce dence","Ġde al","Ġde sc","Ġde si","Ġde tection","Ġde cipher","Ġde tected","Ġn di","Ġn ice","Ġn ick","Ġn ull","Ġn umpy","Ġn ntool","Ġs li","Ġs la","Ġs ublic","Ġs alted","Ġs itel","Ġo th","Ġo ccur","ur i","ur atomi","Ġ1 01","Ġ1 12","an dom","an umber","an umer","Ġin di","Ġin verse","Ġin side","Ġd size","Ġd atal","Ġ3 7","Ġ3 8","Ġ3 000","Ġthe me","Ġthe ory","Ġe c","Ġe as","Ġe qui","Ġe nter","Ġe ffect","Ġe veryone","Ġe tc","ss l","ss ue","Ġb b","Ġb el","Ġb ind","Ġb ook","Ġb ool","Ġb asic","Ġb oth","Ġb rand","ro ss","ro car","ro vider","Ġm is","Ġm out","Ġm be","Ġm ost","Ġm uch","la st","la ke","la zy","lo pen","lo ts","lo ud","ed settings","ed Exception","get pelican","get item","ĠC h","ĠC ar","ĠC it","ĠC an","ĠC all","ĠC oding","ĠC OM","ĠC hoice","ĠC LAIM","ĠC loud","fi gs","fi rst","ĠT ry","ĠT able","ĠT rans","ri an","ri ption","Ġr data","Ġr nm","Ġr andom","Ġimport ing","is c","is List","is gression","is Dict","ĠG roup","ĠG ID","ĠG File","ĠG DA","ĠG UID","ĠG DAL","ate Machine","Ġis link","Ġis class","Ġis not","Ġis bits","rom ain","ĠS A","ĠS O","ĠS R","ĠS ol","ĠS um","ĠS ource","ĠS TD","ĠS ITE","ĠS PEC","ĠS Cons","ĠS JIS","ĠS VNRevision","Ġas m","Ġas p","Ġas cii","ĠA M","ĠA ls","ĠA CK","ĠA uto","ĠA vailable","ĠA LL","ĠA lessandro","ĠA ccess","ĠA CL","ĠA TTRIBUT","ic ionando","vi ous","ĠF ri","ĠF Name","ĠF ore","ĠF SS","ĠF UL","ĠF allback","ĠF inderContainers","ĠF irst","xt ure","Ġof f","Ġof name","ver ify","Ġget s","Ġget Config","Ġget source","Ġget CertAsPEM","Ġget pass","Ġget Directory","Ġget hostname","Ġget Encoding","Ġget SystemId","Ġget ByteStream","Ġget PublicId","Ġget CharacterStream","th ough","th oma","ype s","ĠN e","ĠN ON","ĠN OM","ĠN AME","ĠN EG","ul erRuntime","qu id","ĠL ms","ĠL ook","ap s","ĠI mplement","ĠI Plugin","ĠI Process","ĠI pAddress","ĠI OError","ĠI ssue","ve ox","Ġ25 0","Ġh idden","Ġh oneypot","Ġh uman","Ġh wrt","un pack","un used","un ix","un wrap","un ha","ad or","ad im","ad ows","Ġfi g","Ġfi xture","__ .","up Torrent","ĠP A","ĠP ath","ĠP lugin","ĠP latform","ĠP BD","ĠP IF","Ġth ose","lic it","Ġor d","Ġg zip","ation Field","Ġst atic","Ġl name","Ġl atter","oc a","oc ial","ĠO S","ĠO r","ĠO utput","ĠO pError","ĠR es","ĠR LE","ĠR ackspace","ĠR omain","Ġcon v","Ġcon clu","Ġv s","Ġv otes","Ġv owels","Ġres p","Ġassert In","Ġfile input","Ġ% }{","Ġpro bab","Ġpro vid","gin ner","sc hedule","sc onfdir","Ġbe hind","ai ling","Ġâĸģ\" /","Ġch r","Ġch ain","ac ing","ac lass","ac cess","as p","ĠD a","ĠD on","ĠD esc","ĠD atap","ĠD OC","ĠD isgression","Ġli b","Ġli teral","Ġar ange","Ġar row","fig ures","ĠV er","ĠV ER","ĠV BD","ĠV IF","ĠV LAN","ĠV DI","Ġstr i","Ġstr utils","Ġwith in","ry ing","Pro file","Pro gram","Pro vince","ner p","Ġcom put","Ġcom ments","Ġcom pression","ou ble","Ġun named","Ġun defi","Ġun gettext","Ġun known","ĠE den","ĠE vent","ĠE NO","ĠE xp","ĠE ditor","ĠE RR","ĠE scape","ĠE cu","di gest","Ġ{ (","Ġ{ {","Ġ{ }","Ġ{ }\"","Ġme ans","Ġclass ifier","ON AB","ĠW ill","ĠW ork","ĠW arning","ĠW hen","ĠW hether","Ġma jor","Ġuser Set","Ġapp s","Ġapp lied","Ġal gor","AR M","AR T","po ol","po licies","ĠM a","ĠM e","ĠM en","ĠM et","ĠM ac","ĠM IT","ĠM app","ĠM odel","ĠM aint","ĠM achine","ĠM ozilla","LE S","LE Y","LE xception","ĠGuid Object","Ġ} }","Ġ} }{","Ġby choice","com position","com pile","ms g","ĠB ran","ĠB ootstrap","ĠB ig","ĠB ittorrentStore","ĠB okan","ĠB rian","Ġset s","Ġset Password","Ġset Username","Ġset ServiceParent","Ġset Encoding","Ġset Le","thod Config","Un able","Ġdata base","SE QU","Ġsy ntax","Ġsy nchron","List ener","List enerThread","ER N","gn ments","Ġpre f","Ġpri or","Ġexce ed","ali ty","ali zed","IN UM","IN CLUDING","IN STA","pro gram","args pec","Ġfail If","Ġpo six","stribut ions","ass im","int osh","Ġâĸģ' /","Ġâĸģ' \\","Ġâĸģ' )'","Ġâĸģ' ('","Ġâĸģ' ?\\","ES SEN","ci a","ci al","ci es","Ġraise d","opy right","Ġy aml","url encoded","IS O","ty pically","Ġ5 2","Ġ5 3","Ġ5 4","Ġ5 5","Ġ5 6","Ġ5 7","Ġ5 8","Ġ5 89","Ġx range","Ġx vp","Ġad ded","Re ad","Re port","Re gion","TI BLE","Ġ4 1","Ġ4 3","Ġ4 4","Ġ4 6","Ġ4 7","Ġ4 8","Ġ4 9","Ġ4 01","Ġint bv","um n","ĠRe min","ĠRe ader","ĠRe port","ĠRe gra","Error Handler","OR IES","ĠIn dex","ĠIn formation","Ġne gative","AN D","ain s","if p","ip ulate","Ġstart ed","con n","con nect","con struct","con figs","Ġpy util","Ġpy test","char ToOrderMap","Ġlog ic","time out","Ġ! @","ers ist","ers hell","quest ed","us age","ĠH O","ĠH P","ĠH ex","ĠH TML","Ġ10 2","Ġ10 3","Ġ10 4","Ġ10 5","Ġ10 6","Ġ10 7","Ġ10 8","Ġ10 9","Ġ10 48","und le","EN TIAL","Ġ6 1","Ġ6 3","Ġ6 6","Ġ6 9","Ġresult ing","min or","Ġfin al","Ġfin ish","Ġout filename","Ġhe l","== \"","Service Name","Ġdict s","pre cedence","pre vious","Ġtime s","Ġtime out","Ġesc ape","CH OICES","Ġac count","Ġac comp","ant ini","Ġadd r","LI GENCE","list en","In it","In valid","In correct","Ġmsg Len","ĠTest Base","ĠTest BittorrentStore","ĠU t","ĠU ser","ĠU ID","ĠU RI","Ġ` ``","Ġdis k","Ġdis cla","Ġdis connect","TA GS","Ġsp acing","Ġlist dir","Ġread lines","Ġchar ge","Ġchar file","Ġbyte file","ive s","ive Ratio","Ġ8 3","Ġ8 4","Ġ8 5","Ġ8 7","Ġ8 8","Ġ8 9","Ġplugin s","Ġerror geom","par ser","Ġ201 3","Ġ201 5","Ġdoc s","Ġmap ping","12 7","bin dir","bin dings","rect s","Ġfeature type","met aclass","Ġsh a","Ġsh are","Ġsh all","Ġsh adows","Ġurl parse","Ġrange s","Ġarg len","SS WOR","Ġ9 1","Ġ9 2","Ġ9 3","Ġ9 5","Ġ9 6","Ġ9 7","Ġ9 9","pect ed","ĠSet s","Ġoutput filename","AL ING","To File","ded On","set up","set ServiceParent","Ġsup pose","Ġtext file","Ġlimit ation","AS ONAB","sy m","sy s","sy sconfdir","Ġ7 1","Ġ7 3","Ġ7 4","Ġ7 5","Ġ7 6","Ġ7 8","Ġ7 9","HO ME","RE T","to gether","ator s","ĠCON TRIBUT","ĠCON SEQU","base Name","ton s","Ġpl ural","cal lable","den cies","read header","Ġsub stant","Ġsub plo","class ify","ock s","Ġenc ode","Ġenc rypted","Ġenc oded","Ġcomp at","Ġsc ope","ĠOpen ERP","ĠOpen Stack","ĠOpen Embedded","TH IS","rap er","play book","port edException","ĠfileName Toc","Config uration","GE MENT","Ġbut tons","Ġdefault dict","ĠDEC SET","ĠDEC RESET","ĠKey s","Ġextra ct","Ġformat ter","flavor s","Ġsett er","Ġsett ers","ĠAn d","ĠXml List","Ġcurrent ly","DER R","Sup portedException","im er","user match","Ġpart y","Ġimplement ations","ĠSt op","ĠSt art","ĠSt ates","group name","Ġ12 1","Ġ12 4","ĠNot En","Ġenv Pream","Ġsplit lines","St ateMachine","cre dentials","hed ulerRuntime","Ġstate ment","ails Form","ĠDe code","ĠDe corator","Ġserver list","Ġinter pre","Ġinter active","Ġinter val","Ġinter net","PA TIBLE","PA SSWOR","Se ssion","sh ip","Ġcheck s","Ġcheck ed","Ġcheck out","Ġspeci al","Ġinstance s","change me","change Per","write info","write Network","Ġle gend","Ġge ne","Ġup grade","ĠCommon Xml","ys ical","requi re","Ġ11 0","Ġ11 1","Ġ11 3","Ġ11 4","Ġ11 5","Ġ11 6","Ġ11 7","Ġ11 8","Ġ11 9","log out","ĠCon sole","ĠCon sider","Ġgo ogle","foo bar","Ġz ipo","Ġcreate linemark","Ġfun cto","Ġ\". /{","File Handler","IL D","ST DIR","User Advice","og r","ph inx","temp est","Ġrespect s","ps m","Ġend s","def s","Ġco der","Ġbuf size","ĠSAX Exception","ĠIN DIRECT","Ġorder s","Ġprepare Parser","CT S","Ex ec","Ex pected","`` .","ca le","ex perimental","gu i","Ġvi m","Ġvi ews","Ġ200 3","Ġ200 4","Ġ200 7","Ġ200 8","ĠForm Error","ĠForm Base","ĠPro ject","pose s","AM D","CE PTION","Si gnConfigItem","ifi cial","Ġregister Org","Ġregister Named","Ġregister UserAdvice","Ġrd r","Ġdirectory Network","Ġprocess Name","comp at","comp lete","TION S","content s","ĠCommonDefines Xml","CA TEG","For Widget","Ġcre ator","Ġcre ating","Ġcode s","Ġreason s","ĠAr rum","ĠLO SS","Ġresol ver","Ġmax y","ĠQgsA pplication","DE FAULT","DE BUG","DE LEY","iali ze","iali zes","Ġstep s","Ġlink Title","Ġpost fix","Ġpost gres","Ġspecific ation","Ġcommand s","Ġrel ated","ĠCO c","Ġraw reply","ĠOK BUTTON","Ġcomposition Call","ĠEU CJP","ĠError Handler","ĠError Dict","ores Sc","Ġoriginal Line","ĠQgsAuth Me","19 00","NO T","TO OL","TO UCH","ique Attribute","man y","Ġ15 7","Ġinput s","Ġedit ing","Ġedit able","ĠLOG FILE","201 3","ach er","co oldown","sett ing","Ġfull Network","Ġexp l","Ġexp an","Ġexist ing","Ġfind all","Ġshape s","Sc enario","Up date","mory Pool","Ġ... }.","Ġ24 7","Ġobtain ing","Ġproce sses","Ġbefore StepAdvice","IService Maker","ĠHelpText Item","Ġtermin ate","Ġreceiv ing","(' \\","As Pem","Ġafter StepAdvice","Ġafter Scenario","Ġport ions","Ġ23 3","Ġevent let","Ġhqx er","Ġhqx ifp","Ġcontin uation","REQ UIRE","Ġresolve s","Content Handler","Ġfroz en","/> ,","for ward","run ner","run ning","ating FileHandler","Ġwhe ther","Ġ18 7","loc ation","ical Posit","ĠFlavor List","ĠFlavor NotFound","Ġstop all","hook edsettings","Ġneed s","Ġtranslate s","Com ment","Key AsPem","MP L","ast er","index es","Ġsu bject","rol lius","ĠSU ITE","Ġtok ens","ĠRun Options","ĠDECS LR","ĠFormMultiPage WithMenus","EXT RAS","Password Checked","TT ERN","ĠUn icode","ĠUn ix","ĠUn clo","ĠUn iqueAttribute","segment ed","Ġcol on","Ġdown grade","Ġmin or","ĠSy stems","ĠSy llableSeparator","Ġnames pace","ĠPar se","Ġorg Cert","0000 0000","Rege x","ĠInit ializes","Class Property","IM UM","LD FLAGS","Ġsepar ation","Ġtyp ing","Ġcsv file","Ġign ores","Ġign ored","artic les","Ġweb app","Ġsubscription s","Username Checked","ĠComment Model","ĠComment Det","Ġfla sk","ans wer","Ġent ry","Ġent ities","Ġback up","Ġback ground","Ġmulti line","label s","Ġrle code","Ġrle decode","ĠApplication s","ĠApplication Runner","ĠApplication Session","Ġproper ly","ĠDE ALING","LIB S","Ġroutine Regexp","System CommandEditor","System Loader","Ġdecdata cur","NodeAdminTuple Advice","18 99","?? '","AUTH OR","CLU DE","FA KE","Res ponse","SRC DATE","UG H","cle ar","zer o","Ġtrun cated","Ġcop ied","Ġ'. /","header s","Ġ21 4","Ġsave fig","Ġinclu ded","Ġinclu ding","ĠCacheLock edError","Ġtop ic","ĠIService Maker","Ġhand les","ĠPRO VIN","ĠassertRaises Regex","Ġprovi de","ĠDA TA","ĠEUCKR DistributionAnalysis","ĠEUCTW DistributionAnalysis","Lo gin","VID ES","cl c","ib liog","mo ved","input filename","Ġauto escape","edit able","edit orcollection","ĠAuth or","Ġfix ed","Ġthread ing","Ġexec ute","Ġdif ference","ĠDIS CLAIM","ough Space","Ġhex digest","archive s","ĠStomp Config","ĠSAXNot SupportedException","ootstrapHelper Advice","Ġretry ing","98 2851","APP WE","CLI Advice","Pre mature","UM ENTA","block s","ope nerp","invoice s","state ment","retri eve","Ġ'.. '","Ġ'.. .'","Ġrestri ction","Ġrestri ctions","Ġsk ipping","Ġmk dtemp","Ġman age","Ġknow s","getNetwork Group","oth ers","ĠCF c","ĠSc aling","ĠSc hedulerRuntime","ĠRE ASONAB","ĠMan ager","ĠMan ipulate","ĠMark up","ITE MS","INF RIN","ĠHTTP S","ĠURL Field","URL TestCase","Ġzmq context","======== ==\"","ĠSystem CommandEditor","CRIP TION","ĠSDist Command","PACKA GE","90 92","Basic Tests","EX CLUDE","Open SSL","Open ERP","can not","duplic ates","vid ual","Ġph ysical","Ġcast s","Ġiss ue","Ġdepen dedOn","Ġdevelo pment","ĠbootstrapHelper SignConfigItem","Ġmer ge","Ġrm File","ĠGe ometry","ĠGe oD","ĠST DERR","ĠAg greg","ĠAUTH ORS","ĠFla sk","ĠLoc al","ĠLoc ator","Ġhow ever","item ap","ĠDjango Item","ĠtestWidget Username","ĠEn d","ĠEn vironment","Ġsyllable s","ĠCommunic ator","Ġexclu ded","Ġexclu sive","ĠProtocol Object","6666 6666","ĠInstallScripts Command","ĠInstallLib Command","ĠFormMultiPageAction WithMenus","ĠBuildScripts Command","ĠBuildPy Command","ĠRetrieve s","ĠAttributes Impl","+) /$\"","+) /\"","BA SE","Cre ated","Cipher Init","Cipher Update","DES CRIPTION","Hqx coderengine","Hqx decoderengine","Len Feature","Loc ale","Me moryPool","Mat rix","Rle coderengine","Rle decoderengine","Ret ryableError","_, }","builtin s","pow ershell","sal t","top level","vince s","Ġur ls","Ġur lopen","Ġpid file","Ġplace holder","atap rovider","attemp t","attemp ts","hel p","hel pers","Ġreal m","gener ate","gener ator","Ġinstant iated","Ġmater ial","Ġmater ials","ĠCOMMENT S","ĠSer ver","ĠSer ialize","ĠSub mit","ĠSub classes","ĠFile SystemLoader","xtick s","xtick labels","ĠgetQName s","ĠgetQName ByName","ĠPpi Object","ĠPROF ITS","ĠPROF ANITIES","Ġproject Name","open ssl","Ġarch ive","Ġarch itect","period s","ĠBe am","ĠBe cause","ĠsetConfig Id","ĠsetStore PasswordChecked","ĠsetStore UsernameChecked","Ġpretxn changegroup","Ġpretxn commit","Ġposit ion","Ġposit ive","Ġsimp ly","charset Name","keep ing","keep English","ĠHttp Request","ĠHttp Response","ENTA L","Ġextend s","Ġ86 400","Ġevalu ate","/*/*. *'","ĠContent Type","ĠContent Handler","ĠOGRGe ometry","ĠOGRGe omType","ĠAdministr ation","Ġskip Exception","getNetworkFor Config","getNetworkFor Directory","Ġperson s","'^ ([","COM PATIBLE","DON T","GRA M","LAR GE","PRO VIDES","QP F","SM Model","Wr iting","YN C","abc d","calibr ation","men us","mart in","nis cale","snow fall","vend or","å° į","Ġver bo","desi gner","ret ryable","redi rects","Ġfur nished","Ġwg NMen","Ġwho le","Ġwalk er","Ġrepe ated","Ġsax utils","Ġsanit ize","Ġindic ates","Ġele mwise","roll Region","ĠCA TEG","ĠTime dRot","ĠSingle Layer","ĠgetB ootstrapHelperAdvice","ĠgetName ByQName","ĠgetService Named","ĠgetValue ByQName","ĠPh D","ĠRedi stributions","ĠEC Province","Ġmak es","ĠMIN IMUM","ĠMEN DELEY","Ġprivate KeyAsPem","Ġnet loc","Ġnecess ary","condition al","mitter BasicTests","Ġlogar ithm","pretxn changegroup","Device Info","Ġpercent age","Ġcomponent s","Ġsche me","Ġscrap ing","Ġlead ing","ĠConfig uration","addLink ToFile","Ġreflect s","Ġinstal led","PROF ANITIES","Ġtrace back","Ġsigned ConfigItem","ĠRecursive Middleware","TagValue Advice","daily program","month ly","ĠTIME OUT","ĠregisterComposition Advice","${ }-","14 9","BJ AM","BU ILD","Be ginner","CXX FLAGS","DRI VER","DTD Handler","EV P","FLI CTS","FAL SE","GN OME","Greek Model","Ign oresSc","LIS T","Look s","Man ager","MUT EX","MESS AGE","NORM AL","NFSS YNC","Octo Print","SU FFIX","Sal andora","Sub mitterBasicTests","TRU E","Ur l","\\.\\ -","authentic ate","bit coin","catal og","dock er","emp lo","exce pt","hge xt","hpu x","iss ing","ign Key","ift width","mTyp icalPosit","num a","sable BytesIO","twist d","uDis play","xff ff","zgu ide","æī Ģåľ","Ġut ilities","dere r","dele y","endi an","Ġassi gnments","Ġsever al","Ġtak en","Ġpas sed","Ġcas o","atplot lib","Ġ'?? ??'","Ġ\"======== ==========\"","Ġreache d","Ġremin d","Ġretri eve","Ġdesi reable","Ġndi ms","Ġnntool kit","Ġsla sh","Ġsublic ense","Ġoth ers","Ġindi vidual","Ġinverse power","Ġdatal en","Ġeas y","Ġmout h","Ġmbe an","ĠCoding StateMachine","ĠCOM MA","isList OfProtobufMessages","isDict OfProtobufMessages","ĠGDA LException","ĠGDAL Base","Ġisnot anumber","ĠSTD IN","ĠSPEC IAL","ĠSJIS DistributionAnalysis","ĠAls o","ĠAuto scale","ĠATTRIBUT ES","ĠFore ignKey","ĠFSS pec","ĠFUL L","Ġgetsource file","ĠNON INFRIN","ĠNOM INUM","ĠNEG LIGENCE","ĠLms Sync","ĠLook upTorrent","ĠIssue SubmitterBasicTests","Ġstatic method","ĠRes ort","Ġconclu sion","Ġ%}{ {","Ġprobab ly","Ġprovid ing","ĠDesc ription","ĠDatap oint","ĠDOC UMENTA","ĠVER SION","Program ming","Ġundefi ned","ĠENO UGH","ĠERR OR","ĠEscape d","ĠEcu ador","ĠuserSet TagValueAdvice","Ġalgor ithm","ĠMapp ing","Ġ}}{ %","ĠBran ch","ĠsetLe vel","INSTA LL","assim o","ESSEN TIAL","ĠRemin der","construct or","ĠHex Bin","precedence Matrix","Ġaccomp an","ĠmsgLen gth","Ġdiscla imer","Ġshadows ocks","Ġsuppose d","ĠCONTRIBUT ORS","ĠCONSEQU ENTIAL","Ġsubstant ial","Ġsubplo ts","ĠfileNameToc heck","ĠNotEn oughSpace","ĠenvPream ble","PASSWOR D","changePer cent","writeNetwork Json","Ġzipo utput","Ġcreatelinemark er","Ġfuncto ols","ĠFormBase New","ĠregisterOrg Advice","ĠregisterNamed NodeAdminTupleAdvice","ĠcompositionCall CLIAdvice","ĠEUCJP DistributionAnalysis","ĠQgsAuthMe thodConfig","ĠafterScenario Advice","REQUIRE D","ĠDECSLR M","EXTRAS PEC","ĠUnclo sableBytesIO","ĠUniqueAttribute Value","ĠCommentDet ailsForm","ĠDEALING S","ĠPROVIN CE","ibliog raphy","APPWE B","ĠREASONAB LY","ĠSystemCommandEditor Plugin","ĠdependedOn ServiceName","ĠbootstrapHelperSignConfigItem Advice","ĠAggreg ate","Ġarchitect ure","keepEnglish Letter","designer s","ĠwgNMen uDisplay","ĠTimedRot atingFileHandler","ĠSingleLayer Rule","ĠECProvince Select","dailyprogram mer","IgnoresSc rollRegion","mTypicalPosit iveRatio","æīĢåľ ¨çĽ®éĮĦ","ĠNONINFRIN GEMENT","ĠLookupTorrent URLTestCase","ĠDOCUMENTA TION","ĠNotEnoughSpace ForWidget"]}}