#version: 0.2 - Trained by `huggingface/tokenizers`
Ġ â
ĸ ģ
Ġâ ĸģ
n e
Ġ <
Ġ ,
l i
li ne
ne w
new line
d e
n t
Ġ (
Ġ )
i n
Ġ .
s e
s t
de nt
Ġ 0
r e
Ġ =
o r
a t
e n
Ġ t
Ġ p
Ġ a
Ġ se
Ġ :
Ġ c
o n
o m
Ġ f
Ġ i
e r
st r
in dent
de dent
l f
Ġse lf
l e
m e
Ġ '
str newline
Ġ "
Ġ #
a r
Ġ [
Ġ ]
h e
Ġ 2
Ġ w
Ġ re
en c
a l
d om
i on
enc dom
i c
Ġ n
i t
u r
Ġ de
e t
m p
Ġ o
a me
c t
Ġ s
Ġ 1
Ġ e
Ġ d
Ġ in
u t
a n
Ġt he
Ġ 3
s s
Ġ b
o t
Ġ k
Ġde f
Ġ l
c e
Ġ m
e d
in g
Ġ g
r a
Ġa n
Ġi f
p e
Ġ" "
i l
Ġ _
Ġ"" "
Ġ u
at e
ur n
or t
r o
se r
Ġ C
Ġf or
Ġi mp
Ġre t
l a
Ġ T
u e
Ġ +
Ġret urn
r i
f i
h o
Ġimp ort
Ġan d
Ġ N
Ġ A
o c
i d
x t
Ġi s
Ġ -
r om
p t
Ġo f
Ġ G
Ġa s
Ġ S
i s
Ġg et
Ġt o
Ġ P
Ġf rom
e st
o l
Ġ F
g e
Ġ v
y pe
o de
u l
Ġn ame
Ġn ot
Ġ r
n ame
at ion
ic e
Ġf i
l o
er s
de r
a c
t e
me nt
v e
Ġ L
o ne
q u
Ġ2 5
ar t
Ġ I
p p
at a
g s
Ġ R
e ct
u n
o d
b j
c h
a d
u re
b le
Ġ h
it h
v ice
li c
Ġ st
ser t
Ġt h
_ _
u le
Ġe x
u p
a se
o nt
Ġ= =
i f
Ġc on
la ss
i st
Ġ or
ĠN one
en se
e l
Ġas sert
Ġre s
Ġ_ _
m l
bj ect
a s
a il
t h
at h
me t
pt ion
a m
e s
qu al
r or
E qual
h t
t ype
Ġ *
Ġb e
Ġ D
Ġ O
ul t
f o
al ue
le s
g in
Ġ %
e y
N ame
fi g
u id
ne r
Ġm a
r it
Ġâĸģ "
Ġ li
p i
Ġ M
Ġfi le
a ct
Ġp ro
e xt
Ġc lass
g et
Ġ {
a re
u b
Ġt est
s c
Ġ V
ic ense
b ut
r ot
re d
at ure
Ġl en
l u
s i
t er
Ġa r
ers ion
Ġ E
o u
Ġ j
re ate
Ġa l
Ġse t
Ġp art
an d
Ġc h
i me
o p
Ġw ith
v er
Ġc om
Ġo bject
Ġ str
en s
ĠL icense
r y
c om
p o
Ġ line
Ġa pp
Ġu ser
i se
a ble
Ġ }
Ġu n
a ge
r ue
Ġ @
Ġ z
or y
en d
e m
Ġ y
V t
Ġp Vt
Ġd ata
E R
Ġ ra
Ġd i
od ule
o g
w or
Ġ W
an ge
Ġ25 5
i p
ic t
p ut
ar gs
U n
ss ion
P rot
Ġp o
Ġe l
oc k
g ra
Ġp ar
k e
Ġ on
Ġ at
ho d
ĠG uid
lu gin
or m
Ġp ri
Ġc ont
Ġb y
A R
L E
met hod
rit e
i r
e nt
lo w
Ġel se
O N
r ror
Ġ X
i nt
l s
p er
fi le
str i
Ġth is
Ġpart ic
L ist
o ur
Ġ B
oc ol
Ġ25 3
Ġex ce
g n
l y
Ġse r
Ġe xt
ut il
v or
Ġp re
la vor
T I
a ss
le ss
el d
P pi
w args
Prot ocol
o w
Ġpartic les
I N
Ġf ail
t r
Ġfor m
ĠGuid Protocol
ĠGuidProtocol Ppi
u m
an g
ens or
Ġpri nt
a li
ĠT rue
Ġv alue
Un less
t t
ct ion
ac k
o f
Ġs i
Ġi t
it y
ct ed
E rror
Ġth at
e ature
Ġâĸģ '
al se
Ġk wargs
pe c
ro up
S E
q ue
Ġ' '
ut h
ce ss
Ġl og
Ġra ise
gra d
0 0
a mp
r an
t y
Ġi nt
Ġu se
Ġcon fig
f orm
p ro
I T
an ce
stri but
a in
u f
er vice
if ic
Ġassert Equal
Ġext ra
Ġfail Unless
) :
Ġs y
our ce
E S
Ġk ey
il l
d ata
in fo
re s
ĠG et
Ġ 4
Ġ x
in it
Ġt ype
act ory
ĠfailUnless Equal
a p
al l
I S
Ġ 5
Ġ \
Ġ1 0
e ner
p en
Ġ ne
Ġc reate
op y
Ġ method
Ġc ase
et urn
l en
li f
O R
h is
re e
Ġt ime
Ġa d
on fig
Ġe lif
Ġm ode
Ġser vice
l ate
r st
t w
Ġw rite
ht ml
a b
i v
z e
Ġ Q
te m
- -
p ar
u ment
0 1
a g
a ve
p re
Ġp y
ing s
Ġv ersion
Ġal l
i ne
ra y
ul d
Ġfi rst
R U
c ont
Ġ !
Ġ he
li st
er ror
ac he
Ġst art
c k
o in
u mp
Ġres ult
Ġar gs
U T
a y
i m
r c
st ance
ur l
ĠT his
ĠF alse
util s
/ /
g ht
m d
m it
w w
Ġ ho
le ment
Ġr un
ch ar
lic y
i al
i ve
v ersion
at ed
Ġa re
Ġc an
Ġw h
wor d
que st
RU LE
: //
a nt
o k
en v
Ġa c
ĠT he
Ġapp end
Ġun der
ow n
Ġextra cted
i le
Ġ U
Ġw e
Ġn o
ri but
ho uld
ĠI n
Ġli st
ry pt
A N
E C
o re
u s
Ġ H
he ck
Ġo ut
Ġm odule
Ġj oin
Ġexce pt
of tw
oftw are
R e
s on
y n
Ġ 6
Ġ me
st em
Ġp ath
er m
Ġd ict
Ġr ange
. "
A T
c ur
Ġc ls
sc ri
wor k
gn ature
= =
S ervice
Ġf in
Ġo s
Ġl z
Ġ* *
ub lic
Ġobject s
a der
f er
i eld
Ġf lavor
ĠR eturn
un d
if y
and l
I n
L I
a ult
f e
mp late
Ġe sc
ol le
th on
E N
K ey
t est
li ke
Ġp ass
Ġse ssion
ar i
scri ption
s g
Ġp lugin
Ġan y
andl er
M A
b c
m odule
Ġt ry
it ion
Ġs hould
ĠC om
ĠT est
ou nt
Ġform at
j ang
Ġt ensor
Ġw ill
jang o
a ce
h er
Ġ `
ĠS e
rypt o
D I
d i
n ing
p la
Ġ >
Ġ env
or d
Ġg roup
od ing
Ġad d
C H
b uf
c reate
e p
e w
p lugin
Ġ new
Ġ error
ar y
Ġm sg
F actory
re nt
Ġt ext
ar ray
ri ght
Ġby te
S S
d ate
u ct
Ġar g
Ġy ou
D e
T R
Ġ 8
Ġn ump
po int
i de
l at
u st
Ġ 9
at tr
Ġs p
Ġs pec
are nt
Ġcont ext
Ġnump y
X ml
n g
o und
p y
de x
Ġf eature
Ġre ad
Ġn ode
Ġd oc
fi x
ac l
ad ata
Ġma y
Ġch ar
Ġ! =
A L
c md
n al
Ġ1 6
Ġma p
Ġout put
Ġesc cmd
T o
T est
a x
m in
p on
Ġd jango
Ġb ase
ĠG ener
Ġst ate
Ġat t
Ġ ro
Ġ url
se t
er t
Ġ2 01
Ġk f
Ġh as
th er
Ġdi stribut
Ġexce ption
N U
h a
w ith
x ce
Ġc ur
ar get
Ġo bj
Ġ1 2
Ġdef ault
ĠA N
ĠA r
ĠS et
si ble
tt p
A d
m on
r ule
re ct
Ġp at
Ġs c
Ġm at
te xt
ĠI f
Ġpo licy
TI ON
g er
p ath
u g
Ġ 7
li ent
in stance
Ġc lo
Ġd o
ss age
met adata
am s
ver t
ari able
P I
U R
i mp
j son
Ġ enc
de d
Ġc opy
Ġ3 2
Ġu p
ĠG NU
ĠP ublic
Ġli mit
um b
Ġsy stem
ĠReturn s
ĠGener al
1 2
A S
a pi
b in
c on
c ount
p u
at or
Ġt mp
ut ure
il ter
ode l
Ġch ange
ali d
uth or
gnature s
xce ption
Ġclo se
H el
M E
N ot
a i
a pp
b o
b r
h ar
m and
p h
t ers
Ġ le
re ad
Ġp arent
Ġc all
ĠC opy
qu i
ĠR e
un c
Ġh ttp
ĠO R
Ġcom p
Ġpo st
ribut e
Ġdistribut ed
H O
a st
d ir
g ist
l l
u se
u ser
de n
at i
Ġt e
Ġt arget
Ġ' %
Ġs ub
Ġd type
Ġb ran
Ġif p
il d
ĠC ON
id get
Ġof p
ation s
Ġfi eld
lo g
ner s
Ġcom ment
Ġstr ing
ip her
Ġint er
F ield
i es
t p
t ings
se nt
ic s
ur ation
Ġde c
pe ct
Ġpar ams
Ġmode ls
pon se
Ġcur rent
umb er
A B
T ext
g roup
v al
re n
Ġc t
Ġi d
Ġi tem
Ġs o
Ġd at
Ġ- -
Ġh ave
ht tp
ĠO pen
red s
ens ion
Ġho st
Ġac cess
Ġjoin point
cur ity
Ġspec ific
. .
C onfig
M L
b ase
d a
o s
Ġ Key
Ġc re
Ġo ther
Ġs ource
ate s
lic ense
as h
Ġfile Name
ter n
Ġsi gnatures
amp le
Ġpy thon
ww w
pla ce
Ġchar act
ha pe
ai ners
O T
R E
Y ou
b y
e x
m b
v a
} "
Ġ utils
Ġt ag
et ime
Ġs oftware
Ġb in
Ġl o
Ġl ock
Ġimp lement
ith er
ĠD EC
si ze
Ġal low
yn am
ĠAN Y
ĠCopy right
Ġbran ch
Ġdat etime
) .
2 2
R AN
b da
c he
f lavor
g th
o ut
q x
or g
Ġt erm
Ġre quest
Ġe ither
Ġd ate
Ġd is
Ġl am
Ġ+ =
ĠN ot
lic ation
ĠW AR
ir on
ĠX ml
ĠX ML
olle ct
Ġlam bda
A X
A r
G E
H E
T Y
V alue
b ack
c re
d oc
i li
o bject
w e
Ġc al
Ġc heck
Ġo ption
Ġo pen
ra pp
ho ice
ĠA n
ĠP l
ail s
ĠO F
po s
Ġon ly
cont ainers
Ġfin der
ew s
SS L
Ġenc oding
ĠWAR RAN
D ER
a k
c onfig
c ache
c ord
k ey
s pec
t work
v ed
Ġ J
Ġ You
Ġc o
on g
ar ch
Ġre qui
it ho
Ġd ot
Ġin it
Ġb ut
Ġdi m
per ty
stribut ion
Ġresult s
ĠSe e
imp ort
itho ut
S up
b al
c i
u al
Ġw ithout
mp ty
Ġis instance
ĠS t
un ction
com p
ĠW IT
Ġpar se
ass word
tr ing
ran s
res ult
Ġmode l
Ġhe ader
im al
lat form
Ġsp li
Hel per
ĠOpen SSL
C rypto
I d
O M
S e
U L
a le
c ode
d ition
v o
y p
ne d
li b
Ġw ar
Ġin dex
ac h
ĠR ule
ĠD e
Ġch ild
Ġz l
Ġdoc ument
Ġspli t
ĠOpenSSL Crypto
I D
c f
f uture
p k
s y
v alue
de f
in ax
se ssion
Ġf e
ar k
ic k
Ġde scription
Ġs u
Ġin fo
Ġm ath
Ġg ra
Ġg iv
ri b
ge ner
te mplate
Ġex c
Ġform s
ĠCom mon
ĠAr gs
rect ory
Ar ch
cf b
' :
C om
C ase
T AB
a es
c reds
g re
n der
t o
Ġ q
li ed
om e
ar g
Ġre nder
Ġde t
Ġin st
Ġin stance
Ġl oc
Ġm ust
fi les
ul l
lo at
ĠI N
fo o
ali ng
Ġuse d
par am
olle ction
Ġenv iron
buf fer
Ġpat tern
HO UT
gist er
Ġct xt
ili ty
Ġrequi red
ĠWIT HOUT
Arch List
" '
F ile
I P
I s
L A
c lass
i gin
l oc
n own
p inax
s with
Ġ end
in d
re am
en ame
Ġc pu
Ġ' /
Ġ" .
Ġw rit
Ġw rapp
Ġ1 1
Ġ1 9
Ġm ore
la g
Ġ- --
ĠP o
ers on
qu enc
ĠI tem
if f
Ġor igin
Ġpre fix
SE L
ert ific
license s
Ġdet ails
4 00
S et
T ype
T ensor
U ser
f low
i fi
n ot
o ot
p are
p Text
s ing
t ing
t ime
y s
ne s
re f
Ġt ree
Ġp latform
Ġc ode
Ġc ipher
Ġf n
Ġf ol
er r
he d
Ġu i
Ġimp lied
te mp
ĠI S
ĠI nt
vice s
stri pe
ĠB ase
tt ribute
ack age
pre sent
br ary
ren ce
che s
pos ition
8 22
D i
H andler
I L
S i
W idget
b ab
f il
f ace
h ash
m an
o pt
o ver
o buf
r ame
t ed
Ġ K
Ġt ra
Ġt rans
Ġa uth
Ġc le
Ġre ce
it em
ame ters
Ġin put
Ġb uf
ĠS AX
ol d
ch ange
up le
Ġres pect
ath er
Ġpar ser
Ġpre pare
Ġsy s
ES S
fe rence
Ġte mplate
Ġgiv en
gener ation
Ġ--- --
' t
. '
D AT
E x
F eature
G uid
O f
` `
d uct
f rom
i z
n k
p s
r ic
z y
li s
st amp
re q
or der
Ġc md
Ġf ound
ic h
ut e
Ġb ar
ot al
ing le
ĠC on
ho st
ĠS oftware
ol ve
Ġr ule
ve l
Ġor der
Ġpro file
Ġpro cess
TI ES
form ation
IT Y
ĠQ gs
Ġhe re
Ġno va
us r
Ġme as
bc rypto
Ġfeature s
Ġmap x
Ad vice
Ġup date
ati ble
4 0
C K
C T
C Name
C EN
F orm
F alse
P O
R O
S t
T rue
a ise
d ict
d ynam
f req
g u
l ock
o ve
Ġ Un
Ġp er
om et
Ġi dent
str ing
Ġre gister
Ġn um
Ġs h
Ġs up
ce nt
fi nes
id th
Ġname d
Ġr d
Ġ25 2
ad d
Ġst ep
Ġassert False
as on
Ġma in
Ġuser s
gra m
pro bab
Ġne twork
cont ent
Ġwh ile
Ġwh ich
Ġtensor flow
De fines
Ġcontext Helper
Ġcre ated
Ġinit ial
Ġdim ension
ĠCommon Defines
arg ument
Ġfol low
CEN SE
Ġsup er
probab ility
* -
A ME
C har
O r
P ro
S I
S tring
b s
d iff
i ze
m ain
n o
s rc
t d
v is
w er
w rite
re ak
Ġp rot
Ġw idth
Ġre ason
al low
ut f
Ġb od
Ġb reak
Ġl p
Ġl ast
ri m
ĠA s
Ġ- *-
ĠP ro
ĠP erson
ĠF ound
Ġv ar
name s
Ġh andler
Ġcon form
Ġcon vert
met ric
Ġma ke
Ġâĸģ" %
Ġli bcrypto
ĠV alue
ĠE rror
Ġline s
Ġun it
Ġy our
Ġcont ent
Ġser ver
res ponse
Ġstart swith
yn c
Ġme ssage
Ġ` `
uthor ity
use d
OT E
Sup ArchList
ertific ate
ys is
ĠQgs A
dynam ics
A nal
D E
E D
I B
R eturn
S T
T H
X X
b e
b ran
c a
d ay
e g
f f
g ing
h ing
j a
m ail
n umber
o ke
p b
r on
t able
u age
v ide
Ġc or
le te
Ġw ord
Ġre present
Ġs ock
Ġs ingle
Ġin formation
Ġm od
ĠA ll
ve nt
ĠL O
Ġassert True
ĠD O
ĠM odel
Ġpro perty
si red
ĠE xception
Ġcom position
po se
ER N
Ġdi rectory
ĠX en
Ġlog ger
Ġconfig uration
par se
Ġ! /
In fo
Ġtensor s
attr s
py thon
Ġ201 7
Ġmat ch
stribution Anal
dition s
Di stributionAnal
IL ITY
vis ion
ĠFound ation
Ġsock et
DistributionAnal ysis
" )
1 9
A PI
F I
F or
F lag
K E
S G
b ug
g ment
i ew
o res
p assword
v ar
v alid
in ja
re ss
Ġse e
Ġc lient
Ġf ull
ar d
ar ser
Ġre place
ic al
ic ode
Ġde vice
Ġde bug
et work
Ġthe re
Ġl at
Ġm ark
Ġu g
ĠC har
ĠT ensor
ĠA ttribute
ĠF actory
ĠF OR
Ġr len
ont ent
Ġpro gram
ĠV ariable
ĠE U
Ġstr uct
com ment
Ġra w
ĠW e
ĠW rite
ock er
ang ed
ang uage
Ġlog ging
amp les
ĠGet String
len gth
Ġservice s
ay s
EN T
CH AR
lat iv
Ġro ot
Ġsc aling
con d
Ġlo ad
Ġimplement ed
Ġallow ed
ĠAn sible
ĠWARRAN TIES
cord ing
Set tings
Si gnature
Ġtra ce
item s
Of List
ĠQgsA uth
bran ches
ĠGetString OfList
' ,
A TI
E X
E n
I O
N etwork
S y
S TR
c rc
f ter
i ssion
i que
n s
p ace
s ub
s age
t he
v en
w ise
x n
Ġ util
st ates
at ive
Ġp ub
Ġp erm
Ġa x
Ġa bs
Ġse cond
Ġf il
Ġi ter
Ġs hape
Ġ1 5
Ġd ump
ut ine
Ġl a
Ġl param
Ġl anguage
ĠC O
la ble
ĠT ype
ĠF ree
lo bal
ĠL I
art ic
red ict
Ġset tings
op s
Ġapp lication
Ġuser name
ali z
Ġvalue s
Ġsi x
ĠIn put
MA IN
DI D
Ġerror s
Ġcharact er
Ġcharact ers
mb ol
quenc e
Ġbod y
Ġrepresent ation
Ġmod ify
ĠDO MAIN
Settings Widget
2 01
G R
P E
S C
T O
c ap
f n
j ect
p ache
t ra
u z
v m
} ,
se tt
st ant
at ch
at us
Ġp l
Ġc rc
Ġf info
Ġf ilter
str ip
le d
Ġ2 4
dom ain
it or
Ġo p
Ġe ach
Ġd len
Ġk nown
Ġl ab
ĠC N
ĠC reate
ĠT HE
ĠN ode
ĠN ews
Ġv ariable
Ġv alid
ac ity
te s
pp ort
ad min
Ġst ream
type s
fo re
ĠM et
ĠE V
em ath
AR TI
per cent
ific ation
Ġne ed
Ġwh en
== ==
Ġflavor id
Ġ> =
plugin s
TR IB
Ġatt rib
user name
ĠCON F
Ġinter face
Ġitem s
Ġterm s
ci i
result s
old own
aise s
ĠAs sert
Ġconform To
ĠValue Error
ĠLO G
ĠXen API
Ġlat er
ĠQgsAuth SettingsWidget
uz zy
Ġlab el
) ,
5 6
G S
I tem
N ode
N ESS
R aises
a gs
c imal
e ded
i ght
o od
p ort
s v
s ource
u uid
x p
} .
ne xt
Ġ. ..
se curity
re t
en api
Ġa fter
Ġse curity
Ġc oding
Ġc hoice
Ġc ollection
Ġf ro
Ġf unc
Ġf rame
er os
it s
Ġde sired
Ġe ven
Ġg ather
ĠT O
ĠF eature
ĠF IT
ĠF uzzy
ĠL i
one nt
un k
Ġex ist
el pText
Ġbe fore
ĠD ict
rit y
ĠM an
ĠM ode
ĠM ER
Ġpro ce
si ve
Ġj inja
Ġal ong
Ġstr oke
Ġcont ain
Ġpre ference
IN E
Ġkey s
IS ervice
AN TAB
ĠH elpText
Ġfin d
fer red
ĠSe quence
DI R
CH ANTAB
Ġarg ument
Ġatt ribut
Ġdo es
den y
Ġterm in
ollect d
comp atible
vo id
temp t
eg rity
sub scription
Ġpub lis
Ġperm ission
artic le
ĠNode List
ARTI C
ĠFIT NESS
ĠMER CHANTAB
ĠMERCHANTAB ILITY
( '
A s
C ER
C ontent
S ource
S ome
_ '
c al
e ssage
f act
h andler
h qx
m y
o le
v i
ne ction
Ġt otal
Ġf ree
Ġf unction
str ap
ar ning
Ġw idget
Ġw td
Ġn on
Ġde n
Ġs a
Ġs ort
Ġe vent
Ġg over
pe cted
ĠA pache
ĠP UR
ĠP ARTIC
Ġh qx
if fe
Ġcon stant
ist ed
Ġres ponse
Ġres olve
as k
as cii
ult ip
Ġma x
Ġli nk
Ġpro duct
Ġclass method
Ġar ray
Ġj son
Ġcom mand
Ġun ique
Ġz eros
Ġy ield
Ġpar ameters
Ġpri v
Ġcont in
Ġext ension
IN D
Ġ4 0
Ġmethod s
char s
ĠTest Case
Ġatt ribute
TION S
RE Q
ollect or
Ġco oldown
UL AR
ick le
Ġgra ph
Com mand
Ġwrapp ed
ifi er
ĠK IND
Ġrece iv
Feature Flag
iz ed
PO SE
Return s
cap acity
ĠMet a
Ġcollection s
Ġfro z
CER T
ĠPUR POSE
ĠPARTIC ULAR
iffe rent
$ "
' s
/ >
6 6
A DER
B y
B ug
C E
C heck
D EC
L en
N ews
P A
P AT
P arser
R C
U G
b t
c p
c lu
d o
e c
f ul
f loat
i re
i od
v ers
v ail
w ays
} -
Ġ metric
in der
or k
Ġp t
Ġp w
Ġc li
Ġc ho
Ġc ron
Ġf actory
Ġf loat
le ted
Ġw he
Ġre f
Ġre m
Ġre cur
Ġre di
Ġn ct
Ġo ne
Ġo ver
Ġo bt
Ġe st
Ġe val
ra nt
Ġan sible
ro w
ĠC onfig
ho ok
Ġ- >
ĠF lavor
ice s
ve lo
ect ion
Ġst ore
Ġex p
Ġ== ==
Ġassert Raises
ĠO GR
Ġli nal
ĠV iew
Ġpart s
Ġch anged
ĠLicense d
Ġdi r
Prot obuf
int er
ĠB AS
stribut e
Ġne xt
Ġne eded
Ġad vices
pre ss
cont ext
word s
Ġwe ave
LI CENSE
Ġpass word
ace s
pla in
De ferred
TR A
Ġsp aces
AL L
PI C
Not ify
Ġfield s
Ġdec imal
Ġbin ascii
ĠDEC SEL
Ġcal c
Ġoption s
ĠWARRAN TY
Se le
Ġsu pport
ĠPo int
ĠBase Factory
DAT A
Ġmeas ure
rim ary
var s
sett ings
Ġknown Bug
ĠLi brary
Ġpublis hed
fact or
vail able
Ġredi stribute
Ġobt ain
Ġ==== =
Ġlinal g
ĠView Config
ĠBAS IS
" ^
2 00
2 56
D O
E xception
F LA
I C
L icense
M P
N one
P ath
R ect
S cre
T ab
U P
Z E
c ho
e ad
e red
f unction
g en
i x
i oc
j s
k wargs
l lable
m ur
m ory
m ock
m ant
n d
o st
p ing
s In
x fe
Ġ Unless
Ġ domain
li ance
in ce
in ation
in dex
at ing
en Char
Ġp ort
Ġa bo
Ġa gre
Ġa ioc
Ġse arch
Ġc api
Ġf uture
Ġ2 0
Ġ2 3
Ġ2 00
Ġre st
al ly
Ġn p
Ġn umber
Ġs ample
Ġe mpty
ut o
ss i
Ġb ack
Ġl d
Ġm in
Ġg ener
Ġu sing
ro l
ser ved
ĠC heck
ĠC UP
la y
ri x
ĠA l
Ġget T
Ġto k
ĠP ar
ol ute
Ġv ide
ul ate
ĠL C
ĠR ect
ĠR un
lic able
Ġst op
Ġex press
ense t
th day
Ġbe am
ĠV ersion
Ġset up
Ġset ting
po licy
Ġapp licable
ĠW SG
ir thday
Ġsi mp
Ġ'' '
Ġuse ful
ap ache
IS TRIB
Ġtime stamp
UT H
Ġho pe
Ġho ok
ial s
Re quest
AT E
DI TIONS
di g
ust om
Test s
Test Case
UR L
Ġlimit ations
Ġle mur
unc al
Ġcomp liance
ĠCON DITIONS
base s
ynam ic
HE ADER
object s
spec s
Ġwar rant
ach ine
Ġwrit ing
Ġtrans late
ĠCon vert
Ġident ifier
SI ZE
Ġunit test
FI LE
Ġabs olute
Ġla w
ĠInput Source
ĠEV P
ĠAssert Scre
Ġtermin al
Ġpermission s
Ġgover ning
Ġcontin ue
Ġreceiv ed
Ġfroz enset
Check ed
DEC SEL
Ġest im
ĠConfig uration
Rect Equal
mant ics
sIn RectEqual
enChar sInRectEqual
Ġagre ed
Ġaioc lient
ĠWSG I
Ġwarrant y
ĠAssertScre enCharsInRectEqual
' "
2 3
A LI
D ISTRIB
F REQ
O F
P assword
R ATI
T erm
U TION
U sage
a ke
b ar
c lient
e ger
g h
i o
i Term
m ath
n ode
o se
t ies
w are
x A
Ġ en
Ġ right
Ġ utf
Ġ< =
in a
se ction
se gment
en ari
Ġt ail
Ġt yp
Ġse en
Ġc ol
Ġc ount
Ġf name
Ġ' __
Ġ' .'
Ġ" %
he x
Ġ2 2
Ġw ork
Ġre lativ
ur ned
mp Path
Ġs ame
Ġ1 8
Ġe nt
Ġd one
Ġd ns
Ġd ynamic
an sible
Ġg e
Ġg u
Ġg en
Ġg lobal
Ġret urned
ĠT e
ĠT o
ri e
ĠN OTE
ĠS ub
ĠS ervice
ĠP RO
ĠF rom
Ġname s
der r
pp lication
Ġh ass
Ġst amp
up date
ist s
Ġor g
th ing
Ġ% (
Ġfile Ex
Ġpro files
Ġlen gth
si x
ter al
ĠE x
Ġal ways
Ġra x
put e
gn u
IN G
ĠGuidProtocolPpi Xml
ĠassertEqual s
Ġx ml
OR DER
ĠQ ue
Ġhe l
Ġrun ning
ĠU se
Re ge
Re gist
ĠCom ment
Ġ12 7
12 8
ex ample
Ġlock er
GE T
TY PIC
Ġcal led
sy stem
Ġfe ed
Ġmath util
TAB LE
Ġinst ead
Ġloc ale
Is Sele
Ġwrapp er
ĠInt egrity
fil er
fil ename
Form at
argument s
ca use
Ġconfiguration Tab
") ;
For Name
KE Y
ĠAttribute List
Ġtrace back
En c
tes IO
Ġproce ed
PAT H
Ġwhe re
Ġmeasure ment
FLA GS
lay er
ĠgetT mpPath
ALI D
DISTRIB UTION
RATI O
enari o
Ġrelativ ize
ĠfileEx ists
TYPIC AL
IsSele cted
ĠIntegrity Error
ĠconfigurationTab IsSelected
ĠgetTmpPath ForName
( [
) "
) '
/ $"
1 3
1 6
4 8
C L
C lass
E lement
G ES
G ood
L D
M odel
M ENT
N E
N AME
O bject
P P
R I
T uple
V E
W OR
\ \
a ned
b b
d le
d ing
f or
f ilter
g b
l der
m s
m odel
p ack
p ay
p ublic
p ackage
r src
s se
t ml
u il
x y
Ġ metadata
Ġ err
line s
dent ials
Ġt w
Ġp redict
Ġa ct
Ġse ction
Ġse par
Ġc sv
Ġf p
Ġi gn
Ġre po
Ġre set
Ġn s
Ġde st
Ġe mail
Ġd p
Ġd on
Ġd own
Ġ3 0
Ġk ill
Ġm ock
Ġm ultip
Ġan ce
Ġu id
ĠC Name
Ġfor ce
fi eld
ho lder
id dle
xt x
is h
ĠP n
ĠP y
ĠF ield
ĠF Info
Ġr v
lo ad
ment al
ĠR oot
ure d
Ġh tml
lic ies
Ġth en
__ '
Ġres ource
act ive
po wer
able d
Ġz n
end ing
em ail
Ġat tempt
Ġcont rib
ĠB y
Ġpre sent
Ġlog py
Ġint o
Ġconfig Id
pro f
uf fix
pre ssion
ay er
word count
ĠIn c
ĠIn it
Re ader
Ġlz P
In put
LI B
MA CH
min Tuple
Ġbase d
set up
Ġhas attr
Ġ12 8
Ad minTuple
ati o
Ġsub scription
ĠDEC SC
out ine
ĠXML Reader
ĠPo licy
User name
oot strap
Ġcle aned
ĠUn used
Ġlp z
Ġlp xn
19 2
ĠChar Field
Ġfil ters
Ġvariable s
ĠMan ual
Ġden y
Ġsa ved
Ġhqx data
Ġrem ove
dig its
Ġestim ate
ĠWSGI Request
23 12
ĠFrom Xml
Regist ered
pay ment
ĠDECSC A
0 3
1 1
B loc
C on
C hoice
E L
L o
N OTE
O L
P lugin
P rimary
R un
T W
T ER
U B
U N
V ER
\ "
\ .
a it
a uth
c og
f eature
h n
l d
m er
m atch
n on
n ized
p l
p rot
r unc
s omet
t in
t ag
u nt
u ate
w rit
Ã ¼
Ã Ń
Ġ /
Ġ qu
ne twork
li ng
li teral
st atus
or ator
Ġt ags
Ġp prof
Ġc reds
Ġc ustom
Ġf o
Ġf ill
Ġ2 8
Ġw ant
Ġre cord
ion s
Ġde l
Ġo pt
Ġs rc
Ġ1 00
Ġe lement
Ġd ifferent
Ġthe y
ss u
Ġb ad
Ġdef ine
Ġm achine
ro cess
ĠC ont
ri nt
ho w
pt r
ĠG B
ĠS up
ĠS tring
Ġr le
Ġr strip
Ġfi les
ĠL es
ĠI mp
ĠR ight
ith ub
Ġex pected
Ġex ec
Ġcon ditions
Ġres hape
ption s
Ġbe cause
ĠO K
Ġpro vide
ext ra
Ġcom mon
Ġun icode
Ġz f
Ġpar sing
ĠX XX
gn al
ly Registered
Ġser vers
um my
Ġsi ze
pro cess
pro filer
Ġsy mbol
Ġx enapi
ag er
ache L
Ġac cording
ĠU S
rypt ed
ĠH ash
Ġesc io
Key Test
Ġadd ress
Ġnew lyRegistered
Ġro les
Ġro utine
Ġ201 6
ug h
Hel pText
bo ok
ĠRe served
log p
Ġcomment Bloc
Ġinter nal
Ġct x
Ġbin hex
cre t
doc s
ĠJ IS
Sup M
Ġwar n
Ġindex es
def ault
File Name
Ġwrit emath
Tensor Signature
ĠInt er
Ġcle an
Ġrece ive
DAT E
lock ed
Ġper iod
Ġsh ut
add ress
ertificate Factory
vide o
ĠTensor Signature
Ġload s
EX TRA
Sy stem
Node AdminTuple
ĠTO DO
ĠPar ameters
node s
Ġgu ide
ĠTe mplate
rie ve
Rege xp
Ġkill words
iddle ware
ĠBy tesIO
MACH INE
ĠManual Primary
NOTE Q
cog nized
ĠLes ser
ĠRight s
ĠHash able
Ġwritemath id
ĠManualPrimary KeyTest
! "
) )
/ "
: "
> "
? ?
A UTH
C ollection
C ollectd
D S
E B
F low
G IS
H ER
J o
K ERN
M et
M essage
N O
P arent
Q Name
R es
S te
S RC
T D
T P
T his
T TP
U p
_ :
_ {
a ml
c red
c pu
d im
e mpty
e book
g ol
g ithub
i aliz
l g
l an
m a
m ax
n or
n ow
o ol
r b
r ong
r ices
r atio
s o
s u
s parse
u ild
w h
w ap
w ard
w ire
x a
Ġ &
Ġ ~
Ġ ut
Ġ quest
ne ct
li nk
de vice
de lete
se mantics
re ng
Ġt uple
Ġt ask
Ġt runc
Ġp a
Ġp ack
Ġa g
Ġa uthority
Ġse cret
Ġc ert
Ġi m
str y
str uct
le ase
Ġ' >
Ġ" {
Ġ" __
he ader
Ġ2 1
Ġw ait
Ġo w
ame ter
ct x
Ġs k
Ġs um
Ġs ave
Ġs uffix
Ġd b
Ġthe m
Ġb et
Ġb lan
Ġg id
Ġu s
Ġu uid
ate g
ate x
ro utine
ĠC acheL
ĠT mp
ri de
ri es
ri gin
ĠN ow
ĠA uthority
Ġis file
Ġas yn
Ġas ync
ĠS hould
ĠS OF
Ġget L
ĠF orm
ĠF ilter
ĠI Service
pp er
ĠR et
Ġh and
lic an
__ "
Ġex amples
Ġcon version
Ġcon nection
ail ure
Ġbe gin
ĠD ata
Ġpro per
Ġtest s
lu m
Ġar t
ou s
com pute
Ġun pack
Ġdi vision
Ġpo licies
Ġpar ameter
Ġat tr
ĠGuid Value
AR E
Ġpartic le
Ġsi gnal
00 0
Ġx s
Ġ5 0
Ġservice Name
ab s
list ener
ant om
Ġac l
Ġwe b
ĠIn valid
Ġmodule s
Service Parent
Ġany one
MA X
ĠCom mand
di ent
di stribution
Ġdefault s
Ġpat s
Ġmat rix
Ġmat rices
Ġcall back
Ġte mp
group s
http s
Ġcre dentials
place s
place holder
Ġtag Value
22 0
ĠNot ify
we b
ci o
ual ly
code reng
ĠDe cimal
ĠDe velo
sy mbol
Ġgra dient
Is Checked
Ġ19 40
Ġorigin al
ifi ed
Guid Type
host name
CK R
CT W
St art
ove s
Or g
TH ER
Ġcor rect
ĠTensor Flow
ĠEU CKR
ĠEU CTW
ĠLI CENSE
Ġframe work
Ġargument s
Ġattribut ename
/> .
Len non
cp us
}- {
Ġrecur sive
Protobuf Message
Ġsimp le
gh i
segment er
Ġtyp ical
Ġge om
ĠTo Xml
uil tin
Ġance stry
ĠInit ial
TW ARE
unt ime
ĠXXX X
Ġguide line
Jo hn
KERN EL
Ste p
gol lum
Ġquest ion
Ġblan k
rigin al
Ġasyn cio
ĠSOF TWARE
Ġattr s
codereng ine
% (
' )
( ):
) ([
0 8
2 4
= {
A M
C ert
F rom
I mp
L O
N o
O ptions
P Y
R EC
S O
S ON
a ile
a uthor
b lock
c l
c s
c ipher
c ores
c ulate
d s
d itor
e re
e ep
f ault
f inder
g ion
g over
g mail
i ed
i bo
l ation
l ated
n lg
o y
o bj
p red
r xtx
s h
s instance
s pect
s hape
t otal
t xn
w arning
} '
Ġ nt
Ġ et
Ġ< <
de leted
nt ic
nt ax
in put
se lf
st er
st ep
re lativ
Ġp ol
Ġp age
Ġp ackage
Ġc a
Ġc ore
Ġc ollector
om p
Ġf get
er y
le ct
le ep
me di
me ssage
Ġ' -
Ġ' \
he mer
he ntic
Ġ2 7
Ġw rong
al culate
Ġn ow
it e
it ive
ur ing
Ġo lines
Ġo ld
Ġs ince
Ġs leep
Ġ1 3
Ġ1 7
Ġd uring
Ġin vo
Ġin spect
ut hentic
an s
an y
Ġ3 3
Ġb it
ot e
ce pt
Ġm ocker
Ġm oves
ed Error
ser ver
ĠC L
ĠC lass
ĠC alculate
Ġret ry
ĠN O
ĠN o
ĠN UL
ĠA PI
ĠA uthor
ĠG ather
ĠS ource
ol ver
ĠF or
ĠF ailure
Ġr file
Ġfi x
ĠL ist
ĠI t
ĠR UN
Ġst ill
Ġst atus
Ġst derr
Ġth read
Ġex it
if act
Ġres ort
as ic
th read
met a
Ġbe en
ĠD jango
Ġli brary
Ġclass ify
Ġ{ '
sc ores
si gn
ĠE X
Ġj ust
Ġcom mit
com pose
end s
Ġra vel
og ger
ip y
Ġpo ol
Ġpo wer
Ġpo ssi
ĠGuid Type
Ġcont rol
Ġpre vi
ow el
Ġit s
res pon
ĠGet CName
ĠGet SupArchList
Ġ\ "
Ġad min
ab c
Ġversion s
Ġhe x
Ġunder scores
ĠU SE
ribut es
Ġlist ener
Ġ6 0
Ġfin ally
EN DS
test s
Ġbyte s
SS WOR
To Enc
Ġbase s
Ġstate s
ĠAN D
Ġsc ipy
12 3
count er
br and
ĠRe quest
Ġhttp s
den ce
Ġsub mit
Ġdec data
val uate
Ġso ap
base d
Ġimplement s
out put
we en
ĠJ Collectd
arch ive
ĠSt omp
Ġparse d
Ġheader s
Ġwar ning
def ghi
gre ssion
ĠIN TER
loc al
time stamp
Ġbuf fer
ĠSAX Not
Ġrule s
PO ST
Ġnamed NodeAdminTuple
Ġrd len
Ġfollow ing
Or der
Ġprot ection
ĠPro cess
Ġcor respon
ĠChar DistributionAnalysis
Ġiter items
Ġpl t
Ġvalid ation
Ġchoice s
unk nown
Ġstroke list
Ġattribut es
Ġpriv ate
Ġpriv ile
clu de
Ġcho ose
Ġabo ve
Ġcol or
ĠSub Factory
CL U
sse s
Ġsection s
Ġcsv row
Ġmultip rocess
ootstrap Helper
ĠWSGIRequest Handler
writ emath
Ġsrc path
HelpText List
Ġwarn ings
ĠInter face
Ġshut ting
su bject
Ġow ner
Ġbet ween
ĠgetL ogger
Ġbegin ning
Ġproper ties
aile d
gover nor
Ġnt path
relativ ity
medi ate
hemer al
ĠRUN CHAR
ifact s
Ġpossi ble
SSWOR D
ToEnc rypted
Ġmultiprocess ing
( ?
9 8
> >
> }
A ttribute
A PP
C ON
C LI
C TION
C IP
D B
D ict
F A
F E
G e
I G
L R
L in
M M
M ap
P re
P ackage
P RO
P DATE
Q L
R IP
T h
T AR
T ERN
V ariable
V ID
Y aml
] +
_ %
` .
b ort
b are
b irthday
c heck
d st
d al
d ic
d an
d is
e xception
f g
f lag
f rame
g ed
h ers
i Name
i ali
i mental
l nlg
m q
m t
m ac
o z
o pe
o og
o uld
p art
p age
q names
r type
s or
s ave
s pace
s ole
s ina
t en
t mp
t arget
t ags
x ml
x enapi
Ã µ
Ġ er
Ġ ens
Ġ que
ne yp
li nt
de fer
de scription
nt il
nt ity
in vo
st ion
st ed
st art
st path
at s
Ġp k
Ġp ut
Ġp tr
Ġp ublic
Ġp ast
Ġa vailable
Ġa uto
Ġse ri
Ġse nd
Ġc mp
Ġc used
Ġc fg
Ġf la
Ġf frame
str oy
me as
me mory
Ġ' .
Ġ' ..
Ġ' _'
Ġ" '
al man
it er
it ies
et ter
ct op
Ġs how
Ġe p
Ġe of
Ġe ps
Ġd ummy
Ġd stpath
Ġin p
Ġin active
Ġ3 1
Ġ3 6
Ġb irthday
Ġb uild
ot ation
Ġl strip
Ġm k
Ġm lnlg
ra se
ra ise
ra ph
pe lican
il va
Ġu ntil
ort Error
ro le
ro ot
ro ugh
ĠC F
ĠC OM
la b
Ġreturn s
ĠN ame
ĠN OT
ĠA M
ĠA ct
ĠA SG
ĠA pplication
ĠA bort
id den
ĠS y
ĠS tr
is ol
Ġv i
ode d
Ġname list
Ġnot ice
Ġnot ebook
lo b
lo gin
ment s
ĠI D
pp ing
ĠR E
od List
up lic
if ference
Ġcon f
Ġcon n
Ġcon nect
el l
as se
es ca
ĠD en
ĠD IS
ult i
Ġma ze
ĠM essage
Ġpro c
Ġpro xy
get Network
sc aling
ĠV ALID
ĠE valuate
Ġal so
Ġset Up
Ġch ain
Ġch unk
Ġstr ip
Ġstr ok
com man
Ġz mq
odule List
Ġpo int
LE N
per imental
ĠB IG
um er
Ġsi de
Ġâĸģ' %
SE T
Ġint ere
Ġconfig As
pro duct
pro ps
IT E
ific ations
ĠGet HelpTextList
ĠQ GIS
par ator
Ġpy lint
Ġstart Service
Ġargs pec
Ġrun Command
Ġcan not
ok en
Ġac cept
ĠU ser
ĠU PDATE
ĠH TTP
Ġ6 4
Ġme mory
ĠTest A
DI ATE
Ġ> >>
Ġarg v
Ġ9 4
To Order
Ġhas h
ĠAr g
ĠSet CName
ĠSet SupArchList
ĠSet Notify
Ad d
Ġpat ch
vert ToEncrypted
UR E
ded itor
ME DIATE
ph rase
Ġle vel
Ġcomp atible
user s
Ġdec orator
ĠKey Error
Ġsource s
tern ative
RE GE
Ġbin ary
Ġrequest s
Ġdis able
TY PE
Ġco pi
ĠSt ate
Ex pression
40 4
CK A
CT X
St ream
omet ry
Ġident ity
Ġrd type
Ġrd class
Pro perty
SI ON
Ġvar Regexp
Ġsee k
ĠType Error
ĠLI AB
201 1
PE M
tra js
==== ====
port er
ret urn
ĠFuzzy Text
ĠHelpText Xml
As PEM
Ġsort ed
PA CKA
Ġpt rue
Ġover ride
inter val
Ġgener ate
Ġvide o
Ġvide os
Ġstop Service
ĠQue ue
Ġhel per
Ġact ual
Ġign ore
outine s
Con vertToEncrypted
prot obuf
somet hing
literal s
ĠSup ArchList
ĠString IO
ĠImp ortError
Ġprovide d
SupM oduleList
Met adata
link s
Ġsk ip
ĠCacheL ocker
ĠFilter Expression
ĠInvalid Input
ĠDevelo per
Start Service
Ġpol l
Ġ'- '
ĠINTER MEDIATE
Ġcorrespon ding
Ġprivile ged
CIP HER
Lin k
dan ms
oog le
Ġer ase
Ġens ure
Ġque ue
neyp ot
Ġseri aliz
ctop rint
isol ated
esca pe
Ġstrok es
comman deditor
Ġintere sted
ĠconfigAs Yaml
ToOrder Map
REGE X
Ġprivileged StartService
' '
' re
( )
+ )
, '
. ,
0 5
1 8
2 8
2 11
3 2
5 3
7 5
9 0
9 9
: '
< /
= %
> \
A MA
A SSWORD
B asic
C OM
D own
D ING
E mpty
E ditor
F ilter
H IS
K G
L ine
L UG
M Q
M ock
M IT
M ak
M iddleware
O O
O pen
P R
P LA
P ickle
R outines
S oftware
V ALID
Y ml
] *
a ded
c b
c le
c an
c all
c hoice
d own
d uplic
e e
f fer
f ind
g id
g ative
g lobal
h g
i g
j o
n ConvertToEncrypted
o red
o ok
p ly
p article
p ends
r f
s k
t xt
t nConvertToEncrypted
v n
w rapp
y le
y one
Ã £
Ã §
Ã ©
Ã º
Ġ license
de l
nt ed
in st
se p
st ate
st ats
re quest
re vision
re cording
at tempt
Ġt t
Ġt rue
Ġt rim
Ġt vm
Ġp h
Ġa p
Ġa uthor
Ġse quenc
Ġc ast
er Com
str ict
le vel
le TestCase
me m
Ġ' "
Ġ' *
ar s
ar Down
Ġre lease
Ġre gion
Ġre strict
enc e
ic Mock
Ġn b
Ġn w
it es
ur an
ur ls
Ġde te
Ġde pen
Ġde leted
Ġde velo
Ġo ps
Ġo ctoprint
ct r
Ġs g
Ġs omet
Ġs vn
Ġ1 4
Ġd a
Ġd ok
Ġd iff
ut ed
an iz
Ġthe se
Ġ3 00
Ġb ootstrapHelper
Ġb tnConvertToEncrypted
ot es
Ġk ind
Ġdef init
Ġl ow
Ġl ayer
Ġl atex
ce back
Ġg is
Ġg dal
Ġg lob
ra w
ra x
il la
Ġu pper
ate ver
ser ializ
ĠC or
ĠC ertificateFactory
Ġfor ward
la ce
la sses
ĠT rans
ĠT oken
ĠT HIS
ri v
ĠA d
ĠA g
ĠA tt
ĠA ffer
Ġ- =
ĠG e
ĠS T
ĠS imp
ĠS ilva
ĠS URE
is hed
Ġget attr
Ġto o
Ġto p
ĠP rot
ĠP arser
ĠP ending
ĠP ASSWORD
est ination
ĠF la
ge om
Ġv al
Ġnot hing
Ġnot ifications
lo or
Ġ25 4
art be
ĠI MP
ĠR em
ĠR aise
ĠR untime
ĠR otation
un icode
Ġh app
Ġex ample
Ġcon dition
Ġassert In
as sert
ĠD oc
ĠD AMA
ĠO n
ĠO THER
Name d
Ġma de
pi le
ĠM A
ĠM ag
ĠM ark
act er
act ion
Ġtest Widget
sc ale
si gnatures
Ġar ch
ĠE lement
Ġj vm
Ġal ternative
Ġset attr
ver se
ver yone
Ġcom e
Ġstr ings
ry able
Ġapp ly
em on
og raph
ip ue
Prot ection
method s
ĠB E
IN F
tt ers
of b
pro perty
pro ject
Ġsy llable
ource s
res ources
ĠGet FeatureFlag
ĠfailUnlessEqual Content
Ġ5 1
ener Th
Ġne ver
OR Y
ree k
iv ar
par ams
pre fix
Ġpy particle
ray Field
Ġstart ing
im g
lement edError
ive MQ
ant i
ant s
ribut or
Re cognized
son ants
Ġme mb
Service s
Ġos lo
Ġflavor s
In dex
LI C
LI ED
Ġpass phrase
MA KE
ĠCom p
Ġformat ted
pla y
Ġ8 1
Ġ9 0
Ġspec ify
Ġspec ified
Xml Element
Ġread y
Ġnode s
To NOTEQ
Ġbase Name
Ġurl lib
set s
Ġ201 0
Ġcur sor
ĠAr rayField
Ġsc enario
Ġ7 0
Ġcopy right
Ġle tters
read y
Ġcomp onent
ll vm
Ġte arDown
Ġ'% (
Ġsub process
Ġdtype s
Config Item
Ġother wise
by te
Ġtag Key
Ġlo aded
ĠNot e
ĠNot Imp
ĠXml Node
ĠXml Routines
doc ument
we ibo
ĠAn y
ĠJ SON
comp onent
Se curity
Se parator
Ġchild ren
value s
session s
Ġsu ch
Ġgra nted
Ġexc lu
Ġq name
Ġloc al
IP E
Is En
loc ale
Ġend swith
ertific ates
hed ule
man ager
Ġtrans lation
Guid Value
Ġnamed Services
allow ed
Ġmake file
Ġmake Service
Ġcontent s
DE P
ff ect
Ġword count
pose Yml
ERN AME
") '
Sy ntax
tra ceback
Ġpl an
ĠCreate s
ĠCreate XmlElement
subscription s
Ġ40 4
66 66
Ġpt s
Ġnct Id
MP L
llable Separator
Ġabo ut
ĠAl low
Ġtok en
ĠRun Metadata
ĠConvert NE
ĠQue stion
Ġhel p
system commandeditor
Ġtw isted
Ġdest ination
field s
ĠPy thon
Ġ128 000
payment method
pl ot
ssu me
ĠUS ERNAME
ĠnewlyRegistered User
Ġroutine s
ĠTemplate Syntax
Res olver
wh atever
Ġtrunc ate
ateg ory
ĠRet rieve
Cert AsPEM
Ġbit code
ĠAuthor s
defghi j
ĠSAXNot Recognized
CLU DING
Variable Name
iali ze
oz illa
ntity Resolver
Ġbuild match
lab el
ĠAct iveMQ
ĠDen y
ĠTestA pp
LUG IN
Mak er
jo e
wrapp ed
Ġsequenc es
erCom poseYml
uran o
Ġdok erComposeYml
ĠbtnConvertToEncrypted IsEn
Ġlow er
ĠToken Parser
ĠAtt ributes
ĠAffer o
ĠSimp leTestCase
ĠProt ocol
artbe at
ĠIMP LIED
ĠRaise d
ĠRuntime Error
ĠMag icMock
ĠfailUnlessEqualContent s
enerTh read
Ġpyparticle est
ĠNotImp lementedError
ĠConvertNE ToNOTEQ
ĠTemplateSyntax Error
ĠSAXNotRecognized Exception
ĠdokerComposeYml FileName
ĠbtnConvertToEncryptedIsEn abled
" ,
" :
- {
/ '
/ {
/ (?
0 2
6 4
8 1
8 9
> '
B D
B AR
B etter
C re
C reate
C ipher
C ollector
C ertificateFactory
D ata
D ES
D ifferent
F AN
F ound
H qx
I F
I M
I f
I nt
I ME
I TIES
L oc
M at
O W
O OT
O riginal
P U
P o
P age
P EC
P ublic
P UB
P KG
Q T
R L
R le
R et
R age
R ES
R OM
S D
S c
S ync
T S
U M
U S
W ee
] (
_ ,
a vailable
a uto
b f
b ad
b ility
b uiltin
c y
c li
c ar
c ert
c ertificate
c sv
d ifference
e f
e ader
e arning
f s
f ra
g is
g ine
h at
j or
k er
l p
m o
m ode
m un
m ble
m ary
m ark
m metric
m ultip
n r
p c
p ha
p latform
p ickle
p rimary
r t
r ing
r il
r un
r pc
s a
s pe
s oftware
s amples
s wap
t ho
t rue
t ensor
t uple
t ask
u c
u d
v id
v ince
v cpus
w b
w ind
w isted
x B
x ff
x next
y ml
{ '
} ]
} {
Ã ¡
Ã ³
â Ģ
ç Ľ
Ġ |
de v
de vices
de sired
de coderengine
se e
se ct
st derr
Ġ0 211
re ction
re qui
re lated
or ies
at in
Ġt s
Ġt on
Ġt able
Ġt ap
Ġp d
Ġp s
Ġp id
Ġp ay
Ġp us
Ġp ickle
Ġp layer
Ġp lace
Ġa u
Ġa void
Ġa ster
Ġse mantics
Ġc pp
Ġc ard
Ġc ertificates
Ġc ategory
on d
on al
on ger
Ġf re
Ġf ailed
Ġi v
Ġi ss
er cur
str ings
Ġ' ,'
Ġ' :'
Ġ" <
Ġ[ {'
he artbeat
he lp
Ġ2 6
Ġw ra
Ġw file
Ġw ay
Ġw ire
Ġw ould
Ġre q
Ġre v
Ġre cording
Ġre cognized
enc oded
al t
it le
ur al
Ġs w
Ġs ure
Ġs ome
Ġs wap
Ġe qu
Ġin sert
Ġin clude
Ġin dic
ut put
an it
an up
Ġthe ir
Ġ3 4
Ġ3 5
Ġb uiltin
ot her
ot strap
Ġk eep
Ġk alman
Ġdef er
Ġl ong
Ġl onger
ce il
Ġm b
Ġg pu
Ġan other
pe ar
ro und
ro ll
ser vices
ĠC re
ĠC ode
ĠC ontent
ĠC PU
ĠT ime
ĠT hing
fi rst
fi dence
ho bb
ho neypot
ĠA pp
ĠA pi
ĠA LI
ĠA UTH
xt ure
xt ick
pt ured
ĠG D
ĠS c
ĠS u
ĠS er
ĠS AN
ĠS ick
ĠS UB
ĠS QL
is c
is k
is ProtobufMessage
Ġget User
Ġget QName
ĠP Y
ĠP s
ĠP pi
ĠP IN
ĠP ID
ĠP redict
ĠP LUGIN
ol ved
ĠF bal
ĠF cal
ĠF uncal
ĠF OO
Ġv ir
Ġv iew
Ġv ery
Ġnot ification
name d
ation Error
ĠL oc
ĠL earning
ĠR ole
ĠR cho
ect ed
ch anged
Ġh i
Ġh ome
ith m
Ġst d
Ġst at
Ġst yle
Ġst ars
Ġth rough
Ġex pect
Ġcon struct
Ġcon sonants
Ġres olved
ption al
am ond
ht m
ĠD o
ĠD TD
ĠD estination
ĠO E
ĠO r
ĠO UT
ĠO ther
ĠO riginal
fo und
ĠM z
ĠM ake
Ġpro ject
Ġclass ification
sc enario
ĠV M
ĠV alid
lu g
lu sh
si der
ĠE n
ĠE nd
Ġal ready
Ġset s
Ġset Name
Ġset Config
Ġset St
Ġpart ial
and t
and ro
op en
Ġcom pose
com ing
Ġline len
Ġline no
Ġuser Name
Ġz ip
Ġdata base
ER P
Ġdi rection
Ġdi amond
ip in
ip hers
Ġpo s
gra de
ke ep
Ġat om
per iod
ĠB e
ĠB ost
ĠB LO
ĠB SD
Ġpre txn
TI AL
less andro
Ġfail s
tr ans
um an
ali date
ali br
Ġsi g
Ġint eger
form at
pro d
pro files
ĠGet Guid
ĠGet Usage
init ial
Ġcase s
OR S
OR T
tw o
tw isted
ĠQ cho
pre c
pre ce
Ġpy test
ine d
Ġrun s
Ġrun ner
env iron
own ServiceParent
ĠU N
ĠU RL
Ġno ise
Ġlist s
ĠH ttp
ĠH idden
Ġ6 5
Ġme m
Ġme an
Ġpath s
AT OM
cur sive
work er
Ġfin ished
ari ance
bc defghij
ĠCom mun
ĠTest s
her it
ep hemeral
Ġarg types
De cimal
Ġ8 0
Ġcontext lib
Ġnode Name
AL TERN
To NE
ĠGener ate
Ġstate ment
Ġro le
Ġdistribut ion
Ġ12 0
Ġ12 3
ĠSet FeatureFlag
Ad ditions
Ġmat er
UR I
12 53
Ġchange s
app lication
bo otstrap
ph antom
Ġle f
read able
ĠCopy From
ĠRe ad
Ġcomp ati
Ġcomp lete
HO ST
HO LD
Ġbran ches
Ġdec ode
Ġso b
Ġhost name
by tes
Ġlo op
Ġimplement ation
ĠDEC LR
Ġallow s
che my
Ġrequest ed
ĠNot ification
ĠXml Element
ĠXml Attribute
cre mental
doc web
we ish
Ġcheck s
Ġopen rsrc
config ured
Ġco ef
Ġrequi re
Ġdim s
ĠSt ub
UL T
ĠDe fault
Ġdocument ation
pk g
def n
Ġsu ds
Ġgiv ing
gre g
Ġq gis
Ġinst anti
Set s
Di rectory
IL D
Ġtrans form
Ġcle ar
change set
change group
Ġprepare d
Of ProtobufMessage
`` )
lis k
ĠCon ditions
Ġprocess ing
Ġper form
Ġsh ort
Char ToOrderMap
Or Create
write crc
write Protobuf
Ġprot obuf
Ġprot ected
Ġconvert ed
Ġmessage List
TH RES
be lisk
Ġcor outine
Ġreplace d
Ġreplace s
ĠVariable Name
ATI VE
STR IPE
Ġfil ename
Ġiter ator
Ġdump s
Ġdump Run
Ġla zy
ĠCO PY
201 2
SC RIP
TRIB UT
Ġinterface s
ret ries
ĠFeature Flag
ĠFuzzy Choice
Ġexist s
Ġexist ing
Ġcontain s
IService Collection
ole an
Ġden ied
Ġsa fe
Ġevent s
Ġlink Text
Ġattribute values
Command Editor
By QName
Ġrecur se
Ġstore Password
Ġstore Username
Ġexp r
ĠOGR Ge
Ġdir name
Ġdir Pickle
Ġsupport s
Ġdomain s
Ġgener al
Ġhook type
ATE G
ĠConvert NOTEQ
FILE S
Ġen abled
Ġright s
Ġ18 8
Ġorg Name
ĠEx ample
Ġxml rpc
Enc oding
16 8
Ġtw o
Ġsepar ate
Ġns name
LIB C
Lo ader
Run ner
VER SION
Ġfo o
Ġdefine d
Ġrle data
Ġexec ute
Ġexec uted
ĠUS A
ĠnewlyRegistered Org
Ġpa id
Ġim mediate
ĠForm at
Ġart ifacts
Ġtemp est
Ġtemp file
ĠDecimal Field
symbol nr
Ġgradient s
GuidType List
Step Advice
Ġet ree
Ġca ptured
uthentic ation
Ġprevi ous
owel s
Ġhex bin
ĠJCollectd Collector
governor s
FA ULT
FE ED
Pre fix
TAR GET
check crc
exception s
invo ice
Ġmk param
ĠCOM MENT
Ġvi a
ĠDIS PLA
ulti Service
getNetwork For
Ġpoint list
umer ate
Ġcopi es
PACKA GES
28 5
]* )([
cle anup
inst all
Ġap pear
aniz ation
Ġdefinit ion
serializ ed
ĠCor p
ĠRotation Po
Ġhapp en
ĠDAMA GES
ĠOn ly
ograph y
INF O
img ur
Ġmemb ers
Security Form
DEP ENDS
ssume s
FAN ITIES
PUB LIC
Wee k
mode ls
multip le
Ġton ic
Ġtap name
Ġpay load
Ġaster isk
ercur ial
Ġwra ps
Ġequ iv
hobb it
ĠALI VE
ĠSick Rage
ĠPIN AX
ĠPID FILE
Ġvir t
ĠOther wise
ĠValid ationError
ĠEnd point
ĠsetSt ore
ĠBost on
ĠBLO CK
trans late
ĠHidden Input
ĠCommun ic
Decimal Field
ALTERN ATIVE
Ġcompati bility
ĠDECLR MM
weish ipin
OfProtobufMessage s
THRES HOLD
ĠdumpRun Command
ĠstorePassword IsChecked
ĠstoreUsername IsChecked
ĠdirPickle FileName
ĠConvertNOTEQ ToNE
ĠDISPLA Y
ĠRotationPo licy
" .
' .
' },
( \
* *
. _
. %(
/ .
/ **
0 7
2 0
4 9
5 0
5 8
6 7
: :
? "
@ '
A G
A P
A n
A SE
A TION
A GE
A GS
A pplication
C ont
C OR
C ertificate
C FLAGS
C PP
C TYPE
D et
D ate
D ON
E MPL
F LO
G H
G et
G IN
G yp
G TH
H ex
H ALL
H eader
I SE
I AL
I REC
J P
L L
L W
L Y
L ang
L AN
M AN
M ESS
M ENDS
M odList
O n
O bj
O UT
O DE
P L
P UT
P TION
P os
P RI
Q MAKE
R R
R IS
R AX
R REC
R DEPENDS
S P
S m
S pec
S ID
T V
T he
T ag
T ipue
U MA
U CH
U ID
U iName
U ITE
V ar
V ersion
V IC
W rit
W rite
Y N
Y ES
] ?
b i
b od
b atch
b its
c o
c u
c or
c mp
c ame
c lo
c cess
c oin
c ron
c ateg
c iphers
c alibr
d b
d f
d ar
d it
d one
d ail
d iv
d ings
d ated
d td
e ffect
f ss
f ree
f ails
f lush
g r
g or
g ge
g res
g rc
g Ã¼
h w
i gn
i stribution
i ssu
i ence
k a
k li
l li
l defn
m i
m ic
m art
m ont
m ount
n an
n one
n fss
o o
o x
o olean
p at
p ment
p ass
p date
p redict
p ending
p df
q Ã¼
r m
r s
s ion
s la
s um
s olve
s now
s lug
t s
t op
t cp
t ifacts
u ation
u pper
v end
v ariance
w td
x E
y y
y z
y es
z one
z ip
} ).
® é
Ã ª
å °
æ ĸ
Ġ ;
Ġ Z
Ġ less
Ġ atex
Į Ħ
ne t
ne gative
li er
li brary
line ar
de s
de t
de fi
de cimal
de pends
de riv
in s
in sert
in ations
in valid
in clude
in Hex
Ġ. .
se arch
st or
st op
st ack
re l
re cord
re porter
or a
or ation
or groups
en ge
en server
Ġt ri
Ġt ho
Ġt ake
Ġt abs
Ġt ell
Ġp or
Ġp ip
Ġp def
Ġp erson
Ġp asse
Ġa b
Ġa ss
Ġa lo
Ġa ble
Ġa pi
Ġa ck
Ġse ss
Ġse gment
Ġc ap
Ġc lasses
om pe
Ġf alse
Ġf ew
Ġf ake
Ġf mt
Ġi r
er nal
er ations
er arch
str oke
le t
me mb
Ġ' _
Ġ' "'
Ġ' \\
Ġ' @'
Ġ" !
Ġ" /
Ġ" _
Ġ" ."
ar ri
he s
he ll
Ġw ho
Ġw as
Ġw sg
Ġw ays
Ġw ell
Ġre al
Ġre pe
Ġre gra
Ġre pos
Ġre vision
Ġre ject
Ġre served
Ġre porter
Ġre ply
enc oding
al and
al og
al ker
al pha
Ġn c
Ġn l
Ġn or
Ġn umb
it ers
it ory
Ġde ter
Ġde scri
Ġde vices
Ġde lete
Ġde stroy
Ġde prec
Ġo ur
Ġo nes
Ġo vers
Ġo belisk
Ġs ax
Ġs log
Ġs olve
Ġs parse
Ġs ina
Ġs anit
Ġs hell
Ġe le
Ġe uc
Ġd ri
Ġd as
Ġd ocker
Ġin coming
Ġin herit
ut or
an Form
Ġ3 9
ss reporter
Ġb est
Ġb ig
Ġb oolean
ot h
Ġk now
Ġl params
Ġl yz
Ġm ac
Ġm ight
Ġm iddleware
Ġm any
Ġm urano
Ġm ercurial
ed ded
ed istribution
Ġg o
Ġg ot
Ġg file
Ġg by
Ġg ood
ra p
ra xp
pe m
il og
Ġu m
Ġu sage
ro s
ser ve
ĠC A
ĠC ertificate
ĠC ollectd
ĠC ustom
ĠT h
ĠT ext
ĠT ag
ĠT IME
ĠT wisted
ĠN UMA
ĠA CTION
ĠA ssumes
ĠA RIS
oc i
pt o
Ġof ten
ĠG roup
ĠG oogle
ĠG reek
ĠS O
ĠS ingle
ĠS pace
ĠS RC
ĠS HALL
Ġget B
Ġget Name
Ġget file
Ġget Service
Ġget Value
Ġget value
Ġto day
Ġto do
ĠP X
ĠP h
ĠP OM
ĠF if
ĠF ran
ĠF ile
ĠF unction
ĠF ix
ĠF loor
ge nt
Ġv er
Ġv ect
Ġv cpus
Ġv mem
Ġv alidate
Ġr xtx
Ġr mt
Ġr ts
Ġfi xture
der man
ac lass
te Stream
ĠL INE
ĠL ayer
ĠL atin
ĠL TV
pp ose
ĠR edistribution
un ct
ch ron
ure s
Ġh andl
Ġh grc
lic ations
Ġst ored
Ġst ompe
Ġth an
Ġex perimental
Ġcon sole
Ġcon fidence
ist ant
Ġres pected
met aclass
Ġbe low
ĠD E
ĠD i
ĠD ummy
ĠD EB
ĠD IREC
ĠO N
ĠO bject
ĠO ptional
Ġma k
Ġma ster
Ġâĸģ" !"
Ġli ke
ĠM a
ĠM s
ĠM IN
ĠM EN
ĠM ultiService
Ġfile crc
Ġpro gre
get her
get text
get users
get Link
Ġtest ed
Ġtest list
ĠV ER
si de
si gnature
ĠE C
ĠE mpty
ĠE OF
ĠE veryone
ĠE ntityResolver
and o
and les
op ulate
op erations
Ġcom pute
Ġcom pile
com mit
com mon
Ġline ar
Ġun ion
Ġz s
end point
em ory
Ġy t
Ġdata To
Ġdi ag
ĠW HE
Ġpo inter
Ġpar am
Ġby ref
AR D
AR CH
our Var
ĠB UT
ĠB ind
ĠB ook
ĠB inHex
gn ConfigItem
Ġser ve
Ġext ernal
Ġpre vent
ass istant
ow s
IN IT
IN ST
tt y
Ġit self
Ġâĸģ' \\
SE N
Ġlog ar
Ġraise d
Ġint eg
Ġuse s
Ġconfig Network
Ġconfig Item
pro pto
ain s
Ġsy n
Ġsy mmetric
ĠGet Notify
ĠGet SupModuleList
ĠGet OrCreate
ĠGet GuidTypeList
Ġ4 2
Ġ4 5
Ġx i
Ġx enserver
ap ed
all enge
Ġ5 6
Ġ5 9
Ġ5 12
Ġ\ '
Ġ10 24
Ġne t
OR ITY
Ġtime zone
par sing
pre txn
Ġpy rax
Ġversion utils
error s
UT F
mit ter
Ġho w
lement ation
char file
ive s
Ġwh at
Ġwh om
Ġwh ites
ok s
ok an
ok ed
ĠU sage
ĠU iName
ĠU pdate
Ġwe re
ĠIn cremental
EC T
us ually
ĠH AS
ĠH andles
Re gister
Re vision
Ġ6 7
fe at
EN CE
Ġany thing
MA GE
ĠTest Gyp
Ġformat ter
ĠSe ssion
ĠSe lect
di rectory
Ġenv Additions
Ġgroup s
Ġgroup Id
Ġadd Service
Ġadd Empty
buf size
Ġnew data
Ġnew CertAsPEM
De vice
De fault
Ġ8 2
Ġ8 6
Ġ9 8
Ġcontext manager
Ġread line
Ġdoc strings
Ġbase name
Ġro ute
Ġ201 2
Ġ201 4
xce pt
ĠSet Guid
ĠSet Usage
ĠSet SupModuleList
Ġsc he
Ġsc ra
Ġsc hedule
Ġ7 2
Ġ7 7
UR CE
imp lementation
Ġenc ode
Ġup dated
Ġsystem s
con dition
con nection
Ġchange sets
Not Found
ai ner
ph p
Ġle ad
Ġle ave
ĠRe gression
ĠRe cursive
ĠOR D
den ied
Ġsub dir
ĠCON TRA
log prod
Ġinter sect
Ġcurrent Step
Ġid x
Ġso on
.. ."
os h
RE SET
by name
ex p
mb edded
Ġtag name
Ġallow branches
che d
flavor id
Ġdis asse
Ġdis ownServiceParent
Ar tifacts
cre ated
ili ties
Ġcal ls
Ġcal ling
Ġcheck ing
Ġoption al
Ġopen rf
ĠPl anForm
config uration
spec ific
Ġco variance
Ġinit ialize
comp are
ĠWIT H
OM MENDS
Se arch
ale nt
code r
yp art
Ġdocument s
Ġfe at
ĠCommon Object
Com position
Ġq names
Ġloc ation
ĠIN CLUDING
Ġenviron ment
Ġcpu info
Ġwrit ten
quenc y
Ġprefix es
Ġcode cs
Ġfol der
ĠIS O
ĠInt eger
ĠBase Artifacts
opt s
ĠK eep
Ġauth m
Ġparser s
Ġprocess uid
Ġprocess gid
Ġper cent
Ġident ical
Ġregister Composition
Ġsh util
Ġnamed tuple
Ġnamed An
add Link
Ġusers orgroups
Char acter
Pro cess
no va
Ġbod ypart
Ġbreak s
ĠPro file
Ġmessage s
DE B
be am
Ġword s
Info For
FI G
FI X
Ġclient s
Ġmark er
Ġug lier
ĠVariable s
ĠWe ave
ĠAnsible Filter
Sy llableSeparator
Ġabs path
Ġfil led
Ġdump File
ĠLI MIT
201 7
ĠEV ENT
Ġfunc name
ĠFuzzy Date
Ġcontain ing
ĠHelpText Obj
DIR ECT
vi der
Ġtotal wtd
Ġlink s
By Name
By teStream
Len gth
inder Cont
hook s
Ġexp andt
ĠOGR Index
ALL OW
DO UT
IC ODE
Ġrest ype
ĠCheck in
ĠPar se
HEADER S
Ġen umerate
Ġwork er
ĠService s
ĠPRO VID
Ġstamp s
Ġorg anization
ĠEx amples
ĠComment SecurityForm
Format ter
13 01
RI GH
sse d
Ġerr no
Ġact ive
Ġsepar ator
Ġdest inations
Ġmultip le
ĠPy docweb
Ġattempt s
Ġdeny branches
Ġremove Service
OL DER
\" "
prot o
somet ag
Ġqu otes
ĠCont rol
ĠCont ributor
ĠSup ModList
ĠImp lement
SupM odList
System Id
EB AR
Ġ~ /.
device A
Ġag ain
Ġag gr
Ġim g
Ġus r
Ġus ually
ĠAuthority Factory
ĠIService Collection
Ġhand le
Ġweb hook
Ġweb server
web hook
PY RAX
SO URCE
cl ang
cipher byname
Ġold line
Ġinvo ke
Ġinvo ices
ĠClass ify
Ġfix er
ĠList enerThread
ĠEX PR
ĠGuidType s
Ġprevi ourVar
ĠRequest Factory
ĠStomp Spec
CON FIG
CLI ENT
]+ )'
Ġpast e
Ġauto scale
Ġfla gs
Ġep hemeral
Ġep ilog
ĠSy stem
ĠMessage Middleware
ĠsetUp Class
Ġchunk s
LEN GTH
ĠLIAB LE
ĠLIAB ILITY
Ġserializ er
call back
duplic ate
request ed
revision s
attempt s
Ġph antom
Ġauthor ities
Ġ'* '
Ġdete cted
Ġdevelo ping
Ġsomet ag
Ġda emon
ĠTrans action
ĠST DOUT
ĠPending Certificate
ĠFla gs
ĠRem ove
ĠDoc ument
ryable Error
ĠComp onent
Ġcomponent s
ĠtearDown Class
byte file
Public Id
auto escape
sa fe
spe ed
çĽ ®é
Ġ0211 0
requi red
Ġps util
Ġpus h
Ġfre quency
Ġiss pace
Ġindic ates
ĠCre ator
ĠApi Key
ĠAUTH OR
ĠgetUser Name
Ġhi erarch
Ġhome assistant
Ġstd out
Ġzip file
Ġsig ned
ĠUN ICODE
Ġlef t
ĠCOPY RIGH
SCRIP T
Ġxmlrpc lib
285 1
ĠCorp oration
Ġequiv alent
COR E
CPP FLAGS
FLO AT
Lang Model
PRI ORITY
RREC OMMENDS
SID EBAR
Tag Value
bod y
cor rect
came lli
categ ories
dail y
gge red
issu er
kli n
mic ros
mont h
nfss ync
sla ve
Ġatex it
deriv ative
insert ed
Ġtri ggered
Ġass oci
Ġalo ne
Ġsegment ation
Ġ'\\ '
Ġwsg i
Ġrepos itory
aland ora
Ġnumb ers
Ġdescri b
Ġdeprec ated
Ġovers ize
Ġslog det
Ġdri ver
Ġdas hes
raxp ub
ĠARIS ING
ĠGreek LangModel
Ġgetfile info
ĠFif th
ĠFran klin
Ġvect or
Ġrmt ree
ĠLINE LEN
Ġhandl ers
Ġhgrc users
Ġstompe st
ĠDEB UG
ĠDIREC T
Ġprogre ssreporter
getLink InfoFor
ĠdataTo Write
Ġdiag onal
ĠWHE THER
ĠBind ing
INIT SCRIPT
Ġinteg ers
Ġwhites pace
ĠIncremental Parser
ĠaddEmpty Line
ĠCONTRA CT
Ġdisasse mble
ĠInteger Field
ĠBaseArtifacts Test
ĠnamedAn y
Character Stream
ĠAnsibleFilter Error
ĠLIMIT ED
inderCont ainers
Ġexpandt abs
ĠOGRIndex Error
ĠPROVID ED
ĠEXPR ESS
ĠpreviourVar Prefix
ĠTransaction TestCase
çĽ®é ĮĦ
Ġhierarch y
ĠCOPYRIGH T
camelli a
getLinkInfoFor File
! '
! </
" \
" |
" \\
$ {
' ;
' <
' ^
' |
' }
' ),
( "
( *
+ "
+ '
+ .
, "
- "
. )
. {
/ ?
/ __
/ ..
/ %(
0 9
1 0
1 00
1 49
2 1
3 4
3 40
4 3
5 9
6 5
9 2
9 56
= "
> ).
? )
? \
? ://
A D
A LE
A UT
A uthority
A TIONS
A gent
B J
B O
B R
B U
B e
B in
B ad
B ase
B LE
B Si
B ASE
C A
C M
C P
C U
C an
C all
C LA
C XX
C OL
C RIP
C ould
C ATEG
C LIBC
C JP
C ARD
D RI
D TD
E G
E T
E V
E xt
E ng
E VER
E ntityResolver
E mbedded
F C
F S
F al
F lavor
F IT
F LI
F SS
F AL
F ailed
F ROM
F oo
F FIX
F BSi
G ot
G roup
G NO
G reek
G LIBC
G ENCE
H H
H ost
H TTP
H arri
I gn
I ES
I RE
I MAGE
J IS
J OR
J son
K S
K DIR
L e
L AR
L IS
L INE
L ayer
L etter
M S
M an
M odule
M UT
M any
M ozilla
M emory
N D
N G
N EC
N umber
N OT
N SI
N Revision
N FSS
O E
O ct
O IC
P F
P er
P em
P AR
P RE
P ream
P erson
P ATI
P rint
P ool
Q U
Q ue
Q LA
Q GIS
Q PF
R ot
R ule
R atio
R SRC
R untime
S F
S H
S R
S U
S u
S er
S ub
S LA
S ina
S LR
S QL
S alandora
T om
T oc
T ime
T RU
T ML
T yp
T itle
T TRIBUT
T AGS
U r
U AL
U CLIBC
U IRE
V IN
V NRevision
W N
W S
W atch
W EB
W hat
W ISE
[ \
[ ^
\ '
\ -
] .
_ *
_ \
` ,
a u
a w
a ut
a pe
a uthority
a ware
a uthentic
a ined
b v
b li
b it
b uild
c n
c v
c at
c ss
c la
c ri
c rypt
c ore
c cur
c ast
c ollection
c ollectd
c ollector
c orator
c now
c lasses
d at
d type
d len
d ump
d jango
d temp
d ocker
d Rot
e mp
e lican
e xcept
f fi
f ol
f ill
f info
f init
f all
f dir
f loor
g ot
g end
g pu
g ners
g yp
g rim
g ood
g round
h z
h en
h ge
h ip
h ind
h ref
h mac
h idden
h Letter
i i
i str
i an
i ss
i one
i po
i pping
j inja
j unk
k en
k it
k nown
l v
l ot
l ue
l ong
l chemy
m ature
m ap
m sg
m File
m oot
m wise
m ix
m ined
m Typ
n h
n m
n ho
n um
n isc
o D
o uth
o Print
p ri
p Error
p us
p arent
p ical
p opulate
q l
r and
r um
r len
r ÃŃ
s w
s ort
s able
s ity
s yn
s ome
s uffix
s ite
s alt
t a
t f
t ree
t ab
t ributes
u ch
v p
v ing
v iron
v owel
v oked
w s
w rt
w rap
x C
x b
y label
y ril
y SQL
z A
z Q
z gu
} |
¨ çĽ®éĮĦ
Ã ¢
Ã ´
Ã ł
å ľ
æ ī
æ ľ
è ª
Ġ ^
Ġ newline
Ġ ur
Ġ met
Ġ //
Ģ åľ
li mit
li us
li bcrypto
line mark
de st
de re
de le
de red
de si
de code
de mo
nt o
nt ool
Ġ( '
Ġ( (
Ġ( <
Ġ( @
in i
in x
in ner
in formation
in filename
se n
dent ation
Ġ0 0
re en
re able
re gister
re port
re lease
re ply
re voked
Ġ= >
or ge
at om
at tributes
en gine
en dele
Ġt f
Ġt ak
Ġp ur
Ġp ing
Ġp ull
Ġp tra
Ġa o
Ġa st
Ġa ut
Ġa pache
Ġa ssi
Ġa round
Ġa uthentication
Ġa mount
Ġa ffi
Ġse ed
Ġse ver
Ġse lect
Ġ: :
Ġc m
Ġc as
Ġc are
Ġc ache
Ġc rypto
Ġc ollect
Ġc ollectd
on fdir
om a
om ain
om Type
Ġf h
Ġf id
Ġf unct
Ġi o
er Runtime
lf er
Ġ' {
Ġ' ),
Ġ' ??
Ġ" $
Ġ" :
Ġ" --
Ġ" ========
Ġ" ,"
ar row
he ther
Ġ2 9
Ġw in
Ġw on
Ġw alker
Ġre name
Ġre ache
Ġre ader
Ġre min
Ġre main
Ġre lation
Ġre lated
Ġre verse
Ġre cv
enc y
al en
al ted
al lable
ion ando
ic i
ic method
Ġn orm
Ġn ick
Ġn ull
Ġn dim
Ġn ntool
it ect
it el
ur i
ur atom
Ġde sc
Ġde si
Ġde pends
et ch
et sc
Ġo th
Ġo ccur
ct or
Ġs li
Ġs ha
Ġs ites
Ġs alted
Ġs itel
Ġ1 12
Ġe c
Ġe m
Ġe as
Ġe veryone
Ġe ffect
Ġd ue
Ġd size
Ġd ifference
Ġin valid
Ġin clu
Ġin verse
Ġin div
Ġin side
an dom
an age
an umber
an umer
Ġthe ory
Ġ3 7
Ġ3 8
ss l
ss ue
Ġb b
Ġb ro
Ġb el
Ġb ool
Ġb asic
Ġb ook
Ġb oth
Ġb rand
ot hers
Ġk w
Ġl ate
Ġl name
ce ssed
Ġm y
Ġm is
Ġm be
Ġm ost
Ġm obj
Ġm ulti
Ġm outh
Ġm uch
Ġm anage
ed itor
ed settings
ed Exception
Ġg oogle
Ġg zip
ra per
ra gment
ra ctor
Ġan c
Ġan al
il er
il grim
ort ions
ro ss
ro car
ĠC h
ĠC it
ĠC an
ĠC lo
ĠC all
ĠC hoice
ĠC ATEG
ĠC SR
Ġret rieve
la st
la ke
la zy
ĠT able
ĠT ORT
Ġreturn ing
ri an
fi re
fi gs
Ġimport ing
ĠN e
ĠN OM
ĠN AME
ĠN EG
ĠN etsc
ĠA t
ĠA ls
ĠA CK
ĠA vailable
ĠA uto
ĠA CL
ĠA lessandro
ĠA LL
ĠA ccess
ĠA TTRIBUT
oc a
oc ial
id n
id ual
Ġis n
Ġis class
Ġis not
Ġis bits
rom ain
Ġof f
Ġof name
ĠG ID
ĠG File
ĠG UID
Ġas m
Ġas p
Ġas cii
ĠS A
ĠS R
ĠS um
ĠS TD
ĠS ITE
ĠS PEC
ĠS UITE
ĠS ched
ĠS JIS
ĠS QLA
ĠS VNRevision
is List
is gression
is Dict
Ġget s
Ġget Config
Ġget source
Ġget hostname
Ġget CertAsPEM
Ġget Directory
Ġget Encoding
Ġget pass
Ġget ByteStream
Ġget SystemId
Ġget PublicId
Ġget CharacterStream
ĠP O
ĠP ath
ĠP lugin
ĠP erm
ĠP AT
ĠP article
ĠP BD
ĠP IF
ĠP ilgrim
ĠP ortions
ol s
ĠF Name
ĠF ir
ĠF ore
ĠF SS
ĠF UL
ĠF ind
ĠF ROM
ĠF inderContainers
ĠF FBSi
Ġv s
Ġv otes
Ġv owels
ype s
ul ation
ul erRuntime
Ġr data
Ġr mFile
Ġr nm
Ġr andom
ation Field
Ġfi g
lo pen
ers ist
ac ur
ac ing
ac cess
ac her
ve ox
ĠL ine
ĠL ms
qu id
qu ote
Ġ25 0
ĠI Plugin
ĠI Process
ĠI ssue
pp ly
ĠR es
ĠR LE
ĠR ack
ĠR ep
ĠR OOT
ĠR FC
ĠR omain
un it
un ha
un used
un ix
un pack
un wrap
ad o
ad or
ad im
ad ows
Ġh or
Ġh uman
Ġh wrt
lic it
__ .
Ġex act
if p
Ġcon clu
Ġcon dit
ist d
ist ics
Ġor d
Ġres p
Ġres olver
as p
th oma
es cri
Ġbe hind
ĠD a
ĠD ate
ĠD AT
ĠD isgression
ĠD escri
ĠO S
ĠO ver
ĠO utput
ĠO pError
fo Ext
gin ner
Ġ% }{
fig ures
ner p
Ġma pping
Ġma jor
Ġâĸģ" /
Ġli b
Ġli teral
ĠM ac
ĠM IT
ĠM app
ĠM achine
ĠM ozilla
Ġfile input
Ġpro bab
Ġpro vid
Ġclass ifier
get item
get pelican
Ġ{ (
Ġ{ {
Ġ{ }
Ġ{ }"
Ġtest ing
sc hedule
sc ience
sc aped
sc onfdir
ĠV DI
ĠV IC
ĠV BD
ĠV IF
ĠV LAN
Ġar ange
Ġar row
ĠE den
ĠE vent
ĠE xp
ĠE NO
ĠE ditor
ĠE RR
ĠE cu
ĠE ND
ĠE scaped
ou ble
ou gh
Ġal gor
Ġset ter
Ġset ters
Ġset Password
Ġset Username
Ġset ServiceParent
Ġset locale
Ġset Encoding
Ġset Le
Ġpart y
and s
Ġch r
Ġwith in
ver ify
Ġcom put
Ġcom pression
Ġstr utils
ry ing
com position
com pile
po w
po ol
po licies
Ġapp s
Ġapp lied
Ġuser Set
Ġ} }
Ġ} }{
Ġun named
Ġun defi
Ġun gettext
Ġun known
age s
Ġz ipo
end ian
Ġy aml
Ġdi rect
og r
ĠW arning
ĠW ork
ĠW ILD
ĠW hen
ĠW hether
ip ulate
args pec
Un icode
Ġpo w
ock s
ock edError
hod Config
ĠGuid Object
Ġpri or
Ġpri mary
Ġcont ributor
Ġcont ained
Ġby choice
AR M
AR Y
LE Y
ir s
ON E
ON AB
int ations
int egrity
int eger
int ainer
int osh
List ener
List enerThread
ĠB i
ĠB ran
ĠB ootstrap
ĠB ig
ĠB okan
ĠB rian
Ġexce ed
gn ments
Ġext end
Ġext ends
Ġpre f
ass im
IN CLUDING
IN UM
Ġfail If
um n
ali ty
Error Handler
Ġâĸģ' /
Ġâĸģ' \
Ġâĸģ' ('
Ġâĸģ' )'
Ġâĸģ' ?\
SE D
SE QU
Ġlog p
Ġlog ic
00 00
ty pical
Ġint egrity
Ġint bv
pro gram
pro vider
ific ial
Ġextra ct
Ġsy ntax
ES SEN
data set
Ġ4 1
Ġ4 3
Ġ4 4
Ġ4 6
Ġ4 7
Ġ4 8
Ġ4 9
Ġ4 01
Ġx vp
all back
IS O
Ġ5 2
Ġ5 3
Ġ5 4
Ġ5 5
Ġ5 7
Ġ5 8
Ġ5 89
Ġ10 1
Ġ10 2
Ġ10 3
Ġ10 4
Ġ10 5
Ġ10 6
Ġ10 7
Ġ10 8
Ġ10 9
Ġ10 48
Ġne cess
Ġne gative
Ġcreate linemark
opy right
OR IES
Ġtime s
Ġtime out
Ġtime del
Ġad ded
tw istd
par ser
Ġpy util
cont ains
Ġ! @
Ġstart ed
Ġresult ing
im er
url encoded
Ġho we
Ġho neypot
char set
char ToOrderMap
quest ed
ant ini
Ġac count
Ġac comp
ĠU ID
ĠU RI
ĠIn dex
ĠIn foExt
us age
us ands
ĠH ex
ĠH OLDER
ĠH TML
Ġout filename
Re ad
Re port
Re gion
Ġ6 1
Ġ6 3
Ġ6 6
Ġ6 8
Ġ6 9
Ġdict s
Ġrange s
== "
Service Name
Ġfin al
Ġfin ish
und le
In it
In valid
In correct
LI GENCE
EN TIAL
Key As
Ġplugin s
Ġany how
module s
Ġ` ``
Ġenv Pream
Ġadd r
CH OIC
Ġerror geom
ary ing
Ġmsg Length
Ġtext file
Ġbyte file
Ġarg len
Ġarg parse
De code
TR AS
Ġ8 3
Ġ8 4
Ġ8 5
Ġ8 7
Ġ8 8
Ġ8 9
Ġ9 1
Ġ9 2
Ġ9 3
Ġ9 5
Ġ9 6
Ġ9 7
Ġ9 9
Ġsp acing
Ġspec ial
Ġfeature type
Ġread lines
Ġdoc s
Ġchar file
AL Base
Ġ16 340
Ġoutput filename
To File
min or
min istr
Ġurl parse
set ServiceParent
Ġ201 1
Ġ201 5
Ġdistribut e
Ġ12 1
Ġ12 4
ĠAr rum
ĠSet s
Ġsc ope
Ġ7 1
Ġ7 3
Ġ7 4
Ġ7 5
Ġ7 6
Ġ7 8
Ġ7 9
Ġenc rypted
Ġenc oded
ded On
Ġup load
Ġup grade
12 7
AS ONAB
bin dir
bin dings
con v
con nect
con struct
con sole
con figs
Ġchange set
ph inx
ph anumer
Ġle gend
read header
ĠRe gra
ĠRe ader
ĠRe qui
ĠRe fs
Ġcomp at
Ġpost fix
Ġpost gres
HO ME
ast er
user match
Ġsub plot
ĠCON TRIBUT
ĠCON NEC
ĠCON SEQU
Ġcomment s
Ġinter pre
Ġinter val
Ġinter active
Ġinter net
Ġdec ipher
Ġdec dat
Ġcurrent ly
group ing
group name
Ġdat alen
ĠOpen ERP
ĠOpen Embedded
Ġspecific ation
Config uration
base Name
base Error
ĠKey s
Ġcre ator
Ġcre ating
ĠfileName Toc
RE T
ex c
ex amples
ex perimental
Ġlo gin
Ġimplement ations
ĠDEC SET
ĠDEC RESET
ĠDEC SLR
flavor s
Ġdis k
Ġdis play
Ġdis cla
Ġdis connect
ĠXml List
cre dentials
ili ng
Ġcheck ed
ĠAn d
ails Form
pos n
pos itive
DER R
key s
ci a
ĠSt art
ĠSt op
ĠSt ates
comp at
comp lete
Se ssion
ĠDe code
ĠDe corator
sy m
sy s
sy sconfdir
def s
Ġsu ppose
gener ate
gener ator
ĠCommon Xml
Com ment
to gether
Ġinstance s
Ġloc a
Ġloc aliz
ĠIN VALID
ĠIN DIRECT
File Handler
IP rocess
class ify
loc ation
Ġend s
Ġ'/ '
Ġ". /{
Ġ11 0
Ġ11 1
Ġ11 3
Ġ11 4
Ġ11 5
Ġ11 6
Ġ11 7
Ġ11 8
Ġ11 9
Ġ19 98
Ġ19 43
User Advice
not ification
time out
ys ical
Ġcode s
temp est
Si gnConfigItem
man y
item ap
Ġinput s
Ġbuf size
ĠSAX Exception
change me
change Per
Ġrespect s
Ġprepare Parser
Ex pected
Ex ec
`` .
lis hLetter
ĠCon sider
Ġorder s
Ġprocess Name
Ġhere by
CT S
St ack
gu i
ĠUn icode
ĠUn ique
ĠUn ix
ĠUn clo
Ġper mit
Ġregister Org
Ġregister Named
Ġregister UserAdvice
Ġsh are
Ġsh adows
Ġrd r
Ġstep s
content s
ĠCommonDefines Xml
Pro file
Pro vince
write info
write Network
Ġprot o
Ġreason s
ĠAs ync
ĠPro ject
ĠError Handler
ĠError Dict
Ġserver list
ĠQgsA pplication
DE FAULT
DE LEY
ST DIR
TH IS
ĠLO SS
ĠDO CU
Ġcomposition Call
pose s
Ġdirectory Network
") ,
ores Sc
Ġfull Network
ical Pos
Ġlat ter
ĠEU CJP
Ġraw reply
ĠWe ibo
ĠQgsAuth Met
EX CLU
EX TRAS
Ġshape s
Ġ15 7
ĠCO c
artic les
201 3
GR AM
TO OL
TO UCH
sett ing
Ġpl ural
Ġ24 7
pport edException
ĠLOG FILE
Ġ... }.
ret rieve
ret ryable
Ġafter Sc
Ġafter StepAdvice
ĠFuzzy Int
Ġbefore StepAdvice
ĠMan ager
ĠMan ipulate
Ġproce sses
IService Maker
ĠHelpText Item
Ġfind all
Ġdoes n
Ġtermin ate
Ġpublis h
(' \
Content Handler
cal lable
Ġnon linear
Ġevent let
Ġhqx er
Ġhqx ifp
Ġresolve s
Ġlink Title
Ġcommand s
Ġcontin uation
REQ UIRE
Ġreceiv ing
Ġfroz en
/> ,
By tesIO
CE PTION
Len Feature
PA SSWORD
UG H
do es
Ġwhe ther
Ġref lect
Ġrem ote
Ġeval u
Ġeval uate
hook edsettings
ĠFlavor List
ĠFlavor NotFound
Ġexp l
ĠassertRaises Rege
Sele ct
index es
ating FileHandler
Ġ20 20
Ġ23 3
Ġ200 1
Ġ200 6
Ġ200 9
ssi an
Ġback up
Ġback end
Ġback ground
Ġmin or
rol lius
ĠAl ways
Ġtok ens
ĠRun Options
Ġstop all
Ġsimp ly
dig est
Ġestim ates
Password Checked
Ġen gine
segment ed
Ġtyp ing
Ġcol on
Ġ18 7
Ġent er
Ġent ry
Ġent ities
ĠSub mit
ĠSub classes
ĠPRO FANITIES
ĠPRO FIT
ĠPRO VIN
Ġnames pace
Ġorg Cert
ĠComment Model
ĠComment Det
Ġlocale conv
enario Advice
ĠIntegrityError s
Class Property
LD FLAGS
Model Factory
MENT ATION
WOR KDIR
for ward
package s
Ġsepar ation
Ġcsv file
Ġign ores
Ġign ored
Ġdest intations
Ġdown grade
Ġance stor
ĠInit ializ
LIB S
Ġsubscription s
ĠPolicy Factory
Username Checked
Con nection
Lo gin
Lo oks
\. \-
writ er
Ġqu ery
Ġrle code
Ġrle decode
Ġroutine Regexp
System CommandEditor
System Loader
NodeAdminTuple Advice
?? '
AUTH OR
Res ponse
SRC DATE
Up date
ool s
Ġut ilities
Ġut cnow
Ġtrunc ated
Ġcert ain
header s
Ġ21 4
Ġsk ipping
Ġsave fig
ĠCacheL ockedError
ĠForm Error
ĠIService Maker
Ġhand les
ĠData point
ĠData baseError
Ġweb app
Ġoriginal Line
Ġcorrect ly
ĠEUCKR DistributionAnalysis
ĠEUCTW DistributionAnalysis
AM D
Imp l
SO ME
block s
cl c
Ġet c
input filename
itive Ratio
ans wer
Ġretry ing
ĠSource Factory
Ġfix ed
Ġthread ing
ĠDjango Item
ĠDjango Unicode
abc d
abc defghi
Ġhex digest
dence Mat
archive s
ĠStomp Config
ĠSAXNot Su
Ġprivate KeyAs
ootstrapHelper Advice
98 2851
Attribute Value
APP WEB
CLI Advice
FA KE
Ge orge
Pre mature
PRO VID
PRO FANITIES
ope nerp
page s
invo ices
Ġpk g
Ġauto escape
Ġfla sk
Ġ'. /
Ġ'.. '
Ġ'.. .'
Ġmk dtemp
ĠCF c
ĠCOM MA
ĠApplication Runner
ĠApplication Session
ĠSy llableSeparator
Ġvi ews
ĠRE ASONAB
ĠDIS CLA
getNetwork Group
Ġzmq context
ĠArg ument
Ġcopi ed
======== =="
PACKA GE
Ġskip Test
Ġskip Exception
+) /$"
+) /"
90 92
Basic Tests
COM PATI
Filter ing
Open SSL
Open ERP
can not
down load
duplic ates
state ment
Ġph ysical
Ġcast s
Ġrestrict ions
Ġdete ction
Ġdepen dedOn
Ġdevelo pment
Ġsomet hing
ĠbootstrapHelper SignConfigItem
riv ate
ĠAd d
ĠAd ministr
ĠAg greg
ĠGe ometry
ĠGe oD
ĠST DERR
Ġtop ic
ĠFla sk
ĠRem inder
assert Raises
ĠOTHER WISE
ĠMark up
ĠtestWidget Username
Ġarch ive
Ġarch itect
ĠBE GIN
Ġsyllable s
Ġexclu ded
Ġexclu sive
6666 6666
plot lib
ĠRetrieve s
label s
ĠAttributes Impl
ĠProtocol Object
Cre ated
Cipher Init
Cipher Update
DES CRIP
Hqx coderengine
Hqx decoderengine
IM UM
Loc ale
Rle coderengine
Rle decoderengine
Ret ryableError
_, }
builtin s
cy ril
fra c
fra gment
run ner
run ning
tho ugh
tho usands
vince s
xff ff
âĢ Ŀ
Ġpid file
Ġplace holder
help ers
Ġbuiltin s
roll Region
ĠContent Type
ĠContent Handler
ĠTime dRot
ĠApp lications
xtick s
xtick labels
ĠGD ALE
ĠGD ALBase
ĠSc aling
ĠSer ver
ĠSer ialize
ĠgetQName s
ĠgetQName ByName
ĠPpi Object
ĠLoc ator
Ġstat icmethod
Ġstat istics
ĠOr dered
Ġproject Name
ĠEn viron
ĠsetConfig Id
open ssl
Ġpos ition
Ġpos itive
keep ing
keep Eng
period s
ĠBe am
ĠBe cause
Ġpretxn changegroup
Ġpretxn commit
prece des
prece denceMat
ĠURL Field
ĠHttp Request
ĠHttp Response
Ġmater ial
Ġmater ials
ĠDefault Person
Ġinstanti ated
CommandEditor Plugin
ĠOGRGe ometry
ĠOGRGe omType
ĠCOMMENT S
getNetworkFor Config
getNetworkFor Directory
ĠsetStore PasswordChecked
ĠsetStore UsernameChecked
ĠCommunic ator
ĠCommunic ations
ĠRotationPolicy Factory
DON T
MESS AGE
PL v
Sm ith
Writ ing
YN C
bi derman
co oldown
calibr ation
ign Key
mart in
pat tern
snow fall
top level
vend or
å° į
Ġtho se
Ġpasse d
memb er
Ġwho le
Ġreal m
Ġrepe ated
Ġdeter mined
Ġsax utils
Ġsanit ize
Ġele mwise
Ġgo ing
ĠCA CertificateFactory
ĠCustom Formatter
ĠTIME OUT
ĠSingle Layer
ĠgetB ootstrapHelperAdvice
ĠgetName ByQName
ĠgetService Named
ĠgetValue ByQName
ĠPh D
ĠFile SystemLoader
Ġver bo
ĠRedistribution s
chron ized
ĠDE FAULT
Ġmak es
ĠMIN IMUM
ĠMEN DELEY
ĠVER SION
ĠEC Province
INST ALL
Ġlogar ithm
Ġnet loc
pretxn changegroup
mitter BasicTests
Device Info
Ġsche me
Ġscra ping
condition al
Ġlead ing
ĠRecursive Middleware
Ġpercent age
ĠregisterComposition Advice
addLink ToFile
DEB UG
ĠSystem CommandEditorPlugin
Ġsigned ConfigItem
TagValue Advice
daily program
month ly
Ġassoci ated
Ġdescrib ing
${ }-
'^ ([
Authority Factory
BJ AM
BU ILD
Be ginner
Can not
CXX FLAGS
DRI VER
DTD Handler
EV P
FLI CTS
FAL SE
GNO ME
Greek Model
Harri son
Ign oresSc
LAR GE
LIS T
Man ager
MUT EX
Memory Pool
NFSS YNC
Oct oPrint
SU FFIX
Sub mitterBasicTests
TRU E
Ur l
au ssian
authentic ate
bli ography
bit coin
cat alog
crypt ography
emp lo
fol der
finit e
hge xt
iss ing
ione d
lot s
lchemy ModelFactory
moot h
mTyp icalPos
num a
nisc ale
sw f
sable BytesIO
zgu ide
æī Ģåľ
Ġur lopen
dest ination
dere r
desi gners
endele y
Ġtak en
Ġptra j
Ġassi gnments
Ġaffi ne
Ġsever al
Ġcas o
Ġfunct ools
Ġ'?? ??'
Ġ"======== =========="
Ġreache d
Ġremin d
Ġndim s
Ġnntool kit
uratom i
Ġdesi reable
Ġoth ers
Ġeas y
Ġinverse power
Ġindiv idual
Ġbro ken
Ġmbe an
Ġmulti line
editor collection
ĠClo ud
ĠNOM INUM
ĠNEG LIGENCE
ĠNetsc ape
ĠAls o
ĠAuto scale
ĠATTRIBUT ES
Ġisnot anumber
ĠSTD IN
ĠSPEC IAL
ĠSched ulerRuntime
ĠSJIS DistributionAnalysis
ĠSQLA lchemyModelFactory
isList OfProtobufMessages
isDict OfProtobufMessages
Ġgetsource file
ĠPerm ission
ĠParticle Filtering
ĠFir st
ĠFore ignKey
ĠFSS pec
ĠFUL L
ĠLine ar
ĠLms Sync
ĠIssue SubmitterBasicTests
ĠRes ort
ĠRack space
ĠRep ort
ĠROOT CA
Ġconclu sion
Ġcondit ioned
ĠDAT A
ĠDescri ption
ĠOver ride
Ġ%}{ {
ĠMapp ing
Ġprobab ly
Ġprovid ing
ĠENO UGH
ĠERR OR
ĠEcu ador
Ġalgor ithm
ĠsetLe vel
ĠuserSet TagValueAdvice
Ġ}}{ %
Ġundefi ned
Ġzipo utput
ĠWILD CARD
ĠBran ch
assim o
typical ly
ESSEN TIAL
Ġcreatelinemark er
Ġtimedel ta
Ġhowe ver
charset Name
ĠInfoExt ractor
ĠHex Bin
ĠHOLDER S
ĠenvPream ble
CHOIC ES
Decode Error
construct or
Ġsubplot s
ĠCONTRIBUT ORS
ĠCONNEC TION
ĠCONSEQU ENTIAL
Ġdecdat acur
ĠfileNameToc heck
ĠDECSLR M
Ġdiscla imer
Ġsuppose d
changePer cent
ĠUnique AttributeValue
ĠUnclo sableBytesIO
ĠregisterOrg Advice
ĠregisterNamed NodeAdminTupleAdvice
Ġshadows ocks
writeNetwork Json
ĠDOCU MENTATION
ĠcompositionCall CLIAdvice
ĠEUCJP DistributionAnalysis
ĠQgsAuthMet hodConfig
EXCLU DE
EXTRAS PEC
ĠafterSc enarioAdvice
ĠFuzzyInt eger
REQUIRE D
ĠassertRaisesRege x
ĠPROFIT S
ĠPROVIN CE
ĠCommentDet ailsForm
ĠInitializ es
ĠDjangoUnicode DecodeError
ĠSAXNotSu pportedException
ĠprivateKeyAs Pem
PROVID ES
ĠREASONAB LY
COMPATI BLE
ĠdependedOn ServiceName
ĠbootstrapHelperSignConfigItem Advice
ĠAggreg ate
Ġarchitect ure
DESCRIP TION
ĠTimedRot atingFileHandler
ĠGDALE xception
ĠOrdered Dict
ĠEnviron ment
keepEng lishLetter
precedenceMat rix
ĠSingleLayer Rule
ĠECProvince Select
dailyprogram mer
IgnoresSc rollRegion
mTypicalPos itiveRatio
æīĢåľ ¨çĽ®éĮĦ
