{"version":"1.0","truncation":null,"padding":null,"added_tokens":[{"id":0,"special":true,"content":"<s>","single_word":false,"lstrip":false,"rstrip":false,"normalized":false},{"id":1,"special":true,"content":"<pad>","single_word":false,"lstrip":false,"rstrip":false,"normalized":false},{"id":2,"special":true,"content":"</s>","single_word":false,"lstrip":false,"rstrip":false,"normalized":false},{"id":3,"special":true,"content":"<unk>","single_word":false,"lstrip":false,"rstrip":false,"normalized":false},{"id":4,"special":true,"content":"<mask>","single_word":false,"lstrip":false,"rstrip":false,"normalized":false},{"id":5,"special":true,"content":"<dedent>","single_word":false,"lstrip":false,"rstrip":false,"normalized":false},{"id":6,"special":true,"content":"<encdom>","single_word":false,"lstrip":false,"rstrip":false,"normalized":false},{"id":7,"special":true,"content":"<endmarker>","single_word":false,"lstrip":false,"rstrip":false,"normalized":false},{"id":8,"special":true,"content":"<indent>","single_word":false,"lstrip":false,"rstrip":false,"normalized":false},{"id":9,"special":true,"content":"<newline>","single_word":false,"lstrip":false,"rstrip":false,"normalized":false},{"id":10,"special":true,"content":"▁","single_word":false,"lstrip":false,"rstrip":false,"normalized":false},{"id":11,"special":true,"content":"<spacetoken>","single_word":false,"lstrip":false,"rstrip":false,"normalized":false},{"id":12,"special":true,"content":"<strnewline>","single_word":false,"lstrip":false,"rstrip":false,"normalized":false},{"id":13,"special":true,"content":"<tabsymbol>","single_word":false,"lstrip":false,"rstrip":false,"normalized":false}],"normalizer":{"type":"Sequence","normalizers":[]},"pre_tokenizer":{"type":"ByteLevel","add_prefix_space":false,"trim_offsets":true},"post_processor":{"type":"RobertaProcessing","sep":["</s>",2],"cls":["<s>",0],"trim_offsets":true,"add_prefix_space":false},"decoder":{"type":"ByteLevel","add_prefix_space":true,"trim_offsets":true},"model":{"dropout":null,"unk_token":null,"continuing_subword_prefix":null,"end_of_word_suffix":null,"fuse_unk":false,"vocab":{"<s>":0,"<pad>":1,"</s>":2,"<unk>":3,"<mask>":4,"<dedent>":5,"<encdom>":6,"<endmarker>":7,"<indent>":8,"<newline>":9,"▁":10,"<spacetoken>":11,"<strnewline>":12,"<tabsymbol>":13,"!":14,"\"":15,"#":16,"$":17,"%":18,"&":19,"'":20,"(":21,")":22,"*":23,"+":24,",":25,"-":26,".":27,"/":28,"0":29,"1":30,"2":31,"3":32,"4":33,"5":34,"6":35,"7":36,"8":37,"9":38,":":39,";":40,"<":41,"=":42,">":43,"?":44,"@":45,"A":46,"B":47,"C":48,"D":49,"E":50,"F":51,"G":52,"H":53,"I":54,"J":55,"K":56,"L":57,"M":58,"N":59,"O":60,"P":61,"Q":62,"R":63,"S":64,"T":65,"U":66,"V":67,"W":68,"X":69,"Y":70,"Z":71,"[":72,"\\":73,"]":74,"^":75,"_":76,"`":77,"a":78,"b":79,"c":80,"d":81,"e":82,"f":83,"g":84,"h":85,"i":86,"j":87,"k":88,"l":89,"m":90,"n":91,"o":92,"p":93,"q":94,"r":95,"s":96,"t":97,"u":98,"v":99,"w":100,"x":101,"y":102,"z":103,"{":104,"|":105,"}":106,"~":107,"¡":108,"¢":109,"£":110,"¤":111,"¥":112,"¦":113,"§":114,"¨":115,"©":116,"ª":117,"«":118,"¬":119,"®":120,"¯":121,"°":122,"±":123,"²":124,"³":125,"´":126,"µ":127,"¶":128,"·":129,"¸":130,"¹":131,"º":132,"»":133,"¼":134,"½":135,"¾":136,"¿":137,"À":138,"Á":139,"Â":140,"Ã":141,"Ä":142,"Å":143,"Æ":144,"Ç":145,"È":146,"É":147,"Ê":148,"Ë":149,"Ì":150,"Í":151,"Î":152,"Ï":153,"Ð":154,"Ñ":155,"Ò":156,"Ó":157,"Ô":158,"Õ":159,"Ö":160,"×":161,"Ø":162,"Ù":163,"Ú":164,"Û":165,"Ü":166,"Ý":167,"Þ":168,"ß":169,"à":170,"á":171,"â":172,"ã":173,"ä":174,"å":175,"æ":176,"ç":177,"è":178,"é":179,"ê":180,"ë":181,"ì":182,"í":183,"î":184,"ï":185,"ð":186,"ñ":187,"ò":188,"ó":189,"ô":190,"õ":191,"ö":192,"÷":193,"ø":194,"ù":195,"ú":196,"û":197,"ü":198,"ý":199,"þ":200,"ÿ":201,"Ā":202,"ā":203,"Ă":204,"ă":205,"Ą":206,"ą":207,"Ć":208,"ć":209,"Ĉ":210,"ĉ":211,"Ċ":212,"ċ":213,"Č":214,"č":215,"Ď":216,"ď":217,"Đ":218,"đ":219,"Ē":220,"ē":221,"Ĕ":222,"ĕ":223,"Ė":224,"ė":225,"Ę":226,"ę":227,"Ě":228,"ě":229,"Ĝ":230,"ĝ":231,"Ğ":232,"ğ":233,"Ġ":234,"ġ":235,"Ģ":236,"ģ":237,"Ĥ":238,"ĥ":239,"Ħ":240,"ħ":241,"Ĩ":242,"ĩ":243,"Ī":244,"ī":245,"Ĭ":246,"ĭ":247,"Į":248,"į":249,"İ":250,"ı":251,"Ĳ":252,"ĳ":253,"Ĵ":254,"ĵ":255,"Ķ":256,"ķ":257,"ĸ":258,"Ĺ":259,"ĺ":260,"Ļ":261,"ļ":262,"Ľ":263,"ľ":264,"Ŀ":265,"ŀ":266,"Ł":267,"ł":268,"Ń":269,"Ġâ":270,"ĸģ":271,"Ġâĸģ":272,"ne":273,"Ġ<":274,"li":275,"line":276,"new":277,"newline":278,"de":279,"Ġ,":280,"nt":281,"st":282,"Ġ.":283,"se":284,"Ġ(":285,"in":286,"Ġ)":287,"dent":288,"re":289,"Ġ=":290,"Ġt":291,"at":292,"or":293,"Ġ:":294,"Ġa":295,"on":296,"Ġse":297,"str":298,"Ġ'":299,"en":300,"er":301,"Ġc":302,"Ġi":303,"le":304,"lf":305,"om":306,"Ġself":307,"Ġ\"":308,"strnewline":309,"Ġf":310,"me":311,"indent":312,"dedent":313,"Ġp":314,"al":315,"he":316,"ar":317,"Ġ[":318,"Ġre":319,"ion":320,"Ġ]":321,"Ġo":322,"Ġs":323,"an":324,"ct":325,"Ġ#":326,"enc":327,"Ġn":328,"ge":329,"it":330,"dom":331,"ur":332,"Ġe":333,"Ġ0":334,"encdom":335,"Ġde":336,"ut":337,"ce":338,"Ġd":339,"ame":340,"Ġm":341,"Ġthe":342,"Ġin":343,"ro":344,"ing":345,"Ġb":346,"pe":347,"Ġw":348,"ss":349,"lo":350,"mp":351,"Ġ1":352,"ate":353,"ue":354,"Ġdef":355,"fi":356,"Ġ_":357,"Ġu":358,"ri":359,"Ġif":360,"ot":361,"ser":362,"ra":363,"ĠT":364,"la":365,"ort":366,"pt":367,"ed":368,"Ġv":369,"Ġco":370,"est":371,"Ġfor":372,"tur":373,"ul":374,"Ġto":375,"il":376,"Ġ\"\"":377,"ab":378,"turn":379,"ck":380,"Ġ\"\"\"":381,"di":382,"Ġis":383,"Ġan":384,"get":385,"ype":386,"un":387,"ch":388,"Ġas":389,"ol":390,"ve":391,"is":392,"Ġreturn":393,"ĠN":394,"Ġ-":395,"Ġex":396,"one":397,"ĠC":398,"ode":399,"ĠS":400,"age":401,"id":402,"Ġst":403,"name":404,"ĠA":405,"ation":406,"Ġimp":407,"ad":408,"th":409,"ath":410,"Ġof":411,"rom":412,"el":413,"qu":414,"Ġimport":415,"pp":416,"ĠF":417,"ex":418,"ata":419,"sert":420,"Ġget":421,"Ġh":422,"ult":423,"es":424,"Ġ2":425,"Ġnot":426,"Ġ+":427,"alue":428,"Ġth":429,"ic":430,"ĠNone":431,"od":432,"ke":433,"Ġand":434,"Ġfrom":435,"Ġg":436,"Ġassert":437,"Ġ%":438,"ers":439,"um":440,"as":441,"ment":442,"Ġr":443,"ĠP":444,"ption":445,"Ġname":446,"der":447,"ĠI":448,"Ġdi":449,"Ġfi":450,"Ġar":451,"ĠL":452,"ub":453,"Ġor":454,"able":455,"tr":456,"ction":457,"am":458,"Ġlo":459,"ith":460,"Ġtest":461,"ror":462,"gs":463,"Ġcon":464,"ĠR":465,"Ġ{":466,"ase":467,"ect":468,"file":469,"__":470,"00":471,"Ġl":472,"type":473,"up":474,"ig":475,"co":476,"et":477,"ma":478,"ext":479,"Ġli":480,"ent":481,"end":482,"lass":483,"rue":484,"ver":485,"Ġres":486,"Ġstr":487,"Ġ}":488,"ord":489,"Ġ*":490,"art":491,"Ġbe":492,"ly":493,"eld":494,"ist":495,"bj":496,"te":497,"Ġ__":498,"Ġ==":499,"ter":500,"our":501,"py":502,"Ġvalue":503,"Ġpro":504,"--":505,"put":506,"Ġcont":507,"pro":508,"Ġ3":509,"Ġset":510,"ry":511,"Ġpath":512,"int":513,"Ġme":514,"ht":515,"Ġk":516,"vi":517,"Ġal":518,"ĠG":519,"ow":520,"Ġâĸģ'":521,"ime":522,"sc":523,"and":524,"Ġdata":525,"ack":526,"Ġ\"\\":527,"ĠD":528,"ali":529,"Ġma":530,"rror":531,"key":532,"Ġwith":533,"dd":534,"to":535,"Ġapp":536,"Ġel":537,"Ġx":538,"us":539,"ĠM":540,"qual":541,";\"":542,"ĠE":543,"ure":544,"alse":545,"Ġun":546,"ray":547,"ip":548,"all":549,"Ġfile":550,"ner":551,"Ġout":552,"Error":553,"Ġcom":554,"ĠO":555,"Ġelse":556,"bject":557,"ance":558,"ls":559,"Ġtype":560,"ource":561,"ĠTrue":562,"mb":563,"pa":564,"Ġj":565,"fo":566,"Ġclass":567,"but":568,"date":569,"ault":570,"Ġy":571,"ise":572,"Ġos":573,"Ġsh":574,"ĠFalse":575,"ost":576,"Ġch":577,"con":578,"ĠB":579,"ER":580,"ule":581,"que":582,"op":583,"test":584,"for":585,"ĠW":586,"che":587,"Ġadd":588,"ite":589,"ci":590,"ON":591,"ph":592,"ersion":593,"Ġhe":594,"par":595,"Ġpar":596,"per":597,"red":598,"iz":599,"com":600,"Ġuser":601,"set":602,"Ġint":603,">>":604,"fig":605,"Ġra":606,"rint":607,"ĠU":608,"dir":609,"reate":610,"ang":611,"Ġobject":612,"unt":613,"Ġ@":614,"ssage":615,"ense":616,"pre":617,"path":618,"Ġexce":619,"ger":620,"Ġat":621,"Ġon":622,"ft":623,"Equal":624,"Ġ4":625,"Ġthis":626,"ĠRe":627,"lic":628,"os":629,"59":630,"Ġit":631,"stance":632,"Ġthat":633,"ms":634,"Ġ5":635,"res":636,"out":637,"atch":638,"Ġuse":639,"88":640,"IN":641,"Ġla":642,"Ġ`":643,"ty":644,"sy":645,"ust":646,"ain":647,"ans":648,"rent":649,"ES":650,"ile":651,"cess":652,"data":653,"Ġdo":654,"Ġwh":655,"ĠThe":656,"Ġlog":657,"Ġâĸģ\"":658,"ange":659,"oint":660,"Ġsy":661,"odule":662,"ive":663,"Ġline":664,"tab":665,"act":666,"Ġpa":667,"cted":668,"ore":669,"ary":670,"oo":671,"Ġkey":672,"url":673,"scri":674,"ff":675,"mple":676,"ĠV":677,"Ġlist":678,"Ġlen":679,"IS":680,"args":681,"IT":682,"AT":683,"ml":684,"quest":685,"ize":686,"init":687,"Ġ''":688,"mat":689,"Ġresult":690,"ble":691,"low":692,"mbol":693,"Ġen":694,"heck":695,"pon":696,"8859":697,"tp":698,"und":699,"01":700,"thod":701,"ca":702,"Ġappend":703,"Ġraise":704,"mo":705,"AR":706,"Ġby":707,"im":708,"Ġarray":709,"ind":710,"Ġoption":711,"tri":712,"ns":713,"Ġwe":714,"ings":715,"icense":716,"Ġsub":717,"Ġprint":718,"nk":719,"ump":720,"vice":721,"ield":722,"rame":723,"Ġ\\":724,"Ġro":725,"late":726,"Ġnew":727,"Ġup":728,"ĠTh":729,"stri":730,"roup":731,"ssion":732,"ape":733,"ens":734,"ta":735,"ĠH":736,"symbol":737,"Ġid":738,"Ġdefault":739,"ĠLicense":740,"form":741,"ader":742,"ave":743,"dex":744,"Ġne":745,"ream":746,"Ġstart":747,"pected":748,"ĠassertEqual":749,"list":750,"Ġexcept":751,"Ġmode":752,"ug":753,"Ġoutput":754,"LE":755,"Ġare":756,"sh":757,"pi":758,"error":759,"ils":760,"Ġtry":761,"Ġsu":762,"ill":763,"iv":764,"wa":765,"Ġz":766,"unction":767,"Ġjo":768,"col":769,"ild":770,"Ġargs":771,"vent":772,"md":773,"Ġconfig":774,"Ġop":775,"cl":776,"if":777,"ample":778,"ename":779,"ponse":780,"Ġpre":781,"bo":782,"mand":783,"tabsymbol":784,"ument":785,"xt":786,"def":787,"uct":788,"ory":789,"own":790,"pla":791,"OR":792,"Ġle":793,"rig":794,"alid":795,"Ġmodule":796,"mode":797,"mage":798,"ou":799,"arch":800,"Ġfil":801,"Ġcan":802,"ont":803,"Ġwr":804,"ĠThis":805,"gra":806,"qui":807,"Ġcheck":808,"UT":809,"Pro":810,"lement":811,"AN":812,"Ġstring":813,"Ġjoin":814,"EN":815,"Ġhas":816,"Ġ/":817,"son":818,"thon":819,"arget":820,"In":821,"Ġcreate":822,"db":823,"ned":824,"Re":825,"Ġcol":826,"Ġrun":827,"ree":828,"stribut":829,"cation":830,"Ġall":831,"cal":832,"ded":833,"time":834,"word":835,"lif":836,"ork":837,"param":838,"ity":839,"Ġsource":840,"rect":841,"attr":842,"umpy":843,"wargs":844,"Ġversion":845,"Ġ6":846,"TI":847,"Ġelif":848,"Ġmessage":849,"uld":850,"..":851,"Ġtime":852,"sent":853,"ari":854,"ces":855,"Ġpy":856,"Ġnode":857,"Ġnumpy":858,"user":859,"ition":860,"22":861,"dict":862,"Ġnum":863,"Ġbu":864,"state":865,"alm":866,"elds":867,"ber":868,"value":869,"ango":870,"Ġso":871,"Name":872,"ew":873,"jango":874,"Field":875,"ĠSe":876,"code":877,"cont":878,"cs":879,"lock":880,"peci":881,"array":882,"Ġ>>":883,"ator":884,"Ġcomp":885,"Ġrequest":886,"fix":887,"SE":888,"lib":889,"emp":890,"Ġ!":891,"ther":892,"Ġ>>>":893,"//":894,"ies":895,"Ġupdate":896,"nd":897,"Ġcur":898,"Ġarg":899,"ould":900,"right":901,"ste":902,"Ġnp":903,"Ġformat":904,"atus":905,"read":906,"Ġ**":907,"ant":908,"Ġcode":909,"ISO":910,"sed":911,"Ġrec":912,"scription":913,"Ġwill":914,"po":915,"ated":916,"://":917,"Ġcontext":918,"ll":919,"Ġite":920,"mail":921,"Ġread":922,"class":923,"Ġtr":924,"Ġext":925,"ĠIf":926,"Ġmo":927,"profile":928,"ĠIn":929,"True":930,"ĠTest":931,"Ġexpected":932,"Ġpl":933,"log":934,"Ġurl":935,"Ġsys":936,"val":937,"Ġdb":938,"tings":939,"tribut":940,"ial":941,"Ġpass":942,"Ġtext":943,"gth":944,"AL":945,"Ġkwargs":946,"app":947,"ations":948,"no":949,"Ġdict":950,"fe":951,"sg":952,"()":953,"Ġge":954,"Ġerror":955,"lient":956,"Ġ+=":957,"lit":958,"ntry":959,"ery":960,"Ġcontent":961,"Ġ7":962,"ound":963,"ww":964,"ard":965,"cut":966,"Ġser":967,"lean":968,"Ġmethod":969,"32":970,"ign":971,"``":972,"info":973,"mit":974,"not":975,"Ġsp":976,"----":977,"string":978,"ublic":979,"ken":980,"aliz":981,"ĠReturn":982,"ware":983,"Ġut":984,"count":985,"equal":986,"ag":987,"Ex":988,"back":989,"ible":990,"ight":991,"nection":992,"Ġfa":993,"load":994,"Ġ!=":995,"ask":996,"ap":997,"Ġtarget":998,"loat":999,".\"":1000,"port":1001,"Ġmatch":1002,"by":1003,"ttp":1004,"instance":1005,"Ġmsg":1006,"Ġstate":1007,"Ġ'''":1008,"ccess":1009,"rc":1010,"Ġ8":1011,"Ġend":1012,"Ġ>":1013,"Ġbase":1014,"Ġcmd":1015,"AC":1016,"Ġfunction":1017,"ID":1018,"Ġspeci":1019,"Ġevent":1020,"Ġ``":1021,"mi":1022,"Ġopt":1023,"Ġno":1024,"Ġinput":1025,"IC":1026,"man":1027,"ters":1028,"Ġshould":1029,"Ġstream":1030,"==":1031,"ifi":1032,"uth":1033,"Ġdis":1034,"ED":1035,"Ġtmp":1036,"Ġwrite":1037,"ET":1038,"Ġresponse":1039,"ull":1040,"add":1041,"Ġhave":1042,"present":1043,"version":1044,"Ġqu":1045,"ning":1046,"len":1047,"ng":1048,"Ġrequi":1049,"ackage":1050,"Ġorder":1051,"04":1052,"IG":1053,"99":1054,"default":1055,"perty":1056,"Cont":1057,"fields":1058,"types":1059,"Ġenc":1060,"Ġcopy":1061,"ook":1062,"min":1063,"De":1064,"Ġ'--":1065,"Test":1066,"da":1067,"Ġtable":1068,"Ġgroup":1069,"15":1070,"hort":1071,"AS":1072,"lect":1073,"Ġobjects":1074,"ener":1075,"ool":1076,"with":1077,"Ġany":1078,"ich":1079,"Ġoptions":1080,"ject":1081,"Ġother":1082,"ide":1083,"ists":1084,"Ġtrans":1085,"Ġper":1086,"Ġisinstance":1087,"ĠCON":1088,"Ġshape":1089,"Ġpart":1090,"lose":1091,"ir":1092,"Ġunder":1093,"ick":1094,"Ġman":1095,"',":1096,"bel":1097,"Ġvalues":1098,"bu":1099,"Ġdistribut":1100,"su":1101,"opy":1102,"sub":1103,"Ġndi":1104,"Type":1105,"ren":1106,"ine":1107,"led":1108,"Ġmax":1109,"21":1110,"org":1111,"RE":1112,"Ġfilename":1113,"Ġheader":1114,".'":1115,"Ġsearch":1116,"Ġlink":1117,"bs":1118,"ĠX":1119,"move":1120,"25":1121,"Se":1122,"Ġyou":1123,"Ġcurrent":1124,"ai":1125,"pr":1126,"do":1127,"Ġmat":1128,"pace":1129,"Ġfield":1130,"size":1131,"ST":1132,"fa":1133,"fil":1134,"use":1135,"AB":1136,"num":1137,"ong":1138,"Ġsplit":1139,"Ġtemp":1140,"Ġindex":1141,"Ġ10":1142,"Ġunit":1143,"rst":1144,"valid":1145,"ptions":1146,"Ġitem":1147,").":1148,"ors":1149,"Ġinit":1150,"'t":1151,"Ġmy":1152,"models":1153,"Ġcall":1154,"St":1155,"lete":1156,"Ġndimage":1157,"ote":1158,"ding":1159,"Ġframe":1160,"we":1161,"64":1162,"stall":1163,"ftware":1164,"ome":1165,"Ġchar":1166,"sing":1167,"stem":1168,"temp":1169,"ual":1170,"ert":1171,"Ġinter":1172,"IL":1173,"og":1174,"les":1175,"03":1176,"List":1177,"ariable":1178,"Ġspecifi":1179,"iew":1180,"tribute":1181,"row":1182,"ager":1183,"oding":1184,"ep":1185,"lease":1186,"http":1187,"lat":1188,"clu":1189,"Ġrecord":1190,"sp":1191,"Ġone":1192,"so":1193,"play":1194,"ameters":1195,"NU":1196,"bin":1197,"ĠEx":1198,"gn":1199,"link":1200,"ception":1201,"vel":1202,"iso":1203,"inal":1204,"AM":1205,"django":1206,"urse":1207,"Ġhttp":1208,"Ġwhich":1209,"Ġpoint":1210,"ress":1211,"Ġused":1212,"html":1213,"ac":1214,"Ġrange":1215,"Ġca":1216,"ical":1217,"table":1218,"ams":1219,"comp":1220,"ĠValue":1221,"),":1222,"Con":1223,"rol":1224,"ify":1225,"xy":1226,"ok":1227,"Ġcount":1228,"10":1229,"rt":1230,"lob":1231,"umn":1232,"Ġparse":1233,"Ġ->":1234,"Ġnumber":1235,"Ġsc":1236,"ld":1237,"Ġconnection":1238,"Ke":1239,"iven":1240,"Res":1241,"Ġsettings":1242,"ĠGener":1243,"abet":1244,"phabet":1245,"av":1246,"itle":1247,"Ġbut":1248,"Ġwork":1249,"Ġattr":1250,"json":1251,"ension":1252,"Ġargument":1253,"UL":1254,"unk":1255,"be":1256,"method":1257,"Ġsize":1258,"ĠDe":1259,"Ġgener":1260,"length":1261,"Ġgra":1262,"Ġonly":1263,"gram":1264,"ĠAN":1265,"ence":1266,"ĠReturns":1267,"Ġac":1268,"UR":1269,"ature":1270,"struct":1271,"Ġstatus":1272,"Ġfind":1273,"ak":1274,"Ġfloat":1275,"mon":1276,"ron":1277,"Ġopen":1278,"ecut":1279,"Ġrow":1280,"bum":1281,"ach":1282,"Ġcommand":1283,"'s":1284,"Str":1285,"idth":1286,"from":1287,"Ġ'%":1288,"Key":1289,"Ġ9":1290,"Ġmodels":1291,"unc":1292,"pport":1293,"ark":1294,"ix":1295,"=\"":1296,"Ġwar":1297,"almost":1298,"work":1299,"Ġreg":1300,"Ġelement":1301,"ĠY":1302,"pper":1303,"Ġfirst":1304,"Ġbuild":1305,"Ġcase":1306,"Com":1307,"har":1308,"ĠZ":1309,"ĠValueError":1310,"23":1311,"DE":1312,"RO":1313,"page":1314,"message":1315,"source":1316,"Ġver":1317,"ps":1318,"stream":1319,"Ġclient":1320,"Ġ-----":1321,"result":1322,"ĠSee":1323,"Mode":1324,"text":1325,"group":1326,"let":1327,"Ġgiven":1328,"index":1329,"Ġact":1330,"Ġcls":1331,"Ġmay":1332,"her":1333,"Ġcor":1334,"old":1335,"Ġheaders":1336,"Ġdescription":1337,"ĠPoint":1338,"rix":1339,"lable":1340,"ĠCom":1341,"Ġrequired":1342,"ient":1343,"lan":1344,"bug":1345,"config":1346,"ay":1347,"ili":1348,"ĠCon":1349,"mport":1350,"Ġnames":1351,"tern":1352,"Ġchange":1353,"Ġhead":1354,"CH":1355,"print":1356,"Ġaction":1357,"Ġinfo":1358,"uper":1359,"iter":1360,"Ġblock":1361,"ments":1362,"Ġdir":1363,"vert":1364,"ĠGNU":1365,"place":1366,"ĠQ":1367,"Ġwhe":1368,"ĠIN":1369,"Ġdoc":1370,"Ġquery":1371,"domain":1372,"cur":1373,"Ġwhen":1374,"OT":1375,"Ġhand":1376,"trans":1377,"frame":1378,"ING":1379,"86":1380,"ging":1381,"Ġfla":1382,"Ġfiles":1383,"Ġtoken":1384,"Ġdirect":1385,"Ġclose":1386,"lp":1387,"files":1388,"br":1389,"ose":1390,"Ġvalid":1391,"Not":1392,"Ġmi":1393,"ensor":1394,"HO":1395,"ref":1396,"err":1397,"Ġparent":1398,"ax":1399,"arg":1400,"Ġdevice":1401,"Ġpri":1402,"its":1403,"Ġparams":1404,"ENT":1405,"Ġq":1406,"lay":1407,"osition":1408,"yle":1409,"ones":1410,"Ġstat":1411,"Ġparser":1412,"ĠPublic":1413,"main":1414,"uster":1415,"cond":1416,"point":1417,"Ġdate":1418,"process":1419,"ake":1420,"swith":1421,"oly":1422,"Ġport":1423,"Ġlocal":1424,"ĠGeneral":1425,"Ġreq":1426,"Ġmust":1427,"Ġmake":1428,"Ġpython":1429,"('":1430,"create":1431,"Ġdistance":1432,"ved":1433,"Ġobj":1434,"char":1435,"Al":1436,"ody":1437,"pass":1438,"Ġextra":1439,"File":1440,"Ġval":1441,"mbda":1442,"AG":1443,"TY":1444,"www":1445,"Ġtra":1446,"orm":1447,"Ġbot":1448,"TION":1449,"uture":1450,"Ġcourse":1451,"max":1452,"ffer":1453,"af":1454,"Ġfe":1455,"Ġmore":1456,"ĠPro":1457,"ses":1458,"Ġsuper":1459,"Ġemail":1460,"Ġdtype":1461,"icode":1462,"ĠGet":1463,"TER":1464,"*-":1465,"uid":1466,"trl":1467,"inter":1468,"wer":1469,"Ġword":1470,"Ġ-*-":1471,"phones":1472,"Ġexception":1473,"ION":1474,"At":1475,"Ġentry":1476,"Ġlogger":1477,"content":1478,"ĠCONF":1479,"29":1480,"Ar":1481,"less":1482,"Ġdjango":1483,"ĠOF":1484,"io":1485,"quence":1486,"ĠPy":1487,"of":1488,"clude":1489,"Ġheadphones":1490,"pec":1491,"map":1492,"viron":1493,"mission":1494,"\",":1495,"Ġselect":1496,"Ġcohort":1497,":`":1498,"Ġsend":1499,"igr":1500,"Ġenv":1501,"Ġfilter":1502,"Ġtab":1503,"Ġtool":1504,"Ġhost":1505,"tocol":1506,"Ġlines":1507,"Ġ'/":1508,"Ġover":1509,"pri":1510,"Ġter":1511,"Ġorig":1512,"alidate":1513,"ifest":1514,"Ġfail":1515,"06":1516,"Man":1517,"cket":1518,"ĠOR":1519,"Ġlambda":1520,"Ġdoes":1521,"store":1522,"ĠAl":1523,"cale":1524,"ton":1525,"0000":1526,"ĠUn":1527,"lated":1528,"aise":1529,"Ġcoord":1530,"python":1531,"ches":1532,"msg":1533,"Ġlast":1534,"rite":1535,"api":1536,"mary":1537,"reg":1538,"ater":1539,"Ġdest":1540,"ĠCopy":1541,"Ġprovi":1542,"cre":1543,"Ġencoding":1544,"11":1545,"ĠJ":1546,"base":1547,"cate":1548,"ink":1549,"Ġinstance":1550,"ither":1551,"Ġhelp":1552,"den":1553,"Ġremove":1554,"andom":1555,"Ġservice":1556,"ializ":1557,"Ġimage":1558,"HE":1559,"Me":1560,"xml":1561,"Ġmin":1562,")'":1563,"ice":1564,"start":1565,"Ġax":1566,"Ġcl":1567,"Ġback":1568,"ĠCreate":1569,"Ġsystem":1570,"tails":1571,"09":1572,"Ġrepresent":1573,"Ġed":1574,"Model":1575,"ting":1576,"Ġtag":1577,"uration":1578,"ubli":1579,"Ġserver":1580,"eger":1581,"ties":1582,"stat":1583,"Ġcal":1584,"ids":1585,"Ġjson":1586,"AP":1587,"flow":1588,"sk":1589,"Ġcontain":1590,"Ġapply":1591,"script":1592,"ML":1593,"fy":1594,"nown":1595,"names":1596,"Ġfol":1597,"ĠFor":1598,"Ġstruct":1599,"Case":1600,"na":1601,"Ġpackage":1602,"Ġroot":1603,"Ġsupport":1604,"ler":1605,"lection":1606,"rid":1607,"To":1608,"ster":1609,"hed":1610,"ĠSt":1611,"perties":1612,"cache":1613,"))":1614,"nal":1615,"stro":1616,"uto":1617,"ĠType":1618,"abel":1619,"):":1620,"56":1621,"part":1622,"parse":1623,"02":1624,"call":1625,"ux":1626,"Ġ\"%":1627,"ĠStr":1628,"ĠCONFIG":1629,"TH":1630,"OD":1631,"ud":1632,"EST":1633,"bose":1634,"ĠAC":1635,"Ġ201":1636,"Set":1637,"Ġexecut":1638,"example":1639,"14":1640,"RAN":1641,"hs":1642,"obj":1643,"Ġali":1644,"Ġ'-":1645,"Ġreplace":1646,"dist":1647,"ustom":1648,"ĠCopyright":1649,"function":1650,"Ġexists":1651,"Ġdist":1652,"pl":1653,"Ġ|":1654,"install":1655,"Ġav":1656,"ped":1657,"Ġprogram":1658,"ESS":1659,"='":1660,"chain":1661,"adata":1662,"Ġdistributed":1663,"12":1664,"Un":1665,"inate":1666,"pen":1667,"uage":1668,"ĠassertTrue":1669,"actory":1670,"ys":1671,"only":1672,"Ġeither":1673,"ĠSet":1674,"anguage":1675,"ffix":1676,"ven":1677,"Ġ'\\":1678,"ingle":1679,"IM":1680,"host":1681,"rec":1682,"Ġconf":1683,"TT":1684,"oot":1685,"Ġsee":1686,"Ġload":1687,"ĠWe":1688,"Ġabs":1689,"Ġpat":1690,"Ġpop":1691,"ash":1692,"Ġmodel":1693,"ownload":1694,"Ġcharact":1695,"OP":1696,"cy":1697,"vis":1698,"ript":1699,"fore":1700,"ĠANY":1701,"16":1702,"EC":1703,"lied":1704,"Ġass":1705,"Ġpost":1706,"lot":1707,"Ġlower":1708,"Ġmodi":1709,"US":1710,"Ġad":1711,"Ġ200":1712,"Ġfields":1713,"ĠSeq":1714,"module":1715,"Ġlabel":1716,"cept":1717,"Ġexist":1718,"Ġstartswith":1719,"yn":1720,"DB":1721,"cp":1722,"Ġrealm":1723,"ric":1724,"label":1725,"ipient":1726,"Ġwhile":1727,"Ġent":1728,"Ġcontin":1729,"ĠUser":1730,"ITY":1731,"aises":1732,"LO":1733,"Ġiter":1734,"ATE":1735,"run":1736,"email":1737,"import":1738,"Ġexit":1739,"onent":1740,"Ġsoftware":1741,")\"":1742,"Co":1743,"distribut":1744,"inary":1745,"Ġcr":1746,"dis":1747,"Ser":1748,"wit":1749,"Ġdiff":1750,"Ġkeys":1751,"Control":1752,"55":1753,"Ġusing":1754,"Ġresults":1755,"Ġauth":1756,"level":1757,"ĠWAR":1758,"feren":1759,"Ġutils":1760,"ĠLabel":1761,"Ġspecified":1762,"Par":1763,"Ġsrc":1764,"Ġdetails":1765,"ute":1766,"Ġitems":1767,"node":1768,"uple":1769,"Ġwithout":1770,"SS":1771,"event":1772,"Ġag":1773,"Ġ'.":1774,"mpty":1775,"ĠEntry":1776,"ops":1777,"ĠWIT":1778,"formation":1779,"order":1780,"coord":1781,"check":1782,"13":1783,"20":1784,"ique":1785,"Ġright":1786,"enu":1787,"Ġdebug":1788,"Ġmigr":1789,"ĠSo":1790,"shape":1791,"rtist":1792,"ĠYou":1793,"::":1794,"location":1795,"otal":1796,"ĠPar":1797,"ĠString":1798,"lines":1799,"Ġinsert":1800,"ister":1801,"Ġmain":1802,"my":1803,"Ġlimit":1804,"tributes":1805,"18":1806,"Lo":1807,"eg":1808,"ear":1809,"ql":1810,"tadata":1811,"atab":1812,"Ġfound":1813,"cent":1814,"pping":1815,"Ġmatrix":1816,"Ġcache":1817,"Ġcontinue":1818,"Id":1819,"aj":1820,"gment":1821,"ulti":1822,"Ġtypes":1823,"Ġlogging":1824,"words":1825,"lobal":1826,"PO":1827,"object":1828,"Ġnon":1829,"Ġbody":1830,"abled":1831,"Ġdistribution":1832,"ĠWARRAN":1833,"atabase":1834,"bit":1835,"bot":1836,"input":1837,"Ġsequence":1838,"Ġalphabet":1839,"ugin":1840,"Ġsession":1841,"eros":1842,"Ġvar":1843,"\")":1844,"19":1845,"UP":1846,"Ġerr":1847,"Ġ100":1848,"Ġtop":1849,"conf":1850,"Ġinto":1851,"Ġenviron":1852,"}'":1853,"verse":1854,"Ġattribute":1855,"ĠTypeError":1856,"package":1857,"txt":1858,"ous":1859,"status":1860,"Ġeach":1861,"ush":1862,"face":1863,"Di":1864,"Ġsk":1865,"Ġwas":1866,"Ġproperty":1867,"08":1868,"ĠK":1869,"Ġ'_":1870,"Ġvariable":1871,"Ġthen":1872,"Example":1873,"Ġdisplay":1874,"dition":1875,"Ġsort":1876,"UTF":1877,"ale":1878,"net":1879,"env":1880,"Ġret":1881,"Ġob":1882,"']":1883,"73":1884,"FI":1885,"request":1886,"Ġpubli":1887,"phic":1888,"Data":1889,"OM":1890,"ful":1891,"imple":1892,"core":1893,"Ġprocess":1894,"Ġallow":1895,"build":1896,"Ġfollow":1897,"(\"":1898,"24":1899,"ui":1900,"Ġab":1901,"Def":1902,"template":1903,"ĠException":1904,"Ġexp":1905,"Ġgo":1906,"update":1907,"inition":1908,"opt":1909,"tes":1910,"raw":1911,"Ġstrip":1912,"Ġneed":1913,"filter":1914,"Frame":1915,"PL":1916,"ĠAP":1917,"AA":1918,"pk":1919,"sv":1920,"Ġpage":1921,"Ġold":1922,"ell":1923,"Ġlocation":1924,"tem":1925,"Ġcluster":1926,"aint":1927,"Ġsave":1928,"utf":1929,"ĠassertR":1930,"ĠAdd":1931,"view":1932,"ification":1933,"filename":1934,"Ġdocument":1935,"Ġdirectory":1936,"Ġinformation":1937,"entry":1938,"Ġmap":1939,"Ġcolor":1940,"View":1941,"turned":1942,"erson":1943,"Ġresource":1944,"====":1945,"Ġunittest":1946,"Ġdatetime":1947,"Int":1948,"Ġdomain":1949,"Ġstd":1950,"indow":1951,"05":1952,"AD":1953,"IR":1954,"reak":1955,"ative":1956,"ĠInt":1957,"paces":1958,"'\"":1959,"27":1960,"ope":1961,"Ġsingle":1962,"property":1963,"license":1964,"ME":1965,"Ġbool":1966,"change":1967,"ĠAr":1968,"foo":1969,"bar":1970,"ie":1971,"mote":1972,"nder":1973,"public":1974,"var":1975,"Ġwidth":1976,"Ġview":1977,"Ġsame":1978,"Ġnow":1979,"rializ":1980,"umns":1981,"settings":1982,"Ġtemplate":1983,"Response":1984,"Ġul":1985,"Ġlength":1986,"Ġnext":1987,"Up":1988,"wo":1989,"Ġtitle":1990,"Ġreturned":1991,"Ġtests":1992,"Ġmigrations":1993,"ĠSoftware":1994,"OL":1995,"target":1996,"return":1997,"utils":1998,"FT":1999,"Fe":2000,"TR":2001,"ib":2002,"Ġ...":2003,"Ġxml":2004,"IB":2005,"}\"":2006,"stack":2007,"Ġfull":2008,"ility":2009,"options":2010,"ĠBase":2011,"iled":2012,"77":2013,"PE":2014,"Th":2015,"auth":2016,"future":2017,"ian":2018,"nect":2019,"related":2020,"straint":2021,"roll":2022,"ugh":2023,"ier":2024,"ock":2025,"space":2026,"requi":2027,"lex":2028,"Ġ--":2029,"Ġthread":2030,"Ġusername":2031,"harField":2032,"math":2033,"Ġyour":2034,"xture":2035,"ailable":2036,"transform":2037,"angle":2038,"untime":2039,"gle":2040,"ating":2041,"Ġ>=":2042,"ĠassertRaises":2043,"33":2044,"</":2045,"EX":2046,"cohort":2047,"oolean":2048,"Ġwrit":2049,"binary":2050,"TTP":2051,"now":2052,"write":2053,"Ġapi":2054,"Ġmark":2055,"Ġrandom":2056,"ĠOTH":2057,"')":2058,"66":2059,"cor":2060,"fr":2061,"option":2062,"sta":2063,"release":2064,"Ġindi":2065,"Ġbreak":2066,"Ġcoding":2067,"Value":2068,"variable":2069,"alk":2070,"ract":2071,"ĠTHE":2072,"lication":2073,"54":2074,"duct":2075,"hape":2076,"ined":2077,"Ġet":2078,"ĠRE":2079,"Ġoptional":2080,"28":2081,"nex":2082,"ling":2083,"Ġrece":2084,"Ġrepo":2085,"field":2086,"Ġzip":2087,"78":2088,"Ġparameters":2089,"Ġactual":2090,"Ġpo":2091,"Ġdelete":2092,"Ġprefix":2093,"HOUT":2094,"False":2095,"UN":2096,"action":2097,"stant":2098,"Ġident":2099,"Ġremote":2100,"Ġbinary":2101,"las":2102,"Ġform":2103,"Ġstyle":2104,"\":":2105,"FF":2106,"RL":2107,"uble":2108,"0001":2109,"pache":2110,"ched":2111,"Ġhere":2112,"Ġwhere":2113,"ĠPython":2114,"ĠWITHOUT":2115,"ĠAt":2116,"ĠMe":2117,"manager":2118,"AME":2119,"Command":2120,"Ġskip":2121,"['":2122,"fter":2123,"pos":2124,"ctype":2125,"ĠFOR":2126,"exists":2127,"Ġunicode":2128,"Ġyield":2129,"fla":2130,"oc":2131,"sum":2132,"Ġpt":2133,"Ġpack":2134,"Ġref":2135,"rapper":2136,"Ġarch":2137,"Ġcondition":2138,"Ġpaths":2139,"amples":2140,">'":2141,"Qu":2142,"cmd":2143,"Ġfinal":2144,"server":2145,"Ġproxy":2146,"Ġwarn":2147,"vision":2148,"Vt":2149,"oid":2150,"the":2151,"ĠKey":2152,"Ġsuccess":2153,"ILITY":2154,"Ġarguments":2155,"38":2156,"Ġinclude":2157,"Ġimplied":2158,"top":2159,"button":2160,"Ġits":2161,"apt":2162,"Ã©":2163,"like":2164,"Ġsecond":2165,"Ġfoot":2166,"try":2167,"project":2168,"color":2169,"match":2170,"Ġtask":2171,"als":2172,"Ġpermission":2173,"argument":2174,"201":2175,"34":2176,"=%":2177,"cul":2178,"Ġpas":2179,"Ġdel":2180,"derr":2181,"ĠLo":2182,"image":2183,"Ġhandle":2184,"`.":2185,"spec":2186,"Ġuid":2187,"output":2188,"Ġscript":2189,"ULT":2190,"39":2191,"Pose":2192,"hook":2193,"box":2194,"lative":2195,"Ġterms":2196,"74":2197,"can":2198,"client":2199,"ran":2200,"rans":2201,"sr":2202,"Ġsign":2203,"Ġvalidate":2204,"ĠLO":2205,"Ġproject":2206,"params":2207,"lank":2208,".,":2209,"Out":2210,"nel":2211,"Ġside":2212,"tool":2213,"command":2214,"resh":2215,"Ġutf":2216,"ights":2217,"password":2218,"ference":2219,"licenses":2220,"Base":2221,"Hand":2222,"Text":2223,"seq":2224,"ĠFound":2225,"ĠURL":2226,"ĠassertEquals":2227,"Ġmessages":2228,"Ġmock":2229,"ifier":2230,"Attr":2231,"ait":2232,"block":2233,"Ġdim":2234,"Ġconvert":2235,"format":2236,"structor":2237,"stats":2238,"Coord":2239,"Ġfollowing":2240,"wise":2241,"Ġ'__":2242,"Ġsome":2243,"ĠCtrl":2244,"agement":2245,"ĠAn":2246,"Seq":2247,"CT":2248,"cle":2249,"jo":2250,"range":2251,"self":2252,"Ġoper":2253,"util":2254,"Ġbet":2255,"loud":2256,"pute":2257,"Ġchunk":2258,"Ġleft":2259,"Ġtransform":2260,"Ġpattern":2261,"\"'":2262,"down":2263,"vor":2264,"ĠNot":2265,"Ġexpr":2266,"ĠST":2267,"item":2268,"scrib":2269,"Ġcolumn":2270,"200":2271,"ted":2272,"des":2273,"Ġthere":2274,"direct":2275,"older":2276,"ĠCheck":2277,"Ġlanguage":2278,"ĠDE":2279,"active":2280,"Ġconfigure":2281,"Ġpassword":2282,"number":2283,"Ġinitial":2284,"Ġspecific":2285,"header":2286,"ĠName":2287,"pare":2288,"axis":2289,"tra":2290,"Ġtuple":2291,"local":2292,"ries":2293,"Ġexpre":2294,"Ġcommon":2295,"undle":2296,"Ġops":2297,"Ġmodify":2298,"IO":2299,"LL":2300,"udent":2301,"Ġsum":2302,"gener":2303,"root":2304,"ĠRun":2305,"ANT":2306,"stal":2307,"arning":2308,"rap":2309,"__'":2310,"Ġcompile":2311,"func":2312,"Ġdtypes":2313,"fied":2314,"eta":2315,"Ġbeen":2316,"ABILITY":2317,"ĠCommand":2318,"Ġvalve":2319,"Ġcharacter":2320,"Ġdiffe":2321,"ĠFoundation":2322,"kwargs":2323,"make":2324,"oom":2325,"Ġfree":2326,"Ġpla":2327,"Ġglobal":2328,"Ġlike":2329,"keys":2330,"Ġtimeout":2331,"Types":2332,"ainer":2333,"/'":2334,"FA":2335,"MA":2336,"ox":2337,"description":2338,"Ġow":2339,"ĠIS":2340,"TIC":2341,"Ġextension":2342,"Ġcallback":2343,"account":2344,"String":2345,"nexpected":2346,"75":2347,"SC":2348,"book":2349,"Ġ12":2350,"ason":2351,"response":2352,"Ġnet":2353,"values":2354,"ec":2355,"gory":2356,"ia":2357,"ky":2358,"Ġ$":2359,"pect":2360,"oogle":2361,"tag":2362,"Ġrecipient":2363,"'\\":2364,"HER":2365,"hand":2366,"Ġtf":2367,"Ġiss":2368,"Ġempty":2369,"Ġalso":2370,"imum":2371,"Ġhash":2372,"Ġmanifest":2373,"Ġedge":2374,"Le":2375,"ik":2376,"wd":2377,"Ġtree":2378,"left":2379,"Ġ\"-":2380,"ssing":2381,"Ġjust":2382,"datetime":2383,"queue":2384,"Ġerrors":2385,"Ġopts":2386,"NAME":2387,"afe":2388,"case":2389,"null":2390,"Ġclean":2391,"ĠArtist":2392,"Ġbefore":2393,"open":2394,"column":2395,"Ġencode":2396,"Ġflags":2397,"Ġtoolchain":2398,"Ġstdout":2399,"Ġpassed":2400,"(?":2401,".*":2402,"used":2403,"session":2404,"Ġcustom":2405,"doc":2406,"Ġfootprint":2407,"CL":2408,"du":2409,"Ġeven":2410,"Ġwant":2411,"Ġaddress":2412,"cause":2413,"ĠHTTP":2414,"ABLE":2415,"Foo":2416,"Ġcm":2417,"Ġft":2418,"aly":2419,"ĠAll":2420,"ĠFree":2421,"Ġsuffix":2422,"Ġpartic":2423,"Ġstatic":2424,"':":2425,"Ch":2426,"Object":2427,"gw":2428,"Ġaut":2429,"ameter":2430,"Ġoff":2431,"ics":2432,"nsible":2433,"Ġhasattr":2434,"Ġpytest":2435,"Ġplt":2436,"Ġoriginal":2437,"Ġstructure":2438,"aw":2439,"nor":2440,"Ġ<=":2441,"metadata":2442,"very":2443,"rypt":2444,"([":2445,"En":2446,"Option":2447,"ze":2448,"style":2449,"Ġtensor":2450,"tests":2451,"ALL":2452,"ĠAPI":2453,"Ctrl":2454,"ast":2455,"Ġta":2456,"Ġtotal":2457,"Ġaccess":2458,"Ġreturns":2459,"Ġstack":2460,"ctionary":2461,"model":2462,"ready":2463,"Ġcoordinate":2464,"pc":2465,"rm":2466,"Ġte":2467,"Ġreport":2468,"Ġrelative":2469,"Ġexc":2470,"ived":2471,"pose":2472,"ICEN":2473,"Message":2474,"79":2475,"Run":2476,"pat":2477,"Ġsection":2478,"Ġ'<":2479,"ged":2480,"Ġinv":2481,"Ġinstall":2482,"Ġthan":2483,"Ġsubprocess":2484,"Ġchanged":2485,"ICENSE":2486,"Class":2487,"IV":2488,"Poly":2489,"gt":2490,"si":2491,"rib":2492,"idget":2493,"Ġstderr":2494,"Ġgetattr":2495,"ĠPAR":2496,"Ġart":2497,"INE":2498,"apk":2499,"Ġgenerate":2500,"roller":2501,"Query":2502,"69":2503,"RU":2504,"Time":2505,"float":2506,"ices":2507,"Ġafter":2508,"meta":2509,"Ġeval":2510,"ĠAnsible":2511,"Ġlock":2512,"...":2513,"84":2514,"df":2515,"width":2516,"Ġmath":2517,"Ġlater":2518,"ĠHttp":2519,"Protocol":2520,"Ġrequire":2521,"ĠmyDB":2522,"ween":2523,"ĠParameters":2524,"Factory":2525,"GG":2526,"eded":2527,"Ġindent":2528,"ĠcCtrl":2529,"Ġtok":2530,"ĠNOT":2531,"ĠCol":2532,"ĠSource":2533,"ultip":2534,"Ġgdata":2535,"Ġlook":2536,"cii":2537,"Ġidx":2538,"graph":2539,"gnore":2540,"Ġpoints":2541,"atures":2542,"Ġverbose":2543,"Ġdifferent":2544,"mod":2545,"Ġtwo":2546,"arm":2547,"olute":2548,"Ġupdated":2549,"Ġreal":2550,"Ġsim":2551,"gex":2552,"ĠText":2553,"ĠCh":2554,"layer":2555,"Ġexisting":2556,"kyCoord":2557,"ĠcCtrlName":2558,"The":2559,"big":2560,"neric":2561,"stop":2562,"Ġdon":2563,"Ġdownload":2564,"Ġdatabase":2565,"Ġbatch":2566,"Ġanch":2567,"ERS":2568,"Ġzeros":2569,"Ġcolumns":2570,"context":2571,"stead":2572,"Ġextend":2573,"Ġavailable":2574,"KE":2575,"gor":2576,"erry":2577,"Ġcherry":2578,"IND":2579,"ĠTestCase":2580,"Ġcommands":2581,"Ġdirname":2582,"Ġfeed":2583,"Ġcherrypy":2584,"Item":2585,"tree":2586,"Ġctypes":2587,"iler":2588,"units":2589,"Ġstop":2590,"ĠID":2591,"Ġlib":2592,"scale":2593,"Ġshow":2594,"cons":2595,"Ġenable":2596,"TestCase":2597,"Manager":2598,"task":2599,"vate":2600,"erred":2601,"Ġvis":2602,"true":2603,"Ġlic":2604,"tein":2605,"Ġalbum":2606,"respon":2607,"Ġaccount":2608,"ĠArgs":2609,"aptly":2610,"Ġbetween":2611,"**":2612,"NA":2613,"ass":2614,"dna":2615,"Ġtrue":2616,"Ġbecause":2617,"font":2618,"URL":2619,"ĠMessage":2620,"Ġanchor":2621,"Host":2622,"Ġap":2623,"Ġ\"/":2624,"distance":2625,"Ġht":2626,"Ġgold":2627,"Proto":2628,"Ġnamespaces":2629,"QU":2630,"are":2631,"Ġ&":2632,"realm":2633,"Ġcle":2634,"Ġclo":2635,"rough":2636,"Ġstep":2637,"ĠIt":2638,"ĠLET":2639,"properties":2640,"Ġunique":2641,"88591":2642,"Ġconfiguration":2643,"Ġoptdict":2644,"ODO":2645,"ĠLETTER":2646,"CC":2647,"From":2648,"ffi":2649,"go":2650,"zip":2651,"lice":2652,"report":2653,"Ġtake":2654,"stropy":2655,"ĠpVt":2656,"igned":2657,"Ġxb":2658,"usr":2659,"Ġexceptions":2660,"Ġplat":2661,"Ġmethods":2662,"Ġverify":2663,"brary":2664,"witter":2665,"lasses":2666,"17":2667,"mc":2668,"mal":2669,"ten":2670,"title":2671,"ward":2672,"walk":2673,"Ġur":2674,"Ġcert":2675,"ions":2676,"served":2677,"Ġcore":2678,"ular":2679,"Ġimplement":2680,"scal":2681,"Ġradi":2682,"logger":2683,"feed":2684,"Ġdisable":2685,"Ġcalled":2686,"record":2687,"stalled":2688,"ds":2689,"gb":2690,"vers":2691,"xb":2692,"Ġke":2693,"Ġrepr":2694,"Ġinnor":2695,"ĠTODO":2696,"Ġans":2697,"ather":2698,"Ġdictionary":2699,"Ġalong":2700,"Ġalready":2701,"ĠEX":2702,"Ġuseful":2703,"Ġenum":2704,"Exception":2705,"Ġreceived":2706,"Ġinnorow":2707,"07":2708,"Cmd":2709,"cule":2710,"hen":2711,"yp":2712,"dered":2713,"search":2714,"Ġsess":2715,"Ġpe":2716,"Ġredistribut":2717,"ites":2718,"edi":2719,"Ġcomponent":2720,"Ġlicense":2721,"26":2722,"NESS":2723,"Point":2724,"PAT":2725,"\\\\":2726,"med":2727,"alt":2728,"ĠDef":2729,"58":2730,"CS":2731,"IP":2732,"UB":2733,"side":2734,"shed":2735,"Ġpos":2736,"Ġlevel":2737,"TIES":2738,"43":2739,"For":2740,"Hel":2741,"SON":2742,"blank":2743,"eur":2744,"device":2745,"lecule":2746,"Ġpin":2747,"ĠNote":2748,"Ġexample":2749,"ĠCont":2750,"ĠFIT":2751,"asic":2752,"ector":2753,"ĠMER":2754,"Ġutil":2755,"CHANT":2756,"Ġwords":2757,"Ġprovided":2758,"Ġaxis":2759,"ĠFITNESS":2760,"ĠMERCHANT":2761,"125":2762,"CharField":2763,"None":2764,"OS":2765,"QL":2766,"Version":2767,"gp":2768,"reen":2769,"Ġfunc":2770,"Ġreason":2771,"Ġinstead":2772,"Ġdefined":2773,"ĠcmdStr":2774,"Ġfunctions":2775,"ificate":2776,"address":2777,"Ġrows":2778,"Service":2779,"Ġplatform":2780,"=?":2781,"clean":2782,"gon":2783,"mor":2784,"mark":2785,"other":2786,"rant":2787,"vey":2788,"ĠPUR":2789,"Ġlocale":2790,"Ġproduct":2791,"Ġmetri":2792,"ĠUse":2793,"ULAR":2794,"Ġorigin":2795,"POSE":2796,"TICULAR":2797,"ĠPARTICULAR":2798,"ĠPURPOSE":2799,"RES":2800,"element":2801,"pid":2802,"Ġseg":2803,"Ġip":2804,"Ġsche":2805,"Ġbundle":2806,"ĠAR":2807,"ending":2808,"ĠGuid":2809,"items":2810,"Ġusers":2811,"Ġ!/":2812,"Ġplan":2813,"ĠMERCHANTABILITY":2814,"Path":2815,"Position":2816,"Source":2817,"])":2818,"ipe":2819,"orld":2820,"Ġcre":2821,"Ġfname":2822,"Ġnor":2823,"Ġ15":2824,"didate":2825,"ĠSer":2826,"Ġ20":2827,"Ġchild":2828,"oreign":2829,"Config":2830,"Ġabsolute":2831,"*'":2832,"EM":2833,"dy":2834,"sor":2835,"sure":2836,"Ġrender":2837,"Ġinclu":2838,"Ġ11":2839,"prec":2840,"itional":2841,"empty":2842,"Ġaccept":2843,"Ġblocks":2844,"ĠWARRANTIES":2845,"Ġowner":2846,":'":2847,"No":2848,"section":2849,"round":2850,"Ġwait":2851,"diff":2852,"chan":2853,"igh":2854,"Ġshort":2855,"ATION":2856,"Content":2857,"ĠXML":2858,"Ġmatches":2859,"Ġinitializ":2860,"Ġpublished":2861,"VH":2862,"XX":2863,"sl":2864,"Ġabo":2865,"Ġ'.'":2866,"Ġest":2867,"maver":2868,"ĠsetUp":2869,"Ġcompute":2870,"Ġweb":2871,"ierarch":2872,"stamp":2873,"ultiple":2874,"maverick":2875,"EL":2876,"gin":2877,"oice":2878,"Ġ',":2879,"Ġmer":2880,"Ġ16":2881,"ategory":2882,"copy":2883,"Ġmaster":2884,"prefix":2885,"Ġargv":2886,"success":2887,"egerField":2888,"ĠAttribute":2889,"OK":2890,"fg":2891,"ha":2892,"tain":2893,"lip":2894,"Ġnd":2895,"Ġthey":2896,"Ġvot":2897,"admin":2898,"Ġsetup":2899,"Ġmapping":2900,"ways":2901,"Ġchecked":2902,"ariant":2903,"pool":2904,"Ġsupported":2905,"display":2906,"opts":2907,"Ġredistribute":2908,"36":2909,"He":2910,"Log":2911,"dil":2912,"dev":2913,"serializ":2914,"Ġauto":2915,"Ġsepar":2916,"Ġmon":2917,"pth":2918,"thing":2919,"Ġkaj":2920,"token":2921,"board":2922,"manifest":2923,"Ġgraph":2924,"Ġexecute":2925,"Ġabove":2926,"Bu":2927,"FL":2928,"HT":2929,"Plan":2930,"js":2931,"kt":2932,"tect":2933,"Ġtb":2934,"Ġpool":2935,"alog":2936,"Ġrep":2937,"Ġreverse":2938,"Ġdeg":2939,"Ġdump":2940,"Ġthem":2941,"ĠTo":2942,"Ġcreated":2943,"Ġedit":2944,"ĠACTION":2945,"Unless":2946,"ĠWARRANTY":2947,"OW":2948,"ts":2949,"xf":2950,"remove":2951,"hent":2952,"Ġrel":2953,"Ġreset":2954,"Ġrelease":2955,"Ġsin":2956,"Ġsql":2957,"Ġdecode":2958,"Ġgrid":2959,"Ġconnect":2960,"ases":2961,"cimal":2962,"resource":2963,"Ġwriter":2964,"Ġcorrect":2965,"morphic":2966,"oreignKey":2967,"96":2968,"Bar":2969,"OC":2970,"Shape":2971,"acl":2972,"pack":2973,"Ġfn":2974,"urrent":2975,"Ġinvalid":2976,"Ġdefinition":2977,"ulator":2978,"ĠField":2979,"ĠList":2980,"ĠDo":2981,"ERR":2982,"--------":2983,"Ġgroups":2984,"Ġgenerated":2985,"Ġregister":2986,"Ġauthor":2987,"required":2988,"Ġconditions":2989,"ĠArtistID":2990,">\"":2991,"IX":2992,"Page":2993,"plot":2994,"xwalk":2995,"lint":2996,"Ġmask":2997,"Ġrule":2998,"Ġraw":2999,"Ġbuffer":3000,"nored":3001,"Ġlinkage":3002,"Ġprovider":3003,"callback":3004,"Parser":3005,"euro":3006,"JK":3007,"Te":3008,"UG":3009,"tmp":3010,"del":3011,"send":3012,"raise":3013,"dian":3014,"ĠCTypes":3015,"Ġruntime":3016,"ĠVersion":3017,"Ġservices":3018,"Ġwarnings":3019,"FAULT":3020,"Polymorphic":3021,"Check":3022,"hash":3023,"va":3024,"delete":3025,"orage":3026,"Ġposition":3027,"Ġws":3028,"ish":3029,"Ġresol":3030,"Equals":3031,"licy":3032,"Ġbytes":3033,"Ġ\\\"":3034,"Info":3035,"Ġnodes":3036,"dists":3037,"Ġansible":3038,"hentic":3039,"/>":3040,"uz":3041,"ression":3042,"oll":3043,"ĠSM":3044,"ĠLog":3045,"acts":3046,"Ġensure":3047,"Ġwarrant":3048,"cret":3049,"Ġcontaining":3050,"Ġidentifier":3051,"Ġnetwork":3052,"((":3053,"Add":3054,"Gra":3055,"nl":3056,"tt":3057,"orig":3058,"Ġfont":3059,"ĠTEST":3060,"Ġgui":3061,"Ġconstraint":3062,"ERV":3063,"Ġleaf":3064,"Context":3065,"Ġactive":3066,"Trans":3067,"fft":3068,"mm":3069,"src":3070,"Ġ..":3071,"Ġfd":3072,"ency":3073,"Ġesc":3074,"Ġdst":3075,"Ġmut":3076,"Ġupper":3077,"Ġforce":3078,"ily":3079,"cker":3080,"cope":3081,"ĠOpen":3082,"Ġplugin":3083,"ĠAND":3084,"ĠColumn":3085,"Ġwarranty":3086,":%":3087,"App":3088,"Can":3089,"Or":3090,"Ppi":3091,"aut":3092,"access":3093,"cc":3094,"close":3095,"ift":3096,"ja":3097,"sink":3098,"ussion":3099,"{}":3100,"Ġignore":3101,"Ġfun":3102,"Ġsample":3103,"Ġdns":3104,"ĠClean":3105,"Ġkw":3106,"Ġker":3107,"ngle":3108,"Ġelements":3109,"Ġassign":3110,"UPAC":3111,"/%":3112,"30":3113,"Node":3114,"UD":3115,"User":3116,"]'":3117,"cd":3118,"pm":3119,"ru":3120,"Ġctxt":3121,"Ġni":3122,"ilt":3123,"ĠSkyCoord":3124,"Ġâĸģ'%":3125,"come":3126,"Ġattributes":3127,"Result":3128,"Ġsorted":3129,"Ġobtain":3130,"Ġpublish":3131,"Ġparticles":3132,"ProtoEquals":3133,"MM":3134,"NS":3135,"dle":3136,"gen":3137,"rtype":3138,"uc":3139,"defi":3140,"Ġsix":3141,"Ġstore":3142,"andard":3143,"ĠDi":3144,"sets":3145,"system":3146,"Property":3147,"Index":3148,"Ġcollection":3149,"Ġdoesn":3150,"ĠAlbum":3151,"44":3152,"CE":3153,"Date":3154,"Link":3155,"PC":3156,"istr":3157,"ume":3158,"liance":3159,"Ġui":3160,"Ġfixture":3161,"course":3162,"ĠData":3163,"Ġapplic":3164,"INT":3165,"blem":3166,"Ġcontents":3167,"Ġrepresentation":3168,"culate":3169,"ProtocolPpi":3170,"Ġtokens":3171,"ĠGuidProtocolPpi":3172,"aa":3173,"Ġsent":3174,"ssible":3175,"river":3176,"child":3177,"thick":3178,"Ġhope":3179,"ĠassertProtoEquals":3180,"proxy":3181,"allback":3182,"Ġmove":3183,"``.":3184,"State":3185,"Ġcorrespon":3186,"Dict":3187,"Ġabout":3188,"Ġgover":3189,"ifications":3190,"reshold":3191,"95":3192,"DIR":3193,"Map":3194,"Tra":3195,"bl":3196,"Ġfuture":3197,"itor":3198,"did":3199,"iddle":3200,"ĠApp":3201,"query":3202,"ĠWhen":3203,"parser":3204,"izer":3205,"suite":3206,"results":3207,"Ġcharacters":3208,"Group":3209,"WAR":3210,"au":3211,"sign":3212,"xe":3213,"Ġ\"'":3214,"ĠApache":3215,"ĠPRO":3216,"ffect":3217,"Ġtranslate":3218,"AGE":3219,"Feed":3220,"HERE":3221,"85":3222,"IZ":3223,"Py":3224,"fra":3225,"speci":3226,"strip":3227,"enabled":3228,"Ġcategory":3229,"leep":3230,"ĠTO":3231,"lab":3232,"last":3233,"Ġconn":3234,"ĠMock":3235,"Ġparameter":3236,"Ġzone":3237,"management":3238,"Ġinterface":3239,"Ġcontains":3240,"By":3241,"CR":3242,"With":3243,"\\'":3244,"az":3245,"wh":3246,"ness":3247,"ended":3248,"Ġour":3249,"Ġda":3250,"Ġstudent":3251,"ourse":3252,"ĠMode":3253,"Ġpylint":3254,"Ġmolecule":3255,"Status":3256,"span":3257,"Ġ'/'":3258,"Default":3259,"========":3260,"Handler":3261,"35":3262,"CON":3263,"Fil":3264,"wr":3265,"repr":3266,"Ġ\".":3267,"Ġnul":3268,"Ġbar":3269,"ĠNO":3270,"ĠImport":3271,"Ġproperties":3272,"Ġclassmethod":3273,"Ġaddr":3274,"Ġneeded":3275,"Ġrunning":3276,"Ġparts":3277,"suffix":3278,"subscription":3279,"ĠConfig":3280,"Ġqs":3281,"ynam":3282,"Ġenvironment":3283,"FILE":3284,"Ġpermissions":3285,"ĠAttributeError":3286,"Ġvotable":3287,"31":3288,"Action":3289,"Pre":3290,"over":3291,"oices":3292,"vcs":3293,"ority":3294,"Ġ\"<":3295,"Ġfin":3296,"Ġplot":3297,"Ġpush":3298,"hel":3299,"Ġrestri":3300,"first":3301,"Ġloc":3302,"Ġcontrol":3303,"ĠMan":3304,"885915":3305,"Ġweights":3306,"nknown":3307,"ASS":3308,"buffer":3309,"ysis":3310,"Ġentity":3311,"Element":3312,"MENT":3313,"Sy":3314,"Tab":3315,"nab":3316,"post":3317,"uous":3318,"Ġtrig":3319,"encoding":3320,"Ġmenu":3321,"firm":3322,"aml":3323,"Ġls":3324,"ĠMA":3325,"Ġcomment":3326,"mbed":3327,"ĠWHERE":3328,"ized":3329,"ĠReg":3330,"ATA":3331,"Ġwere":3332,"ORD":3333,"leted":3334,"ync":3335,"distribution":3336,"']\"":3337,"Ġallowed":3338,"ĠDefault":3339,"Entry":3340,"FO":3341,"GET":3342,"NN":3343,"NO":3344,"]+":3345,"folder":3346,"png":3347,"Ġ(%":3348,"repo":3349,"Ġpad":3350,"arrow":3351,"Ġsi":3352,"Ġrt":3353,"ĠRes":3354,"etch":3355,"Ġids":3356,"grad":3357,"Ġcopyright":3358,"Ġndarray":3359,"$'":3360,"gine":3361,"most":3362,"off":3363,"sage":3364,"Ġserializ":3365,"Ġthese":3366,"ates":3367,"rab":3368,"Ġcook":3369,"unit":3370,"Ġgen":3371,"mali":3372,"Ġlibrary":3373,"ĠDT":3374,"Ġinteger":3375,"Ġlay":3376,"moved":3377,"Profile":3378,"END":3379,"Ġunits":3380,"gnu":3381,"ically":3382,"Comp":3383,"Ġwheel":3384,"Ġbackend":3385,"Ġalias":3386,"Ġhtml":3387,"\">":3388,"94":3389,"Box":3390,"Code":3391,"Des":3392,"Dir":3393,"PT":3394,"cr":3395,"qrt":3396,"uff":3397,"Ġnorm":3398,"ride":3399,"unique":3400,"velo":3401,"ĠImage":3402,"master":3403,"ĠMat":3404,"ĠElement":3405,"Ġbyte":3406,"ORT":3407,"mitive":3408,"IGHT":3409,"Ġmanager":3410,"Start":3411,"Ġadded":3412,"variables":3413,"ĠremoteHost":3414,"Ġstaticmethod":3415,"defined":3416,"Mix":3417,"cert":3418,"fs":3419,"gnored":3420,"ored":3421,"Ġpublic":3422,"Ġrest":3423,"Ġmulti":3424,"Ġinstructor":3425,"ilder":3426,"ĠAffer":3427,"thread":3428,"Ġthrough":3429,"ascii":3430,"Ġconstant":3431,"extra":3432,"ĠMake":3433,"ĠEn":3434,"Request":3435,"calar":3436,"Ġtrace":3437,"flags":3438,"Ġfinally":3439,"ĠAffero":3440,"Unexpected":3441,"gress":3442,"inv":3443,"Ġsimple":3444,"Ġmod":3445,"Ġdistro":3446,"Ġloop":3447,"cipy":3448,"Ġkeystore":3449,"ITION":3450,"ĠLicensed":3451,"Ġnamespace":3452,"Ġoverwrite":3453,"witch":3454,"actions":3455,"gorith":3456,"dilation":3457,".%":3458,"98":3459,"SG":3460,"\\.":3461,"nn":3462,"zone":3463,"req":3464,"relate":3465,"omaly":3466,"arn":3467,"ank":3468,"Ġbind":3469,"Ġuuid":3470,"ĠLAT":3471,"verbose":3472,"Ġprofile":3473,"Ġmeta":3474,"vider":3475,"ĠOption":3476,"connection":3477,"circ":3478,"Invalid":3479,"Ġcompat":3480,"ĠInc":3481,"9999":3482,"current":3483,"olygon":3484,"primary":3485,"Ġabspath":3486,"ĠKIND":3487,"Ġwriting":3488,"Ġindices":3489,"ĠHttpResponse":3490,"Ġapplicable":3491,"76":3492,"Angle":3493,"Ext":3494,"Line":3495,"TE":3496,"ally":3497,"Ġsm":3498,"Ġmultiple":3499,"ĠTra":3500,"dio":3501,"Ġresp":3502,"Ġbeam":3503,"Ġmetadata":3504,"ĠBlock":3505,"csv":3506,"Ġurllib":3507,"many":3508,"Ġwarning":3509,"ĠfailUnless":3510,"Ġteam":3511,"Ġxbmc":3512,"Client":3513,"LINE":3514,"Ty":3515,"cord":3516,"lename":3517,"Ġsep":3518,"Ġik":3519,"hell":3520,"Ġbrow":3521,"Ġwx":3522,"locale":3523,"edge":3524,"cks":3525,"distro":3526,"Ġgp":3527,"Ġconv":3528,"Ġlong":3529,"Ġcomm":3530,"parameters":3531,"Ġlaw":3532,"Ġcandidate":3533,"Ġgeneric":3534,"Alphabet":3535,"TIONS":3536,"penden":3537,"erosion":3538,"indows":3539,"Ġtensorflow":3540,"Ġartist":3541,"precated":3542,"ĠLATIN":3543,"Artist":3544,"Found":3545,"MP":3546,"Warning":3547,"cript":3548,"gate":3549,"ins":3550,"Ġcp":3551,"Ġcy":3552,"exe":3553,"exp":3554,"extension":3555,"Ġzer":3556,"Ġcannot":3557,"Ġsocket":3558,"summary":3559,"Ġclear":3560,"PATH":3561,"Ġnullable":3562,"And":3563,"Down":3564,"ForeignKey":3565,"Get":3566,"[^":3567,"astropy":3568,"cat":3569,"dot":3570,"ele":3571,"mt":3572,"ration":3573,"Ġtile":3574,"ons":3575,"Ġspec":3576,"ities":3577,"Ġmb":3578,"ationError":3579,"Ġhow":3580,"ures":3581,"Ġheight":3582,"Ġ42":3583,"imer":3584,"Ġsupp":3585,"Ġpresent":3586,"Ġbuf":3587,"component":3588,"API":3589,"author":3590,"Ġthreading":3591,"Ġplace":3592,"Ġvisit":3593,"100":3594,"GR":3595,"License":3596,"],":3597,"download":3598,"ob":3599,"sm":3600,"Ġpk":3601,"Ġpatch":3602,"Ġpick":3603,"urn":3604,"Ġcopi":3605,"Ġisfile":3606,"ĠSQL":3607,"umber":3608,"prob":3609,"Ġkind":3610,"mber":3611,"ĠBu":3612,"Ġhex":3613,"mount":3614,"Ġsubscription":3615,"LECT":3616,"presentation":3617,"Ġboth":3618,"headers":3619,"ĠfailUnlessEqual":3620,":\"":3621,"Clean":3622,"LICENSE":3623,"Options":3624,"Sub":3625,"UI":3626,"tty":3627,"reed":3628,"Ġfalse":3629,"Ġope":3630,"Ġsleep":3631,"utton":3632,"loader":3633,"ĠBio":3634,"cast":3635,"Ġbucket":3636,"ABIC":3637,"ROM":3638,"Ġprivate":3639,"Arr":3640,"ĠJSON":3641,"plugin":3642,"Ġadmin":3643,"bitvcs":3644,"Ġpossible":3645,"Ġmetric":3646,"ĠARABIC":3647,"iu":3648,"sort":3649,"sql":3650,"xc":3651,"}.":3652,"sen":3653,"Ġplay":3654,"Ġdone":3655,"serv":3656,"raft":3657,"ĠTensor":3658,"edit":3659,"Ġexpose":3660,"ĠSO":3661,"execut":3662,"Ġsetting":3663,"forms":3664,"Ġrout":3665,"ensors":3666,"Ġzoom":3667,"Ġrunner":3668,"TIV":3669,"emplate":3670,"ASIS":3671,"lector":3672,"aved":3673,"unknown":3674,"nodes":3675,"coordinate":3676,"ĠLoad":3677,"Ġexpress":3678,"Ġexpression":3679,";'":3680,"Callback":3681,"JJ":3682,"Su":3683,"Size":3684,"cing":3685,"sur":3686,"yles":3687,"Ġpip":3688,"fixture":3689,"Ġcols":3690,"unicode":3691,"ĠSy":3692,"ĠFind":3693,"Ġ%(":3694,"Ġ32":3695,"actor":3696,"activ":3697,"initializ":3698,"bound":3699,"Ġspecial":3700,"delta":3701,"ĠAlbumID":3702,"iddleware":3703,"Current":3704,"DITION":3705,"LK":3706,"Len":3707,"Meta":3708,"attributes":3709,"album":3710,"ross":3711,"loc":3712,"edError":3713,"ĠSub":3714,"ĠSim":3715,"ĠAnd":3716,"ĠFunction":3717,"exit":3718,"Ġappro":3719,"ipher":3720,"Ġparsed":3721,"ĠRead":3722,"ansible":3723,"Ġsearcher":3724,"https":3725,"Ġhttps":3726,"Connection":3727,"Method":3728,"Ġrights":3729,"Ġvars":3730,"ĠKeyError":3731,"Ġdimension":3732,"68":3733,"AY":3734,"Apk":3735,"Module":3736,"TML":3737,"\\\":":3738,"apache":3739,"full":3740,"ire":3741,"multi":3742,"rhs":3743,"stable":3744,"Ġreference":3745,"Ġsw":3746,"Ġdot":3747,"Ġinstalled":3748,"Ġway":3749,"unch":3750,"Ġ255":3751,"Ġnotify":3752,"Ġgr":3753,"Ġprotocol":3754,"Ġcontainer":3755,"Ġmean":3756,"ancel":3757,"pha":3758,"ĠHTML":3759,"Ġinternal":3760,"Ġones":3761,"pages":3762,"ĠUnless":3763,"ĠCreateModel":3764,"Ġlimitations":3765,"ĠRunCommand":3766,"Ġ${":3767,"iki":3768,"Runner":3769,"Ġenumer":3770,"edirect":3771,"Ut":3772,"nly":3773,"rule":3774,"Ġqueue":3775,"atar":3776,"Ġdt":3777,"Ġdraw":3778,"ummy":3779,"Ġlat":3780,"ĠEnum":3781,"ĠBASIS":3782,"ĠWrite":3783,"Ġwhat":3784,"ariance":3785,"Ġcompliance":3786,"Ġcursor":3787,"bytes":3788,"ĠCONDITION":3789,"split":3790,"soft":3791,"TYPE":3792,"stroy":3793,"\");":3794,"ĠDEFAULT":3795,"coordinates":3796,"ĠCONDITIONS":3797,"Per":3798,"hr":3799,"ium":3800,"menu":3801,"ole":3802,"oci":3803,"widget":3804,"xa":3805,"debug":3806,"Ġ\"--":3807,"itive":3808,"Ġmime":3809,"role":3810,"Ġwrapper":3811,"ĠNo":3812,"ĠIUPAC":3813,"ĠLE":3814,"ĠLI":3815,"Ġtestdir":3816,"Ġbelow":3817,"Ġchoices":3818,"Ġsubject":3819,"ometry":3820,"Ġvariables":3821,"Feature":3822,"(%":3823,"37":3824,"Redirect":3825,"\\\"":3826,"cla":3827,"mq":3828,"mer":3829,"nc":3830,"oj":3831,"pus":3832,"sim":3833,"samples":3834,"Ã¡":3835,"lig":3836,"Ġiv":3837,"Ġ\"$":3838,"Ġperson":3839,"heet":3840,"encode":3841,"Ġdesc":3842,"rier":3843,"dia":3844,"ĠCharField":3845,"added":3846,"Ġgot":3847,"Ġloader":3848,"Ġlon":3849,"Ġstrings":3850,"mbers":3851,"ĠBoolean":3852,"contrib":3853,"presenter":3854,"sole":3855,"Ġflag":3856,"Album":3857,"AGS":3858,"ashboard":3859,"Ġagreed":3860,"egg":3861,"Ġgoverning":3862,"ĠImportError":3863,"'^":3864,"50":3865,"OUT":3866,"PR":3867,"PUT":3868,"We":3869,"auto":3870,"css":3871,"tic":3872,"znab":3873,"Ġaz":3874,"Ġsender":3875,"Ġph":3876,"atex":3877,"fine":3878,"Ġcould":3879,"ĠSE":3880,"ĠAuth":3881,"ĠFIX":3882,"exception":3883,"Ġmak":3884,"Ġapplication":3885,"ĠOS":3886,"Ġsha":3887,"izes":3888,"dirs":3889,"paths":3890,"LETE":3891,"errors":3892,"Ġsuch":3893,"way":3894,"ials":3895,"web":3896,"Ġattrs":3897,"streams":3898,"static":3899,"svg":3900,"Ġdocumentation":3901,"ĠIntegerField":3902,"ierarchy":3903,"Ġ','":3904,"gorithm":3905,"ĠFIXME":3906,"CP":3907,"hing":3908,"has":3909,"ident":3910,"validate":3911,"Ġast":3912,"Ġfl":3913,"metri":3914,"Ġvi":3915,"Ġstill":3916,"asy":3917,"ĠPer":3918,"Ġdivision":3919,"Ġmem":3920,"ĠUnknown":3921,"Ġ50":3922,"ĠVer":3923,"pported":3924,"Ġwhether":3925,"Ġextracted":3926,"conftest":3927,"TeX":3928,"ASE":3929,"Dis":3930,"SA":3931,"SV":3932,"ache":3933,"aded":3934,"bos":3935,"body":3936,"cls":3937,"wrap":3938,"limit":3939,"indi":3940,"erical":3941,"ĠoControl":3942,"Ġwould":3943,"etwork":3944,"terns":3945,"owner":3946,"sche":3947,"ality":3948,"cies":3949,"ĠRemove":3950,"Ġâĸģ\"%":3951,"Ġsymbol":3952,"ORS":3953,"timeout":3954,"addr":3955,"Resource":3956,"ĠConvert":3957,"Ġmissing":3958,"Ġtools":3959,"ferences":3960,"Ġagain":3961,"Ġlookup":3962,"Ġincluding":3963,"46":3964,"All":3965,"GT":3966,"_%":3967,"bc":3968,"don":3969,"random":3970,"lict":3971,"rees":3972,"height":3973,"Ġsur":3974,"Ġevery":3975,"ution":3976,"utable":3977,"roid":3978,"Ġanother":3979,"ĠCourse":3980,"ĠassertIn":3981,"Ġtesting":3982,"Ġbeing":3983,"Ġalways":3984,"ĠDB":3985,"Ġunk":3986,"acter":3987,"Ġdefaults":3988,"bool":3989,"../":3990,"Ġendswith":3991,"Ġbased":3992,"ools":3993,"buf":3994,"contents":3995,"Ġseconds":3996,"RULE":3997,"uzz":3998,"ĠUnknownSeq":3999,"bosity":4000,"80":4001,"Auto":4002,"Pr":4003,"find":4004,"ground":4005,"iod":4006,"irc":4007,"jor":4008,"total":4009,"twitter":4010,"xd":4011,"lim":4012,"ret":4013,"rection":4014,"Ġacl":4015,"lected":4016,"Ġrelated":4017,"Ġdep":4018,"Ġtheir":4019,"Ġbit":4020,"disc":4021,"ado":4022,"Ġnotice":4023,"Ġgre":4024,"Ġ{}":4025,"mplement":4026,"Ġbuilt":4027,"cute":4028,"Ġrecords":4029,"106":4030,"Ġgrant":4031,"Attribute":4032,"Ġentries":4033,"Ġviews":4034,"ĠLOG":4035,"job":4036,"Ġissub":4037,"Ġclosed":4038,"Ġnormali":4039,"survey":4040,"-%":4041,"40":4042,"Enum":4043,"Task":4044,"Title":4045,"database":4046,"lhs":4047,"rd":4048,"arr":4049,"Ġsqrt":4050,"threshold":4051,"ĠassertFalse":4052,"props":4053,"vious":4054,"Ġdatadir":4055,"matrix":4056,"Ġrole":4057,"ivity":4058,"Release":4059,"lities":4060,"Ġverbosity":4061,"scribed":4062,"books":4063,"Left":4064,"Ġautom":4065,"Optional":4066,"Mixin":4067,"90":4068,"FG":4069,"Var":4070,"Xml":4071,"][":4072,"iss":4073,"mask":4074,"rary":4075,"ving":4076,"oring":4077,"omet":4078,"Ġscore":4079,"Ġscipy":4080,"raction":4081,"Ġgive":4082,"Ġfix":4083,"mails":4084,"Ġbegin":4085,"Ġ35":4086,"ĠExt":4087,"Ġfilepath":4088,"Ġosv":4089,"Ġshut":4090,"Ġshutil":4091,"ĠRequest":4092,"licit":4093,"Ġuses":4094,"mock":4095,"Ġlet":4096,"users":4097,"username":4098,"fixed":4099,"ĠInvalid":4100,"ialog":4101,"ACTIV":4102,"ava":4103,"Ġ90":4104,"DELETE":4105,"interface":4106,"crement":4107,"parts":4108,"Ġalign":4109,"Planner":4110,"ĠLEFT":4111,"!\"":4112,"89":4113,"BO":4114,"Char":4115,"Hook":4116,"classes":4117,"pg":4118,"tor":4119,"watch":4120,"zen":4121,"zoom":4122,"ination":4123,"Ġflow":4124,"Ġfetch":4125,"Ġsure":4126,"gest":4127,"Ġvert":4128,"ulation":4129,"idx":4130,"ĠFile":4131,"ĠPerson":4132,"ĠItem":4133,"Ġwithin":4134,"ĠError":4135,"ured":4136,"ĠOther":4137,"parent":4138,"modi":4139,"Ġprepare":4140,"ANY":4141,"sentry":4142,"addon":4143,"STR":4144,"ĠGenerate":4145,"messages":4146,"Ġprimitive":4147,"points":4148,"Ġmodifi":4149,"Ġpeer":4150,"Ġissubclass":4151,"Col":4152,"GP":4153,"Ge":4154,"MB":4155,"RR":4156,"Right":4157,"ilities":4158,"long":4159,"position":4160,"spe":4161,"win":4162,"inux":4163,"rest":4164,"ories":4165,"Ġfro":4166,"Ġpor":4167,"Ġpid":4168,"Ġpoly":4169,"Ġredirect":4170,"Ġmk":4171,"Ġbest":4172,"Ġwin":4173,"Ġworld":4174,"Ġ13":4175,"ĠCan":4176,"expected":4177,"icro":4178,"Ġfig":4179,"Ġproblem":4180,"ĠGe":4181,"ower":4182,"ĠDis":4183,"trie":4184,"calculate":4185,"step":4186,"Ġmany":4187,"Constraint":4188,"Ġhandler":4189,"regression":4190,"scriptor":4191,"IMIT":4192,"events":4193,"Ġ'_'":4194,"changed":4195,"Ġoffset":4196,"/>.":4197,"WARE":4198,"Ġopener":4199,"ILE":4200,"Implement":4201,"SD":4202,"Table":4203,"aTeX":4204,"coding":4205,"fer":4206,"greg":4207,"kit":4208,"lut":4209,"pan":4210,"rate":4211,"safe":4212,"wrapper":4213,"zer":4214,"second":4215,"Ġ(-":4216,"rel":4217,"Ġcx":4218,"Ġcss":4219,"Ġput":4220,"hes":4221,"Ġscale":4222,"Ġshell":4223,"Ġdriver":4224,"Ġbasic":4225,"ĠTrans":4226,"expr":4227,"Ġthose":4228,"icon":4229,"scr":4230,"pared":4231,"Ġadditional":4232,"Ġdouble":4233,"lower":4234,"ĠThread":4235,"Process":4236,"(),":4237,"Ġbasename":4238,"ACT":4239,"Ġevents":4240,"double":4241,"Ġcounter":4242,"Ġgeneration":4243,"Ġpackages":4244,"This":4245,"TimeField":4246,"uffle":4247,"CA":4248,"Fa":4249,"MK":4250,"clo":4251,"fin":4252,"gments":4253,"luster":4254,"mn":4255,"non":4256,"tensor":4257,"vas":4258,"yw":4259,"Ġim":4260,"alysis":4261,"Ġrev":4262,"Ġrepe":4263,"ueue":4264,"ilde":4265,"ĠCH":4266,"Ġstandard":4267,"istory":4268,"Ġ\"\\\"":4269,"connect":4270,"ĠUp":4271,"Ġsym":4272,"ARY":4273,"cols":4274,"stribution":4275,"Ġtimestamp":4276,"aries":4277,"notifications":4278,"Ġfailed":4279,"Ġcurrently":4280,"single":4281,"created":4282,"Ġboto":4283,"ĠACL":4284,"Ġconftest":4285,"tools":4286,"generation":4287,"duce":4288,"Ġdumps":4289,"Ġsince":4290,"Dialog":4291,"RENT":4292,"Tree":4293,"]*":4294,"`,":4295,"gr":4296,"kinter":4297,"tx":4298,"Ġ;":4299,"lick":4300,"Ġsens":4301,"Ġ'\"'":4302,"Ġfft":4303,"Ġsalt":4304,"Ġwindow":4305,"Ġ-=":4306,"ĠASC":4307,"ĠFROM":4308,"ĠPO":4309,"ĠLICENSE":4310,"Ġmeans":4311,"ĠGoogle":4312,"ĠOK":4313,"ĠOr":4314,"Ġmodules":4315,"())":4316,"Ġfake":4317,"ACE":4318,"latform":4319,"compat":4320,"Ġfindall":4321,"Ġcorrelate":4322,"Ġstats":4323,"Ġtags":4324,"Ġevalu":4325,"Ġschema":4326,"Logger":4327,"OWN":4328,"ERROR":4329,"origin":4330,"IZE":4331,"Ġenumerate":4332,"indices":4333,"49":4334,"53":4335,"Do":4336,"cloud":4337,"ered":4338,"pin":4339,"spi":4340,"upt":4341,"uch":4342,"}/":4343,"next":4344,"deg":4345,"student":4346,"rer":4347,"Ġaux":4348,"Ġ'{":4349,"Ġcell":4350,"Ġignored":4351,"Ġfoo":4352,"Ġfill":4353,"Ġremain":4354,"roopy":4355,"Ġudid":4356,"Ġvariant":4357,"olve":4358,"ĠAs":4359,"exer":4360,"uples":4361,"istics":4362,"protocol":4363,"found":4364,"ĠBE":4365,"setEqual":4366,"ĠUt":4367,"Ġlogin":4368,"Ġlists":4369,"collection":4370,"ANG":4371,"vals":4372,"Ġrequires":4373,"Listener":4374,"herit":4375,"register":4376,"Ġaliases":4377,"OPY":4378,"FTWARE":4379,"Ġalbums":4380,"ĠSOFTWARE":4381,"discussion":4382,"(\\":4383,"67":4384,"FR":4385,"Pl":4386,"]\"":4387,"ee":4388,"gv":4389,"global":4390,"ho":4391,"ny":4392,"score":4393,"tl":4394,"za":4395,"zh":4396,"Ø§":4397,"see":4398,"Ġtp":4399,"Ġ\"__":4400,"uring":4401,"ability":4402,"chine":4403,"ĠSh":4404,"ĠSpeci":4405,"Ġstable":4406,"quiv":4407,"ubb":4408,"amily":4409,"Ġlz":4410,"Ġbecome":4411,"Ġ300":4412,"Ġxrange":4413,"common":4414,"ĠUSE":4415,"Ġupload":4416,"Ġotherwise":4417,"Ġtempfile":4418,"linkage":4419,"priate":4420,"Many":4421,"ĠAlphabet":4422,"Ġexecutable":4423,"ĠOTHER":4424,"Ġoperation":4425,"vorite":4426,"Ġassignment":4427,"Ġtrigger":4428,"(.*":4429,"AV":4430,"End":4431,"NPolymorphic":4432,"cm":4433,"euc":4434,"mr":4435,"rb":4436,"slice":4437,"},":4438,"Ġ::":4439,"lev":4440,"Ġnull":4441,"Ġdid":4442,"dic":4443,"chunk":4444,"ĠPre":4445,"ĠPolygon":4446,"ĠLinux":4447,"pyspi":4448,"Ġprop":4449,"outh":4450,"ĠValid":4451,"IST":4452,"short":4453,"Ġprep":4454,"Ġleg":4455,"UTH":4456,"Reg":4457,"EDIT":4458,"links":4459,"Ġtermin":4460,"Ġavoid":4461,"ĠStringIO":4462,"Definition":4463,"require":4464,"Ġsummary":4465,"Ġrequirement":4466,"=?'":4467,"ociated":4468,"386":4469,"65":4470,"Back":4471,"GL":4472,"II":4473,"Mock":4474,"cnt":4475,"ga":4476,"gits":4477,"lt":4478,"language":4479,"liter":4480,"invalid":4481,"Ġcut":4482,"Ġflat":4483,"allow":4484,"Ġreserved":4485,"Ġdes":4486,"Ġdeter":4487,"rout":4488,"Ġbul":4489,"ĠCode":4490,"ĠSu":4491,"Ġthrow":4492,"Ġrand":4493,"ĠIP":4494,"Ġorg":4495,"verify":4496,"artist":4497,"Ġcontract":4498,"comm":4499,"sys":4500,"usters":4501,"tabs":4502,"tail":4503,"show":4504,"cluster":4505,"Ġpretty":4506,"Ġled":4507,"ouse":4508,"Ġversions":4509,"ators":4510,"SET":4511,"Ġargparse":4512,"application":4513,"backend":4514,"irs":4515,"Ġmanual":4516,"Ġfilenames":4517,"fail":4518,"Ġgrasp":4519,"ĠQt":4520,"curity":4521,"chars":4522,"ublish":4523,"ECT":4524,"Ġobserv":4525,"Ġactually":4526,"ctypes":4527,"directory":4528,"Ġmerge":4529,"Transform":4530,"Cleanup":4531,"ubbard":4532,"48":4533,"63":4534,"70":4535,"Image":4536,"LD":4537,"ODE":4538,"just":4539,"lers":4540,"norm":4541,"pub":4542,"warn":4543,"xE":4544,"Ġque":4545,"seed":4546,"include":4547,"Ġcsv":4548,"Ġ\"_":4549,"ĠnPosition":4550,"Ġcodon":4551,"ĠCo":4552,"Ġord":4553,"Ġ30":4554,"ĠEV":4555,"lso":4556,"oper":4557,"Ġenabled":4558,"ARK":4559,"tags":4560,"symbols":4561,"Ġsuc":4562,"Ġhashed":4563,"Ġ/*":4564,"SELECT":4565,"ĠInstall":4566,"counts":4567,"day":4568,"Ġtempor":4569,"Ġcalls":4570,"Ġconnections":4571,"methods":4572,"sources":4573,"iling":4574,"NotFound":4575,"Ġtablename":4576,"coords":4577,"Inter":4578,"Ġmarker":4579,"CLUD":4580,"Ġkeep":4581,"itespace":4582,"RESULT":4583,"Header":4584,"CLUDING":4585,"''":4586,"CK":4587,"Ent":4588,"Lay":4589,"TO":4590,"blob":4591,"grid":4592,"google":4593,"rpc":4594,"atic":4595,"Ġcrypt":4596,"Ġclasses":4597,"Ġfp":4598,"Ġdependen":4599,"Ġdown":4600,"loss":4601,"Ġusage":4602,"lacs":4603,"tore":4604,"Ġattemp":4605,"scribe":4606,"ĠHel":4607,"ĠHas":4608,"Ġarea":4609,"columns":4610,"``,":4611,"mitted":4612,"Expected":4613,"mirror":4614,"Ġquote":4615,"Ġlinks":4616,"compile":4617,"recipient":4618,"Server":4619,"ĠInter":4620,"ĠNotImplement":4621,"scribers":4622,"Ġauthentic":4623,"KEY":4624,"Ġscheme":4625,"channel":4626,"ĠModel":4627,"ĠikPlanner":4628,"AutoField":4629,"Anal":4630,"IE":4631,"NOT":4632,"SO":4633,"Val":4634,"alf":4635,"dw":4636,"fn":4637,"ough":4638,"upper":4639,"unexpected":4640,"Ġer":4641,"Ġom":4642,"Ġpur":4643,"Ġpth":4644,"around":4645,"Ġnom":4646,"Ġbin":4647,"Ġ14":4648,"ĠTe":4649,"unic":4650,"olution":4651,"ĠAlso":4652,"quot":4653,"exas":4654,"ĠIO":4655,"ithub":4656,"entries":4657,"Ġcontroller":4658,"Ġxmodule":4659,"formed":4660,"ACK":4661,"latin":4662,"Ġcases":4663,"HOME":4664,"after":4665,"TERN":4666,"Args":4667,"Ġtabs":4668,"sky":4669,"ĠWITH":4670,"Ġsuccessor":4671,"document":4672,"Ġcoordinates":4673,"gexp":4674,"scalar":4675,"DateTimeField":4676,"Length":4677,"Ed":4678,"Lexer":4679,"Mat":4680,"Tip":4681,"custom":4682,"dns":4683,"gg":4684,"gative":4685,"mut":4686,"sun":4687,"wist":4688,"Ġray":4689,"sec":4690,"sect":4691,"Ġfuzz":4692,"Ġscalar":4693,"Ġsaved":4694,"itu":4695,"Ġdeprecated":4696,"ĠTH":4697,"ĠTkinter":4698,"Ġvia":4699,"gether":4700,"ves":4701,"ĠFrame":4702,"ĠPopen":4703,"vide":4704,"ĠGUI":4705,"cial":4706,"Ġ`~":4707,"ĠHe":4708,"Input":4709,"states":4710,"ĠInit":4711,"ĠIndex":4712,"alize":4713,"accept":4714,"ixed":4715,"234":4716,"Ġflavor":4717,"Ġvalidation":4718,"Ġ'-'":4719,"ĠUserProfile":4720,"Location":4721,"Ġexpand":4722,"Ġoperations":4723,"ĠSMALL":4724,"Ġlayer":4725,"literals":4726,"ĠIOError":4727,"+'":4728,"Button":4729,"Package":4730,"TF":4731,"Vw":4732,"bers":4733,"car":4734,"ccur":4735,"gz":4736,"hi":4737,"ring":4738,"Ġtls":4739,"Ġtensors":4740,"Ġseen":4741,"enable":4742,"Ġio":4743,"here":4744,"Ġrect":4745,"Ġreach":4746,"Ġot":4747,"Ġsan":4748,"Ġspace":4749,"any":4750,"Ġdu":4751,"rot":4752,"Ġwell":4753,"Ġwalk":4754,"rist":4755,"dim":4756,"dius":4757,"quote":4758,"Ġhook":4759,"ĠassertQuery":4760,"Ġld":4761,"Ġ*/":4762,"tered":4763,"Ġknown":4764,"ĠEN":4765,"ĠThese":4766,"Ġrot":4767,"Ġzk":4768,"Init":4769,"Return":4770,"ĠTests":4771,"apps":4772,"===":4773,"Segment":4774,"STAT":4775,"Stack":4776,"Struct":4777,"Ġclosest":4778,"Ġtrain":4779,"Ġfolder":4780,"SSL":4781,"handler":4782,"(?:":4783,"ERSION":4784,"Ġkernel":4785,"Ġcookie":4786,"ĠBuild":4787,"Ġunknown":4788,"Ġfrozen":4789,"Ġbulk":4790,"ĠassertQuerysetEqual":4791,"!'":4792,")\\":4793,"57":4794,"CAL":4795,"GB":4796,"IF":4797,"MAN":4798,"Op":4799,"SP":4800,"Sty":4801,"ae":4802,"aux":4803,"got":4804,"rna":4805,"sIn":4806,"tuple":4807,"xx":4808,"xis":4809,"Ġ</":4810,"sep":4811,"sens":4812,"rep":4813,"head":4814,"Ġspe":4815,"gent":4816,"Ġdeleted":4817,"Ġblob":4818,"service":4819,"abs":4820,"Ġannot":4821,"ĠChar":4822,"ĠFe":4823,"ĠgetLogger":4824,"Ġnamed":4825,"ĠRO":4826,"alias":4827,"ĠMo":4828,"allen":4829,"initial":4830,"Ġraises":4831,"grade":4832,"control":4833,"login":4834,"ROL":4835,"Ġselector":4836,"ĠUnicode":4837,"Count":4838,"OLD":4839,"Thread":4840,"ValueDict":4841,"Ġetc":4842,"Ġissue":4843,"Help":4844,"tected":4845,"Ġrules":4846,"folders":4847,"rabbitvcs":4848,"ĠUpdate":4849,"87":4850,"?'":4851,"ALE":4852,"IRE":4853,"LAN":4854,"Opt":4855,"Ptr":4856,"Pos":4857,"RV":4858,"Simple":4859,"Tw":4860,"TEST":4861,"Vector":4862,"WORD":4863,"acute":4864,"bp":4865,"factory":4866,"variance":4867,"star":4868,"sequence":4869,"inc":4870,"Ġtg":4871,"mem":4872,"Ġpipe":4873,"Ġslice":4874,"Ġnb":4875,"urs":4876,"Ġmost":4877,"Ġbug":4878,"Ġborder":4879,"uest":4880,"ribut":4881,"ĠTime":4882,"Ġvector":4883,"Ġanalysis":4884,"vered":4885,"ĠLi":4886,"__\"":4887,"Ġ=====":4888,"Ġyear":4889,"ization":4890,"comment":4891,"Ġkeyword":4892,"Ġsubclass":4893,"Ġroute":4894,"Read":4895,"Ġtrunc":4896,"byte":4897,"Ġstatement":4898,"mine":4899,"Ġnova":4900,"Ġinputs":4901,"dapt":4902,"Ġinterpre":4903,"Ġgraphic":4904,"DEX":4905,"ĠQgs":4906,"vironment":4907,"Ġoverride":4908,"labels":4909,"rank":4910,"Ġurls":4911,"Ġreply":4912,"mostEqual":4913,"Ġcycle":4914,"BUG":4915,"Cache":4916,"DK":4917,"DATE":4918,"Ft":4919,"Mi":4920,"MAP":4921,"New":4922,"SK":4923,"Target":4924,"VER":4925,"github":4926,"pb":4927,"secret":4928,"Ġsed":4929,"help":4930,"Ġoccur":4931,"Ġsparse":4932,"loor":4933,"Ġasync":4934,"ĠNode":4935,"ĠCor":4936,"product":4937,"intel":4938,"Ġki":4939,"Ġweight":4940,"aves":4941,"Ġ/.":4942,"timestamp":4943,"Ġcomplex":4944,"Ġupdates":4945,"notdef":4946,"Ġflask":4947,"Ġextras":4948,"Ġfeature":4949,"Array":4950,"Ġdestination":4951,"ĠJson":4952,"Ġloads":4953,"staff":4954,"Ġinvite":4955,"UBL":4956,"resources":4957,"plotlib":4958,"istry":4959,"Ġcorresponding":4960,"Filter":4961,"System":4962,"Ġcopies":4963,"Ġappropriate":4964,"'re":4965,"._":4966,"404":4967,"AIN":4968,"COM":4969,"Flow":4970,"IPE":4971,"Part":4972,"Pay":4973,"ZA":4974,"_'":4975,"ntele":4976,"reset":4977,"Ġtsk":4978,"attribute":4979,"Ġamount":4980,"Ġ'*'":4981,"engine":4982,"Ġcfg":4983,"anner":4984,"ront":4985,"Ġboolean":4986,"Ġwrap":4987,"lash":4988,"ĠCal":4989,"ĠCOPY":4990,"Ġnote":4991,"Ġglut":4992,"ĠassertNot":4993,"uman":4994,"ĠRaises":4995,"ĠRights":4996,"Ġ}\"":4997,"istance":4998,"Ġalpha":4999,"ĠGra":5000,"ĠOp":5001,"press":5002,"cessary":5003,"ĠThen":5004,"shift":5005,"Ġsuite":5006,"antity":5007,"sgi":5008,"Ġspecify":5009,"ĠExamples":5010,"Ġworks":5011,"URRENT":5012,"AlmostEqual":5013,"Ġfeatures":5014,"Ġcoords":5015,"USER":5016,"objects":5017,"vars":5018,"Ġarchive":5019,"arguments":5020,"ffici":5021,"Ġcertificate":5022,"ELD":5023,"havi":5024,"ĠRegister":5025,"ĠTrace":5026,"ĠSimulator":5027,"utableSeq":5028,"ometric":5029,"Ġshutdown":5030,"Ġfrozenset":5031,")),":5032,"42":5033,"Core":5034,"Empty":5035,"HK":5036,"MS":5037,"MET":5038,"SL":5039,"Tag":5040,"bg":5041,"ever":5042,"hy":5043,"void":5044,"wiki":5045,"lin":5046,"Ġseed":5047,"Ġ\"{":5048,"Ġssl":5049,"Ġeasy":5050,"rop":5051,"Ġbran":5052,"look":5053,"Ġunt":5054,"ris":5055,"ĠTask":5056,"Ġvcs":5057,"Ġexclude":5058,"Ġrc":5059,"Ġrhs":5060,"Ġconsole":5061,"000":5062,"Ġsetter":5063,"ĠModule":5064,"ĠWhe":5065,"strict":5066,"quire":5067,"Ref":5068,"ĠTestCmd":5069,"Ġfavorite":5070,"Ġtmpdir":5071,"Ġtables":5072,"oolTip":5073,"Ġpercent":5074,"ĠCONT":5075,"Ġinterval":5076,"0338":5077,"acy":5078,"Cons":5079,"ĠDelete":5080,"Ġcorpus":5081,"ilio":5082,"ternal":5083,"processor":5084,"ĠProcess":5085,"igration":5086,"Ġterm":5087,"Ġlabels":5088,"centration":5089,"Ġextensions":5090,"Ġcleanup":5091,"scalable":5092,"Ġradius":5093,"Format":5094,"ĠService":5095,"serialize":5096,"Cannot":5097,"Ġcollections":5098,"Python":5099,"Ġconstants":5100,"ĠOptional":5101,"Ġledger":5102,"allenge":5103,"ĠRegisterShape":5104,"71":5105,"Post":5106,"PORT":5107,"VAL":5108,"].":5109,"cer":5110,"gument":5111,"mol":5112,"xi":5113,"~~":5114,"desc":5115,"installed":5116,"regex":5117,"Ġsegment":5118,"Ġctx":5119,"met":5120,"hem":5121,"loops":5122,"ulate":5123,"Ġascii":5124,"ĠNow":5125,"ational":5126,"ultin":5127,"Ġnothing":5128,"odon":5129,"ĠLine":5130,"ĠRPC":5131,"Ġmedian":5132,"Ġknow":5133,"Ġalgorithm":5134,"opf":5135,"ĠaddTask":5136,"Ġparam":5137,"ĠUD":5138,"ftime":5139,"ĠReserved":5140,"Ġprevious":5141,"ORY":5142,"attrs":5143,"Ġrequests":5144,"library":5145,"ndro":5146,"Ġbasedir":5147,"IGIT":5148,"Demo":5149,"bucket":5150,"fake":5151,"Ġhttplib":5152,"Ġworking":5153,"Ġvalidator":5154,"Ġpriority":5155,"TYP":5156,"Ġminion":5157,"Ġminimum":5158,"ĠSettings":5159,"Ġassociated":5160,"modules":5161,"IBUT":5162,"Ġpolicy":5163,"PoseName":5164,"commands":5165,"ĠNOTE":5166,"dyear":5167,"Ġincluded":5168,"ighb":5169,"FLAGS":5170,"helper":5171,"ResourcePay":5172,"warnings":5173,"ResourcePayload":5174,"52":5175,"92":5176,"??":5177,"FS":5178,"Make":5179,"MPL":5180,"Number":5181,"Stop":5182,"_{":5183,"amp":5184,"bf":5185,"cn":5186,"draw":5187,"home":5188,"platform":5189,"rit":5190,"tom":5191,"tip":5192,"yload":5193,"Ã¶":5194,"details":5195,"ntax":5196,"rev":5197,"Ġpending":5198,"alert":5199,"Ġsput":5200,"Ġsafe":5201,"ctl":5202,"Ġequal":5203,"ssian":5204,"mpy":5205,"ĠClass":5206,"ĠSP":5207,"ĠSouth":5208,"Ġdiv":5209,"ĠRuntime":5210,"Ġcontrib":5211,"Ġmesh":5212,"ĠGp":5213,"ĠGiven":5214,"scape":5215,"ĠDAM":5216,"ĠMutableSeq":5217,"ĠOut":5218,"ĠBy":5219,"ople":5220,"Ġinteg":5221,"Ġatom":5222,"tabstop":5223,"imate":5224,"ĠHand":5225,"clus":5226,"ORM":5227,"Proc":5228,"Representation":5229,"append":5230,"Ġtargets":5231,"Ġbases":5232,"Ġstreams":5233,"ĠCONTR":5234,"TypeList":5235,"ĠXml":5236,"Search":5237,"docs":5238,"Ġframework":5239,"Ġcharset":5240,"compiler":5241,"available":5242,"ĠDevice":5243,"ientation":5244,"Ġchanges":5245,"Ġdirectories":5246,"opentele":5247,"ibility":5248,"Ġwritten":5249,"flag":5250,"toolchain":5251,"ttle":5252,"Ġbrowser":5253,"Display":5254,"ndrogram":5255,"Ġsputils":5256,"'.":5257,",\"":5258,"83":5259,">`":5260,"IK":5261,"Sthick":5262,"SIZE":5263,"gu":5264,"mong":5265,"signed":5266,"tick":5267,"yu":5268,"zed":5269,"segment":5270,"Ġ'(":5271,"Ġfh":5272,"ctave":5273,"Ġduring":5274,"Ġbox":5275,"Ġ17":5276,"Ġdefine":5277,"ĠTemplate":5278,"cho":5279,"ĠCloud":5280,"ĠSH":5281,"Ġstyles":5282,"named":5283,"ading":5284,"rompt":5285,"Ġgi":5286,"Ġrpc":5287,"Ġrank":5288,"Ġordered":5289,"Ġlow":5290,"ĠRedi":5291,"uplic":5292,"Ġstrftime":5293,"Ġbehavi":5294,"progress":5295,"Ġsetattr":5296,"Ġâĸģ'{":5297,"ĠDNA":5298,"ĠDOC":5299,"Ġcomes":5300,"Ġchart":5301,"confirm":5302,"ĠaddTest":5303,"Ġonce":5304,"Ġâĸģ\"{":5305,"ĠView":5306,"ĠValidate":5307,"ĠVLAN":5308,"question":5309,"Ġsubs":5310,"Ġprev":5311,"Ġleast":5312,"Ġnumbers":5313,"container":5314,"Ġcurses":5315,"Ġtrc":5316,"Ġsyslog":5317,"Ġordering":5318,"Ġmaximum":5319,"ually":5320,"unkload":5321,"ĠQu":5322,"Ġmirror":5323,"AGES":5324,"Ġaxes":5325,"Setting":5326,"Ġaggreg":5327,"ĠBaseTest":5328,"Ġetree":5329,"ĠvalveDemo":5330,"consist":5331,"Ġuri":5332,"1251":5333,"Ġinitialize":5334,"Graph":5335,"Ġesccmd":5336,"subscriptions":5337,"Ġ(%(":5338,"velop":5339,"Ġpkg":5340,"Ġopenerp":5341,"\".":5342,"'[":5343,"51":5344,"61":5345,"Ad":5346,"Close":5347,"IED":5348,"Ja":5349,"PM":5350,"Texas":5351,"URE":5352,"adio":5353,"ba":5354,"city":5355,"fl":5356,"ione":5357,"ko":5358,"kind":5359,"nos":5360,"person":5361,"sw":5362,"save":5363,"rem":5364,"Ġtor":5365,"Ġ'^":5366,"Ġicon":5367,"Ġfamily":5368,"alle":5369,"Ġblank":5370,"absent":5371,"div":5372,"Ġhref":5373,"Ġrv":5374,"mapping":5375,"verage":5376,"Ġrespect":5377,"ĠEach":5378,"ĠBar":5379,"ERT":5380,"chemy":5381,"Ġparsing":5382,"setup":5383,"times":5384,"Ġ60":5385,"noControl":5386,"Ġface":5387,"Ġinputhook":5388,"versions":5389,"IGN":5390,"Ġtransport":5391,"Ġmanagement":5392,"ĠExample":5393,"Ġpointer":5394,"Ġqn":5395,"chaindb":5396,"Ġconflict":5397,"Ġiteritems":5398,"ViewSet":5399,"targets":5400,"Ġencoded":5401,"metaclass":5402,"Ġimplemented":5403,"ĠToken":5404,"raises":5405,"Ġconstraints":5406,"Ġkeras":5407,"Ġpadx":5408,"connections":5409,"compatible":5410,"ListenerProc":5411,"IRECT":5412,"+)":5413,"60":5414,"Boolean":5415,"Li":5416,"Oper":5417,"Pa":5418,"RS":5419,"RPC":5420,"Sh":5421,"TEX":5422,"cred":5423,"dl":5424,"gmail":5425,"hold":5426,"lation":5427,"lang":5428,"tk":5429,"xj":5430,"depth":5431,"attern":5432,"eric":5433,"eries":5434,"Ġcat":5435,"Ġcancel":5436,"alphabet":5437,"Ġsat":5438,"ences":5439,"Ġnick":5440,"Ġeffect":5441,"Ġdecor":5442,"Ġbig":5443,"pear":5444,"loop":5445,"riangle":5446,"ortran":5447,"Ġvol":5448,"Ġcos":5449,"Ġasarray":5450,"ision":5451,"Ġexec":5452,"Ġexpect":5453,"ĠSingle":5454,"els":5455,"ells":5456,"ĠgetControl":5457,"ableError":5458,"ctions":5459,"Ġlang":5460,"ends":5461,"Ġkf":5462,"ĠDate":5463,"ĠBSD":5464,"ĠRec":5465,"ATCH":5466,"ARD":5467,"ORE":5468,"rectory":5469,"Ġtimes":5470,"cessed":5471,"contract":5472,"Ġcomplete":5473,"Ġcompiler":5474,"ĠInput":5475,"appro":5476,"Ġtmpl":5477,"Controller":5478,"Ġshapes":5479,"Ġpartial":5480,"ird":5481,"irt":5482,"Ġmatplotlib":5483,"faces":5484,"Ġcounts":5485,"before":5486,"Ġaccord":5487,"Ġdirs":5488,"Ġdirectly":5489,"Ġprimary":5490,"Ġqname":5491,"cycle":5492,"ĠParse":5493,"Ġexplicit":5494,"ĠAny":5495,"Ġimplementation":5496,"chanis":5497,"serialized":5498,"thickness":5499,"offset":5500,"99999":5501,"widgets":5502,"light":5503,"Ġ\"\\\"\"":5504,"ĠValidationError":5505,"Layer":5506,"STATUS":5507,"ĠSouthTexas":5508,"City":5509,"GE":5510,"Of":5511,"Only":5512,"PRE":5513,"Rk":5514,"UM":5515,"Width":5516,"aster":5517,"cussion":5518,"eJa":5519,"funkload":5520,"hk":5521,"ied":5522,"jpt":5523,"lu":5524,"pdd":5525,"patch":5526,"push":5527,"year":5528,"yjpt":5529,"Ġ('":5530,"inja":5531,"strings":5532,"Ġcent":5533,"Ġrevision":5534,"Ġsigned":5535,"Ġdp":5536,"dicate":5537,"Ġstorage":5538,"Ġstored":5539,"ĠassertAlmostEqual":5540,"assert":5541,"ĠIMPL":5542,"ambig":5543,"ups":5544,"iguous":5545,"ĠMy":5546,"Ġouter":5547,"INDEX":5548,"ivers":5549,"clmr":5550,"Properties":5551,"...\"":5552,"aging":5553,"aving":5554,"Ġsupports":5555,"plus":5556,"Ġprocessing":5557,"Ġneeds":5558,"IntegerField":5559,"returns":5560,"correct":5561,"FFFF":5562,"Ġsignal":5563,"Ġsignatures":5564,"join":5565,"Ġtaken":5566,"ĠstackArr":5567,"pattern":5568,"ĠServer":5569,"Height":5570,"writer":5571,"ynamic":5572,"mqxj":5573,"ĠOSError":5574,"modified":5575,"ĠAssert":5576,"ousehold":5577,"Edit":5578,"Style":5579,"Optim":5580,"ioned":5581,"pddb":5582,"ĠIMPLIED":5583,"mqxjjs":5584,"An":5585,"CW":5586,"FE":5587,"HTTP":5588,"JP":5589,"PH":5590,"PASS":5591,"bra":5592,"bad":5593,"cN":5594,"fd":5595,"rl":5596,"sq":5597,"Ġ?":5598,"std":5599,"dentials":5600,"Ġti":5601,"Ġastropy":5602,"Ġ'[":5603,"Ġ'{}":5604,"Ġreferences":5605,"Ġretrie":5606,"Ġscope":5607,"ctor":5608,"Ġns":5609,"Ġbo":5610,"Ġbound":5611,"Ġwide":5612,"Ġcovered":5613,"ĠCL":5614,"ĠassertI":5615,"ĠPublish":5616,"Ġdirection":5617,"Ġreshape":5618,"pytest":5619,"Ġproper":5620,"protein":5621,"allclose":5622,"ĠaddCleanup":5623,"coming":5624,"ains":5625,"Ġengine":5626,"wait":5627,"Ġjob":5628,"grave":5629,"Provider":5630,"Ġ//":5631,"Ġsources":5632,"itions":5633,"Ġreadline":5634,"ards":5635,"subpackage":5636,"Selector":5637,"validator":5638,"Stance":5639,"Ġcause":5640,"complete":5641,"ĠConstruct":5642,"translate":5643,"Ġdevices":5644,"Ġdistances":5645,"Arrow":5646,"ializer":5647,"Ġcallable":5648,"ĠStart":5649,"Ġ2017":5650,"Parameters":5651,"Distribution":5652,"Ġreceive":5653,"Ġhashlib":5654,"Ġrequirements":5655,"Ġmonitor":5656,"sending":5657,"children":5658,"frac":5659,"specifi":5660,"Ġfinder":5661,"ĠMAX":5662,"execute":5663,"adoop":5664,"ĠOtherwise":5665,"(.*?":5666,"normal":5667,"Ġtemporary":5668,"Twice":5669,"Ġbranch":5670,"ambiguous":5671,"$\"":5672,"45":5673,"AU":5674,"Ac":5675,"CTION":5676,"IAN":5677,"MJ":5678,"PRO":5679,"bundle":5680,"cb":5681,"cri":5682,"em":5683,"eq":5684,"holder":5685,"tn":5686,"warning":5687,"yb":5688,"lis":5689,"Ġttype":5690,"Ġtwitter":5691,"atio":5692,"Ġaa":5693,"member":5694,"Ġremoved":5695,"Ġsx":5696,"Ġnan":5697,"Ġdev":5698,"Ġdestroy":5699,"ceed":5700,"Ġinside":5701,"Ġinherit":5702,"Ġbl":5703,"Ġwra":5704,"illa":5705,"vex":5706,"ĠCFG":5707,"ĠSTY":5708,"ĠAD":5709,"romium":5710,"ĠFloat":5711,"Ġrstrip":5712,"ĠPost":5713,"ĠPIPE":5714,"ĠLIMIT":5715,"ĠGroup":5716,"ĠDEC":5717,"Ġunpack":5718,"ĠOUT":5719,"Ġjump":5720,"ĠBatch":5721,"force":5722,"ĠWSG":5723,"Ġravel":5724,"sync":5725,"Ġnecessary":5726,"Ġoutputs":5727,"LENS":5728,"clar":5729,"plane":5730,"Regexp":5731,"statement":5732,"Ġrequested":5733,"Ġspan":5734,"adding":5735,"256":5736,"groups":5737,"Ġextract":5738,"ĠAlter":5739,"Ġ2012":5740,"aja":5741,"Ġdisplayed":5742,"ĠInteger":5743,"Ġskipped":5744,"train":5745,"ĠHTTPRedirect":5746,"ffic":5747,"Ġcomponents":5748,"Ġmetrics":5749,"ierarchical":5750,"aussian":5751,"expand":5752,"Ġsensor":5753,"ĠNotImplementedError":5754,"wisted":5755,"ĠROLE":5756,"Ġtruncate":5757,"ĠJsonableError":5758,"clusive":5759,"allel":5760,"chanism":5761,"ĠSTYLENS":5762,"47":5763,"EP":5764,"Form":5765,"KL":5766,"MH":5767,"Port":5768,"crypt":5769,"dwe":5770,"fun":5771,"sparse":5772,"tw":5773,"uuid":5774,"ÛĮ":5775,"Ġtur":5776,"Ġtear":5777,"atically":5778,"Ġamb":5779,"Ġ'='":5780,"Ġpi":5781,"Ġ['":5782,"Ġreader":5783,"Ġretry":5784,"itation":5785,"Ġes":5786,"Ġegg":5787,"Ġdesi":5788,"Ġdue":5789,"Ġduration":5790,"Ġdashboard":5791,"Ġinf":5792,"rase":5793,"lap":5794,"ptr":5795,"digest":5796,"Ġisn":5797,"Ġexpi":5798,"ĠCOM":5799,"ĠCURRENT":5800,"ĠSCons":5801,"ĠAction":5802,"ĠassertAll":5803,"ĠPl":5804,"provider":5805,"ĠDIV":5806,"ĠEnt":5807,"ĠfileName":5808,"Ġyaml":5809,"Ġchan":5810,"Ġwho":5811,"Ġlogged":5812,"Ġnever":5813,"sha":5814,"Ġfilters":5815,"agers":5816,"Ġmatching":5817,"Ġoptik":5818,"ICT":5819,"Tests":5820,"bsite":5821,"ILL":5822,"ULL":5823,"Ġbuilding":5824,"leton":5825,"pointer":5826,"private":5827,"category":5828,"Ġexecution":5829,"disable":5830,"inputhook":5831,"Ġ1000":5832,"network":5833,"pkg":5834,"IBLE":5835,"Ġindicate":5836,"Output":5837,"Child":5838,"gories":5839,"Ġseparate":5840,"----------------":5841,"Ġcommunic":5842,"Ġzerver":5843,"sence":5844,"Failed":5845,"ĠCHAR":5846,"requirements":5847,"ĠEVENT":5848,"Ġfuzzable":5849,"ristAngle":5850,"Ġuntil":5851,"ĠRecipient":5852,"Ġaccording":5853,"${":5854,"'%":5855,"101":5856,"Auth":5857,"DATA":5858,"GS":5859,"RIGHT":5860,"SH":5861,"Temp":5862,"Valid":5863,"Widget":5864,"\\\",":5865,"cwd":5866,"facts":5867,"yaml":5868,"ÃŃ":5869,"lish":5870,"separ":5871,"select":5872,"insert":5873,"Ġtgt":5874,"ato":5875,"Ġ'\"":5876,"Ġ'@":5877,"eng":5878,"erce":5879,"Ġfactory":5880,"Ġfcnt":5881,"Ġdecimal":5882,"ĠTry":5883,"Ġvide":5884,"Ġvirt":5885,"Ġexact":5886,"ĠATT":5887,"ĠAUTH":5888,"Ġprob":5889,"vile":5890,"ĠDO":5891,"Ġmade":5892,"ĠERR":5893,"Ġcommit":5894,"ĠOcl":5895,"ĠOptions":5896,"paw":5897,"Ġjs":5898,"ĠBUT":5899,"Ġhel":5900,"trib":5901,"ENABLE":5902,"Ġperiod":5903,"supported":5904,"rence":5905,"weight":5906,"ertical":5907,"ertificate":5908,"complement":5909,"Ġworkflow":5910,"Ġactiv":5911,"Ġactions":5912,"Ġhandlers":5913,"processing":5914,"character":5915,"Ġfeconf":5916,"ĠUnit":5917,"Ġclusters":5918,"Ġavatar":5919,"Ġpostmaster":5920,"packages":5921,"FIELD":5922,"UNIT":5923,"going":5924,"================":5925,"hello":5926,"activate":5927,"metric":5928,"ACTIVITY":5929,"torrent":5930,"Ġworldmap":5931,"icrosoft":5932,"dapter":5933,"ĠLIMITED":5934,"Ġfcntl":5935,"\"^":5936,"'ll":5937,"(-":5938,"*.":5939,"/\"":5940,"72":5941,"={":5942,"AX":5943,"BE":5944,"Custom":5945,"Min":5946,"Network":5947,"Yscale":5948,"[\\":5949,"bd":5950,"cu":5951,"dk":5952,"emon":5953,"emails":5954,"gl":5955,"gui":5956,"ount":5957,"rpm":5958,"uation":5959,"vid":5960,"|%":5961,"Ã¼":5962,"nected":5963,"requ":5964,"enari":5965,"Ġcirc":5966,"Ġ\"[":5967,"Ġfra":5968,"Ġfore":5969,"Ġfacts":5970,"Ġreload":5971,"Ġmd":5972,"Ġinline":5973,"rottle":5974,"rial":5975,"rive":5976,"ĠTable":5977,"dium":5978,"Ġang":5979,"ĠCAP":5980,"ĠCSS":5981,"ĠFoo":5982,"Ġgetter":5983,"keep":5984,"ĠPla":5985,"Ġmeas":5986,"ĠGET":5987,"screen":5988,"ĠDNS":5989,"keyring":5990,"ĠMARK":5991,"Ġcomb":5992,"Ġshuffle":5993,"Ġchmod":5994,"ĠWH":5995,"Ġattrib":5996,"sym":5997,"Ġraised":5998,"ART":5999,"ĠcheckApk":6000,"Proxy":6001,"TIME":6002,"ĠTestMake":6003,"().":6004,"ignore":6005,"Ġ``'":6006,"Ġoptname":6007,"REATE":6008,"xyz":6009,"ĠCommon":6010,"intersect":6011,"Arch":6012,"missions":6013,"ĠFormat":6014,"Ġreplacement":6015,"LOCK":6016,"ĠStringVar":6017,"inputs":6018,"ĠArgument":6019,"Ġindic":6020,"Ġsomething":6021,"Ġoperator":6022,"IVE":6023,"wards":6024,"gpu":6025,"Ġeditable":6026,"Ġbufferpool":6027,"Ġescape":6028,"Ġrestrict":6029,"Ġrtol":6030,"threads":6031,"extras":6032,"Ġmbed":6033,"Ġpickle":6034,"initialized":6035,"ĠLIABILITY":6036,"Ġivl":6037,"Ġalignment":6038,"Ġdependencies":6039,"Ġotu":6040,"dimension":6041,"Ġbehavior":6042,"Ġjumpkind":6043,"ristAngleCW":6044,"ĠATTR":6045,"ĠTestMakeApk":6046,"'``":6047,"400":6048,"500":6049,"Access":6050,"DN":6051,"Event":6052,"Fixed":6053,"IJ":6054,"PY":6055,"Range":6056,"Script":6057,"WN":6058,"You":6059,"hierarchy":6060,"imp":6061,"iali":6062,"jn":6063,"nst":6064,"td":6065,"wb":6066,"Ġnt":6067,"linear":6068,"revision":6069,"Ġtuples":6070,"Ġaff":6071,"Ġ'|":6072,"erature":6073,"omain":6074,"Ġpoll":6075,"alter":6076,"Ġswitch":6077,"Ġdraft":6078,"Ġms":6079,"Ġmight":6080,"Ġbook":6081,"Ġ18":6082,"atent":6083,"ril":6084,"serve":6085,"unded":6086,"Ġasyn":6087,"ished":6088,"ĠCaja":6089,"ĠAL":6090,"esNot":6091,"Ġ23":6092,"ĠPR":6093,"ĠLes":6094,"ĠLaTeX":6095,"Ġorientation":6096,"Ġlst":6097,"Ġlhs":6098,"istered":6099,"ourier":6100,"Ġcontact":6101,"Ġcontribut":6102,"Ġsets":6103,"Ġmajor":6104,"ĠEl":6105,"Ġchdir":6106,"Ġchain":6107,"ONE":6108,"pherical":6109,"precation":6110,"Ġatol":6111,"Ġ40":6112,"Ġsympy":6113,"Ġpayload":6114,"ITAL":6115,"Ġstarting":6116,"definition":6117,"Ġles":6118,"Ġless":6119,"Protein":6120,"Repo":6121,"called":6122,"alized":6123,"Ġstates":6124,"Ġcast":6125,"ĠDecimal":6126,"Ġgenerator":6127,"configure":6128,"Allow":6129,"Ġpatterns":6130,"Ġpopen":6131,"Ġallows":6132,"ĠLOCAL":6133,"Ġappear":6134,"marks":6135,"Sources":6136,"Ġrelation":6137,"Filename":6138,"mbedded":6139,"Extension":6140,"extensions":6141,"Ġsupplied":6142,"Ġflush":6143,"scheme":6144,"Ġautomatically":6145,"Ġcrypto":6146,"quoted":6147,"ĠTHIS":6148,"Packages":6149,"ĠPublishRepo":6150,"Ġdesired":6151,"enario":6152,"'),":6153,"41":6154,"81":6155,"91":6156,"=.'":6157,"Click":6158,"Function":6159,"LY":6160,"NInt":6161,"PUBL":6162,"Rect":6163,"TOP":6164,"Wrapper":6165,"false":6166,"gC":6167,"oke":6168,"spect":6169,"Ã¤":6170,"Ġtyp":6171,"members":6172,"Ġplease":6173,"Ġsig":6174,"itize":6175,"Ġderi":6176,"Ġdescriptor":6177,"Ġbad":6178,"Ġbel":6179,"peer":6180,"people":6181,"ues":6182,"Ġum":6183,"rides":6184,"olling":6185,"ĠClient":6186,"ĠSERV":6187,"Ġstand":6188,"quare":6189,"Ġhapp":6190,"Ġhome":6191,"Ġhierarchy":6192,"umb":6193,"ĠPrint":6194,"ĠIG":6195,"Ġarr":6196,"ĠLen":6197,"ĠRule":6198,"ournal":6199,"ĠGD":6200,"ĠObject":6201,"construct":6202,"convert":6203,"ERP":6204,"chema":6205,"percent":6206,"Ġdoctype":6207,"cap":6208,"ARI":6209,"ARGET":6210,"ĠHow":6211,"ĠHome":6212,"ship":6213,"plain":6214,"grading":6215,"graphic":6216,"Instance":6217,"Ġcodecs":6218,"Ġserve":6219,"ports":6220,"missing":6221,"rency":6222,"ĠXXX":6223,"textbooks":6224,"Ġtracks":6225,"Ġfailure":6226,"cached":6227,"AAAA":6228,"Ġstdin":6229,"Ġmarkdown":6230,"posit":6231,"ĠLogs":6232,"MAIL":6233,"handle":6234,"awt":6235,"Ġresolver":6236,"Ġplugins":6237,"CONT":6238,"Symbol":6239,"Ġserialize":6240,"Ġshared":6241,"Ġfigure":6242,"Valve":6243,"fficient":6244,"ĠWhether":6245,"TYPES":6246,"specific":6247,"ĠCAPITAL":6248,"ĠLesser":6249,"93":6250,"BR":6251,"CN":6252,"Could":6253,"Cloud":6254,"Fin":6255,"Mo":6256,"MIN":6257,"MOD":6258,"Menu":6259,"Multi":6260,"OF":6261,"Pass":6262,"Ro":6263,"SkyCoord":6264,"TP":6265,"TW":6266,"ail":6267,"cmp":6268,"eval":6269,"nom":6270,"none":6271,"san":6272,"windows":6273,"Ġqui":6274,"Ġtx":6275,"atat":6276,"oriz":6277,"Ġir":6278,"Ġili":6279,"lem":6280,"Ġ\"(":6281,"media":6282,"Ġsched":6283,"ural":6284,"urls":6285,"Ġeps":6286,"Ġdec":6287,"Ġdescrib":6288,"Ġdeserialized":6289,"Ġmiddleware":6290,"Ġwage":6291,"atest":6292,"Ġanomaly":6293,"ung":6294,"unge":6295,"ĠNumber":6296,"Ġexternal":6297,"ĠFactory":6298,"Ġhis":6299,"esian":6300,"Ġrpm":6301,"ĠPL":6302,"ĠLink":6303,"Ġconst":6304,"Ġconvey":6305,"ĠRect":6306,"Ġ{}'":6307,"cost":6308,"artesian":6309,"--+":6310,"ipal":6311,"ĠOP":6312,"ĠOver":6313,"Ġshift":6314,"ĠBType":6315,"phrase":6316,"resol":6317,"Ġrobot":6318,"Ġsuds":6319,"Ġprec":6320,"rigin":6321,"Ġjoinpoint":6322,"Restrict":6323,"Ġcolors":6324,"226":6325,"SED":6326,"Ġcurr":6327,"Ġrecurs":6328,"Ġgeo":6329,"Execut":6330,"Ġoptim":6331,"Ġquot":6332,"REAM":6333,"bso":6334,"Ġchars":6335,"ILES":6336,"beam":6337,"Ġsizeof":6338,"Ġregular":6339,"ternative":6340,"Manip":6341,"Ġprovides":6342,"Ġhelpers":6343,"dence":6344,"ialize":6345,"Ġcalcul":6346,"venio":6347,"Ġseek":6348,"Ġauthors":6349,"POST":6350,"Ġerrno":6351,"Directory":6352,"FIX":6353,"Ġclustering":6354,"ĠAdditional":6355,"ibm":6356,"stants":6357,"ĠAttributes":6358,"ĠKeyword":6359,"blocks":6360,"ĠChange":6361,"devices":6362,"EMPL":6363,"Ġmerged":6364,"ĠListbox":6365,"ĠDict":6366,"lastic":6367,"Ġcookies":6368,"Compiler":6369,"ĠEnable":6370,"Ġconvolve":6371,"Ġsubscriptions":6372,"ĠTensorFlow":6373,"Ġrouter":6374,"Ġmemory":6375,"ĠVerbose":6376,"ĠDBConnection":6377,"GPHOME":6378,"Plugin":6379,"router":6380,"Ġattempt":6381,"mongo":6382,"Ġnickname":6383,"pository":6384,"\"),":6385,"Bound":6386,"COD":6387,"Droopy":6388,"GM":6389,"Match":6390,"NING":6391,"PS":6392,"Queue":6393,"VID":6394,"Xscale":6395,"draft":6396,"ef":6397,"gre":6398,"git":6399,"gned":6400,"jk":6401,"lon":6402,"runtime":6403,"une":6404,"Ã¥":6405,"Ø±":6406,"lies":6407,"storage":6408,"styles":6409,"inos":6410,"replace":6411,"Ġtak":6412,"Ġau":6413,"Ġable":6414,"stru":6415,"stract":6416,"Ġ':'":6417,"Ġcwd":6418,"leg":6419,"omic":6420,"mean":6421,"Ġwsgi":6422,"loaded":6423,"Ġ19":6424,"Ġvim":6425,"Ġtol":6426,"abc":6427,"ĠNE":6428,"ĠNS":6429,"ĠNetwork":6430,"ĠCO":6431,"ĠSimple":6432,"exec":6433,"Ġhierarchical":6434,"Ġgu":6435,"Ġrm":6436,"ĠPath":6437,"ĠLC":6438,"Ġlorem":6439,"Ġconfirm":6440,"Ġ{'":6441,"cook":6442,"Ġprops":6443,"aling":6444,"ĠMain":6445,"ĠMigration":6446,"ĠOnly":6447,"Ġyet":6448,"conn":6449,"ĠBField":6450,"outer":6451,"ĠThere":6452,"acters":6453,"ITE":6454,"archive":6455,"Ġfiltered":6456,"Representer":6457,"dicts":6458,"ĠSession":6459,"Ġcomplement":6460,"Ġcompiled":6461,"Ġcodename":6462,"features":6463,"ACTER":6464,"ASL":6465,"Ġanything":6466,"irst":6467,"subscribers":6468,"weather":6469,"Ġbutton":6470,"ĠConnection":6471,"HOST":6472,"ĠProfile":6473,"ĠProxy":6474,"interval":6475,"internal":6476,"ĠCreates":6477,"skip":6478,"sktop":6479,"ĠStream":6480,"lots":6481,"alent":6482,"Ġpages":6483,"Ġtasks":6484,"Ġedges":6485,"Ġparticular":6486,"patterns":6487,"Ġclone":6488,"Helper":6489,"marker":6490,"Ġcreation":6491,"Ġcreating":6492,"lipse":6493,"Address":6494,"cdns":6495,"azure":6496,"Ġdaemon":6497,"Ġrestricted":6498,"certificate":6499,"Ġcompatible":6500,"Ġcpu":6501,"Ġzero":6502,"Utils":6503,"Ġrepeated":6504,"quivalent":6505,"Backend":6506,"itude":6507,"ĠCONTROL":6508,"BooleanField":6509,"cription":6510,"ĠCHARACTER":6511,"atatype":6512,"++":6513,"82":6514,"959":6515,"Adapter":6516,"Binary":6517,"Cost":6518,"Func":6519,"IAL":6520,"JSON":6521,"bind":6522,"eer":6523,"hist":6524,"hcp":6525,"je":6526,"jp":6527,"kw":6528,"tb":6529,"ua":6530,"vm":6531,"yes":6532,"Ġ~":6533,"iny":6534,"recalculate":6535,"Ġtxt":6536,"Ġtimer":6537,"medi":6538,"Ġpr":6539,"Ġok":6540,"ĠnWidth":6541,"Ġinst":6542,"Ġinspect":6543,"rols":6544,"Ġbd":6545,"Ġbom":6546,"Ġwatch":6547,"fill":6548,"ilar":6549,"dient":6550,"Ġisdir":6551,"Ġanaly":6552,"ĠSafe":6553,"Ġofp":6554,"ĠFla":6555,"Ġ22":6556,"Ġnotes":6557,"Ġnotifications":6558,"Ġglob":6559,"Ġgcdns":6560,"ĠassertOptim":6561,"Ġrrd":6562,"ĠPRE":6563,"upload":6564,"etadata":6565,"tems":6566,"Ġproc":6567,"Ġprogress":6568,"Ġmembers":6569,"alibr":6570,"ĠEvent":6571,"ĠEmail":6572,"ĠEmpty":6573,"ĠaddPoint":6574,"ONG":6575,"ĠUN":6576,"iles":6577,"matches":6578,"quired":6579,"Ġbuilder":6580,"ants":6581,"policy":6582,"agon":6583,"Exist":6584,"Ġdiscussion":6585,"Ġtablespace":6586,"Ġmanagers":6587,"subscribed":6588,"Ġmaxsize":6589,"210":6590,"Ġmater":6591,"singleton":6592,"Ġintersection":6593,"structure":6594,"DEFAULT":6595,"configuration":6596,"ĠOFPT":6597,"5609":6598,"Ġ2013":6599,"Ġdistutils":6600,"Unit":6601,"Ġassume":6602,"Ġadjust":6603,"Ġentities":6604,"Loader":6605,"iece":6606,"Ġconfigured":6607,"MAKE":6608,"Ġrecipients":6609,"Ġtoolchains":6610,"Ġclea":6611,"authentic":6612,"which":6613,"ĠResource":6614,"Ġphase":6615,"ĠAuthors":6616,"izesTo":6617,"identity":6618,"Ġgrey":6619,"MBER":6620,"lusterNode":6621,"ĠUtils":6622,"video":6623,"incipal":6624,"Ġinterpreter":6625,"Partial":6626,"ĠRedistribut":6627,"ĠtearDown":6628,"Ġvideo":6629,"TOPIC":6630,"mediate":6631,"ĠassertOptimizesTo":6632,"/{":6633,"/$'":6634,"123":6635,"=${":6636,"Cell":6637,"Joint":6638,"KS":6639,"LES":6640,"SERV":6641,"Tensor":6642,"Wh":6643,"Window":6644,"Xr":6645,"]``":6646,"hour":6647,"more":6648,"nap":6649,"px":6650,"pip":6651,"sup":6652,"tf":6653,"ä¸":6654,"Ġdom":6655,"leaf":6656,"omial":6657,"Ġ\"@":6658,"Ġpc":6659,"Ġren":6660,"Ġsa":6661,"Ġspaces":6662,"uri":6663,"ceptions":6664,"Ġdslice":6665,"Ġinner":6666,"Ġbco":6667,"ĠTab":6668,"Ġforms":6669,"Ġtoo":6670,"getitem":6671,"ĠCurrent":6672,"ĠSUB":6673,"agener":6674,"ely":6675,"quences":6676,"ĠFL":6677,"ĠForm":6678,"exist":6679,"ĠgetSetting":6680,"Ġ21":6681,"Ġ25":6682,"ĠIs":6683,"major":6684,"Ġprotein":6685,"proto":6686,"ĠDjango":6687,"Ġmachine":6688,"Ġundefined":6689,"ipv":6690,"Ġcompar":6691,"Ġosp":6692,"ĠBY":6693,"setting":6694,"Ġrab":6695,"Ġitself":6696,"ĠVAL":6697,"Ġround":6698,"Ġdefaultdict":6699,"Ġjobs":6700,"224":6701,"controller":6702,"Ġutility":6703,"apor":6704,"Delete":6705,"Ġmanage":6706,"037":6707,"Ġspecification":6708,"letion":6709,"indexes":6710,"ĠComment":6711,"ĠINCLUDING":6712,"brv":6713,"bran":6714,"Ġtrailing":6715,"priority":6716,"Manual":6717,"creen":6718,"based":6719,"Ġinstances":6720,"ModelProperty":6721,"128":6722,"Ġpostfix":6723,"UPDATE":6724,"flavor":6725,"Ġincludes":6726,"ĠCheckbutton":6727,"Ġreally":6728,"istration":6729,"blue":6730,"ĠConfiguration":6731,"Ġlsb":6732,"Ġbinding":6733,"components":6734,"Ġcopied":6735,"../../":6736,"Ġnormalize":6737,"Ġwrapped":6738,"lookup":6739,"ĠDAMAGES":6740,"Ġsatis":6741,"stdout":6742,"coststruct":6743,"ageneration":6744,"*\"":6745,"411":6746,"Bo":6747,"JL":6748,"KG":6749,"NG":6750,"NIn":6751,"Pri":6752,"Rest":6753,"Sup":6754,"Sim":6755,"UID":6756,"aff":6757,"bco":6758,"eper":6759,"eof":6760,"ferred":6761,"gH":6762,"nse":6763,"pdf":6764,"pending":6765,"rn":6766,"runk":6767,"scope":6768,"tml":6769,"uk":6770,"lide":6771,"increment":6772,"Ġtri":6773,"Ġaci":6774,"ony":6775,"once":6776,"enrol":6777,"Ġilist":6778,"Ġpd":6779,"Ġpadding":6780,"Ġsv":6781,"Ġdd":6782,"Ġdefer":6783,"ĠTOP":6784,"ĠTILE":6785,"Ġtouch":6786,"digits":6787,"vector":6788,"Ġexamples":6789,"ĠSU":6790,"ĠSc":6791,"ĠSome":6792,"ĠASS":6793,"ĠArab":6794,"this":6795,"Ġhigh":6796,"Ġnotification":6797,"Ġthree":6798,"Ġgap":6799,"Ġrd":6800,"Ġcons":6801,"Ġconstruct":6802,"Ġlatex":6803,"cores":6804,"cogn":6805,"ĠGrid":6806,"sci":6807,"Ġdataset":6808,"together":6809,"ĠMeta":6810,"ĠElastic":6811,"ipitation":6812,"Ġchoice":6813,"Ġchallenge":6814,"ĠBL":6815,"ĠBe":6816,"ĠBItem":6817,"Ġendian":6818,"Ġ\\\\":6819,"Ġnex":6820,"ivar":6821,"iving":6822,"Ġprepared":6823,"Project":6824,"valve":6825,"notification":6826,"Ġstatements":6827,"minimum":6828,"Device":6829,"Ġgeneral":6830,"=\"%":6831,"aised":6832,"msgid":6833,"Ġ2016":6834,"egin":6835,"Ġdistributions":6836,"fully":6837,"implement":6838,"Deferred":6839,"optional":6840,"ocument":6841,"Coordinate":6842,"ĠAnomaly":6843,"Ġchunks":6844,"Ġglobals":6845,"Ġartists":6846,"dfs":6847,"elements":6848,"Ġsegments":6849,"Ġchildren":6850,"Ġsqltypes":6851,"Ġresolve":6852,"ĠOpenERP":6853,"Ġbrowse":6854,"plugins":6855,"albums":6856,"fines":6857,"Ġsymbols":6858,"Ġremaining":6859,"ĠShould":6860,"Ġdetermine":6861,"Positive":6862,"ĠCOPYRIGHT":6863,"ultinomial":6864,"ĠOutput":6865,"ĠWSGI":6866,"ĠERROR":6867,"Robot":6868,"enrolled":6869,"203":6870,">\\":6871,"CG":6872,"CESS":6873,"DS":6874,"DIS":6875,"Eb":6876,"Job":6877,"Ne":6878,"Sizer":6879,"SIBLE":6880,"Template":6881,"UMENT":6882,"Vis":6883,"VIS":6884,"Write":6885,"XY":6886,"Xi":6887,"alect":6888,"ek":6889,"gd":6890,"gf":6891,"history":6892,"hubbard":6893,"land":6894,"rs":6895,"uce":6896,"zilla":6897,"descriptor":6898,"sted":6899,"stderr":6900,"represent":6901,"onic":6902,"Ġips":6903,"Ġfit":6904,"mega":6905,"alchemy":6906,"arb":6907,"arge":6908,"Ġreduce":6909,"ĠnHeight":6910,"Ġdendrogram":6911,"cell":6912,"Ġdn":6913,"Ġbro":6914,"ssl":6915,"fies":6916,"lack":6917,"Ġven":6918,"Ġvoid":6919,"undefined":6920,"ĠNULL":6921,"ĠCore":6922,"ĠSk":6923,"ĠSET":6924,"ĠStore":6925,"ĠAss":6926,"Ġgoogle":6927,"ĠId":6928,"Ġarange":6929,"ĠLanguage":6930,"ĠRNA":6931,"ĠRPM":6932,"ĠRadio":6933,"Ġlstrip":6934,"mac":6935,"Ġprostate":6936,"prow":6937,"program":6938,"Ġmet":6939,"Ġalter":6940,"ĠGR":6941,"ĠDIGIT":6942,"aliases":6943,"Ġmail":6944,"ĠMulti":6945,"Ġoutfile":6946,"ĠON":6947,"const":6948,"ĠWait":6949,"para":6950,"setattr":6951,"INPUT":6952,"Ġwhose":6953,"oose":6954,"ĠVertical":6955,"Ġlistdir":6956,"ATED":6957,"mous":6958,"moving":6959,"Ġneighb":6960,"Ġzope":6961,"Ġprevent":6962,"Ġchecks":6963,"Ġsoap":6964,"Ġreadonly":6965,"Exit":6966,"Ġdiscla":6967,"Ġtransforms":6968,"Ġpermitted":6969,"subject":6970,"ailab":6971,"Ġfieldname":6972,"uses":6973,"ILD":6974,"workflow":6975,"ĠQueue":6976,"condition":6977,"ĠProgram":6978,"Manifest":6979,"ĠAllow":6980,"Ġimages":6981,"Ġcalc":6982,"Ġcalling":6983,"Ġ2010":6984,"Ġ2011":6985,"Ġexecuted":6986,"Ġ2004":6987,"Ġitertools":6988,"disabled":6989,"Serializer":6990,"ĠvarName":6991,"views":6992,"Ġviewset":6993,"ĠREQU":6994,"images":6995,"Ġsections":6996,"GGER":6997,"Ġestas":6998,"Bugs":6999,"Ġcorrectly":7000,"ĠFieldAttribute":7001,"autom":7002,"ĠPROVID":7003,"ĠManager":7004,"Ġtraceback":7005,"catalog":7006,"smart":7007,"PRESS":7008,"ĠVerify":7009,"Ġagainst":7010,"Ġmodification":7011,"ĠOrdered":7012,"DefinitionError":7013,"lossary":7014,"ĠHelper":7015,"Ġannotate":7016,"uestion":7017,"Ġaggregate":7018,"iversal":7019,"Ġambiguous":7020,"Ġvirtual":7021,"esNotExist":7022,"Ġdescribing":7023,"Ġcleaned":7024,"ĠVerticalType":7025,"ailability":7026,"CENT":7027,"IUPAC":7028,"MD":7029,"Raw":7030,"SUB":7031,"TABLE":7032,"VE":7033,"batch":7034,"card":7035,"gy":7036,"iment":7037,"ired":7038,"ibrv":7039,"jump":7040,"ks":7041,"pad":7042,"slash":7043,"tls":7044,"wind":7045,"zure":7046,"ĠÃ©":7047,"lider":7048,"desktop":7049,"sel":7050,"relative":7051,"Ġtre":7052,"Ġaffi":7053,"strali":7054,"Ġ'&":7055,"endent":7056,"ender":7057,"Ġcs":7058,"Ġcar":7059,"Ġcross":7060,"Ġfar":7061,"analy":7062,"Ġnone":7063,"Ġec":7064,"Ġear":7065,"Ġemails":7066,"Ġdxf":7067,"Ġmal":7068,"ingHand":7069,"rich":7070,"otu":7071,"ĠTriangle":7072,"lag":7073,"Ġvs":7074,"Ġvec":7075,"Ġcoerce":7076,"ĠNe":7077,"ĠALL":7078,"ĠForeignKey":7079,"ĠFirst":7080,"Ġ24":7081,"odb":7082,"ĠPY":7083,"ĠPo":7084,"ĠPri":7085,"ĠLe":7086,"team":7087,"Ġproto":7088,"Ġpropa":7089,"Ġsetdefault":7090,"integer":7091,"Ġkiu":7092,"ĠEnd":7093,"Ġfilesystem":7094,"reated":7095,"pression":7096,"Ġ500":7097,"resses":7098,"INFO":7099,"Ġwhole":7100,"ĠVERSION":7101,"Ġarrays":7102,"ĠHAS":7103,"Ġnegative":7104,"Ġpredict":7105,"Ġlex":7106,"AND":7107,"Insert":7108,"Ġruns":7109,"rectangle":7110,"Ġready":7111,"ĠTestEnum":7112,"Ġplus":7113,"Ġdbid":7114,"note":7115,"background":7116,"Ġfunctionality":7117,"Ġperform":7118,"255":7119,"AMES":7120,"Ġscan":7121,"Ġworker":7122,"ĠComp":7123,"iterations":7124,"refresh":7125,"Ġtrack":7126,"5678":7127,"functions":7128,"Series":7129,"locations":7130,"Loc":7131,"Ġcached":7132,"Ġtopic":7133,"Ġconverted":7134,"2002":7135,"localhost":7136,"Ġown":7137,"SCALE":7138,"ĠArtistName":7139,"distances":7140,"Ġradial":7141,"cleanup":7142,"Ġseparation":7143,"Checking":7144,"original":7145,"ĠCleanName":7146,"Ġcorresponds":7147,"Elements":7148,"Ġsimp":7149,"ĠMatrix":7150,"invite":7151,"Ġpersons":7152,"ĠSEG":7153,"Ġastype":7154,"Ġgreater":7155,"Ġgranted":7156,"Double":7157,"Missing":7158,"ĠRuntimeError":7159,"consistency":7160,"ĠassertIs":7161,"vilege":7162,"requency":7163,"rillic":7164,"Ġrecursive":7165,"Ġrabbitvcs":7166,"ĠArabic":7167,"cognized":7168,"Ġnexson":7169,"PositiveIntegerField":7170,"megaT":7171,"Ġdisclaimer":7172,"Act":7173,"AIM":7174,"Cre":7175,"DT":7176,"Gu":7177,"Label":7178,"Num":7179,"PAR":7180,"Ste":7181,"Tangle":7182,"UE":7183,"Wgw":7184,"cx":7185,"done":7186,"eu":7187,"hu":7188,"pd":7189,"ratio":7190,"world":7191,"xies":7192,"xception":7193,"yv":7194,"livery":7195,"Ġ(<":7196,"inx":7197,"reference":7198,"Ġapk":7199,"Ġaverage":7200,"Ġseq":7201,"Ġsequences":7202,"heel":7203,"Ġ[%":7204,"Ġsre":7205,"Ġsizes":7206,"anscribe":7207,"ctuation":7208,"Ġnative":7209,"Ġev":7210,"Ġ021":7211,"Ġdetect":7212,"Ġdv":7213,"Ġdroopy":7214,"rou":7215,"Ġus":7216,"Ġusu":7217,"rag":7218,"Ġvapor":7219,"uler":7220,"Ġisa":7221,"Ġangle":7222,"unctuation":7223,"ison":7224,"ĠSD":7225,"ĠSTR":7226,"ĠAu":7227,"exc":7228,"Ġhubbard":7229,"icle":7230,"Ġgc":7231,"Ġdigits":7232,"ĠRename":7233,"Ġprodu":7234,"Ġ36":7235,"Ġkill":7236,"ĠGP":7237,"ĠDI":7238,"ĠDes":7239,"ĠDIS":7240,"ĠDATA":7241,"ĠMUT":7242,"Ġuninstall":7243,"Ġunused":7244,"lspace":7245,"Ġcham":7246,"ĠButton":7247,"ĠWindows":7248,"pher":7249,"ĠUSA":7250,"Ġlogical":7251,"Ġpair":7252,"ISING":7253,"Ġroll":7254,"stripe":7255,"ĠstartPose":7256,"Ġzl":7257,"Ġwrong":7258,"Ġ64":7259,"Ġtimedelta":7260,"stems":7261,"logging":7262,"feature":7263,"326":7264,"Ġtargetbase":7265,"TestRunner":7266,"irth":7267,"Section":7268,"ULTI":7269,"akref":7270,"Ġregard":7271,"Ġdocstring":7272,"braries":7273,"Ġprice":7274,"Ġlocalpart":7275,"Files":7276,"price":7277,"scripts":7278,"ĠStatus":7279,"Ġaligned":7280,"Ġassigned":7281,"Ġmodified":7282,"EXTR":7283,"ĠREQ":7284,"cannot":7285,"Ġprojects":7286,"ĠNotes":7287,"ĠCommands":7288,"FAIL":7289,"MAX":7290,"CLASS":7291,"aws":7292,"Ġtail":7293,"gtk":7294,"Timeout":7295,"responding":7296,"ĠEXT":7297,"Hello":7298,"ĠContext":7299,"ĠARISING":7300,"Ġcredentials":7301,"EMP":7302,"Ġseparator":7303,"OCK":7304,"fftpack":7305,"Application":7306,"Ġsentence":7307,"Ġmolecules":7308,"ĠResponse":7309,"veloper":7310,"Ġcompatibility":7311,"Ġsmtp":7312,"ArtistName":7313,"caten":7314,"Ġroutine":7315,"atexit":7316,"schema":7317,"ĠGeo":7318,"Ġobservation":7319,"Ġobservations":7320,"operation":7321,"Analysis":7322,"Ġnominal":7323,"Ġâĸģ'{}'":7324,"cNVH":7325,"dimensional":7326,"ĠSafeRepresenter":7327,"CoordinateFrame":7328,"Begin":7329,"Cor":7330,"Gp":7331,"HH":7332,"Http":7333,"Human":7334,"Imp":7335,"KO":7336,"LaTeX":7337,"MO":7338,"Pipe":7339,"Ret":7340,"SQL":7341,"Store":7342,"VN":7343,"Ver":7344,"bz":7345,"dater":7346,"flex":7347,"freq":7348,"fcn":7349,"hn":7350,"mult":7351,"sms":7352,"wc":7353,"water":7354,"xA":7355,"Ùĩ":7356,"çļ":7357,"derer":7358,"inn":7359,"real":7360,"representation":7361,"Ġturn":7362,"Ġttl":7363,"Ġcdata":7364,"Ġcap":7365,"lear":7366,"Ġ\"'\"":7367,"Ġ\",\"":7368,"Ġfo":7369,"Ġfs":7370,"Ġfactor":7371,"Ġpatent":7372,"Ġred":7373,"Ġol":7374,"Ġodd":7375,"Ġdevelop":7376,"Ġdic":7377,"Ġday":7378,"Ġmol":7379,"Ġmult":7380,"ĠTIB":7381,"ĠTibrv":7382,"Ġforward":7383,"ĠCustom":7384,"ĠCRU":7385,"ĠStri":7386,"ĠSEC":7387,"ĠShape":7388,"ĠSSL":7389,"ĠASV":7390,"ĠFun":7391,"Ġhist":7392,"Ġthings":7393,"ĠPunctuation":7394,"0009":7395,"Ġlnum":7396,"extend":7397,"Ġ31":7398,"ĠDownload":7399,"Ġunzip":7400,"Ġcomput":7401,"Ġydata":7402,"phan":7403,"period":7404,"periment":7405,"Ġ404":7406,"INK":7407,"ISer":7408,"ĠsubLayer":7409,"ĠnewValueDict":7410,"ĠHE":7411,"Ġcanv":7412,"ENCE":7413,"Ġtextvariable":7414,"Ġgeometric":7415,"Ġfails":7416,"ICE":7417,"Ġstreaming":7418,"Depth":7419,"Ġtransaction":7420,"icky":7421,"Ġlinked":7422,"Select":7423,"ained":7424,"failed":7425,"avas":7426,"URCE":7427,"2312":7428,"charset":7429,"Ġbottom":7430,"Ġprovide":7431,"Ġrepresents":7432,"Token":7433,"ĠStatic":7434,"ĠACV":7435,"Ġ2014":7436,"pendent":7437,"hosts":7438,"Ġpoplib":7439,"Parameter":7440,"ĠAddField":7441,"requires":7442,"EXT":7443,"ĠskipUnless":7444,"Ġdelta":7445,"clear":7446,"Ġbetter":7447,"ĠDEBUG":7448,"generator":7449,"Ġreports":7450,"bigchaindb":7451,"Ġdefinitions":7452,"special":7453,"writ":7454,"Prefix":7455,"ĠMatches":7456,"Ġgpu":7457,"editable":7458,"Ġexpressions":7459,"Suite":7460,"ĠSystem":7461,"Utili":7462,"ĠLIABLE":7463,"Ġmkdir":7464,"closed":7465,"Ġlegend":7466,"Analy":7467,"ĠassertNotIn":7468,"ĠHandle":7469,"ĠSHALL":7470,"Ġstylesheet":7471,"ĠBarrier":7472,"creds":7473,"Ġretrieve":7474,"Ġblue":7475,"Ġprobab":7476,"Ġfragment":7477,"lidean":7478,"Ġaffine":7479,"çļĦ":7480,"ĠTIBRV":7481,"ĠCRUD":7482,"97":7483,">%":7484,"BU":7485,"Cur":7486,"Course":7487,"Float":7488,"Foot":7489,"GC":7490,"KM":7491,"Kit":7492,"Lib":7493,"NL":7494,"NAMES":7495,"Rkt":7496,"Speci":7497,"Turn":7498,"Use":7499,"VA":7500,"Variable":7501,"^]":7502,"ao":7503,"bol":7504,"boolean":7505,"fall":7506,"java":7507,"mid":7508,"poly":7509,"rance":7510,"sd":7511,"sig":7512,"site":7513,"zedError":7514,"Ãµ":7515,"Ġatexit":7516,"negative":7517,"lier":7518,"detail":7519,"inline":7520,"Ġttable":7521,"att":7522,"atin":7523,"Ġam":7524,"ongs":7525,"Ġsecret":7526,"Ġselected":7527,"Ġ'</":7528,"environ":7529,"Ġce":7530,"Ġcli":7531,"legate":7532,"Ġ\".\"":7533,"Ġfur":7534,"Ġpub":7535,"ctools":7536,"Ġepub":7537,"cedil":7538,"Ġincrement":7539,"Ġwidget":7540,"loy":7541,"Ġ123":7542,"rices":7543,"Ġifft":7544,"Ġvari":7545,"Ġvery":7546,"die":7547,"under":7548,"chromium":7549,"olver":7550,"Ġreturning":7551,"ĠCodon":7552,"odetic":7553,"ĠSend":7554,"ĠAc":7555,"ĠAd":7556,"eln":7557,"Ġgather":7558,"Ġgreen":7559,"Ġloaded":7560,"Ġcond":7561,"ĠRel":7562,"ĠRIGHT":7563,"ĠRational":7564,"istic":7565,"Ġproxies":7566,"Ġalg":7567,"sched":7568,"keystore":7569,"ĠMenu":7570,"Ġunlink":7571,"Ġcomments":7572,"oston":7573,"conv":7574,"concentration":7575,"ĠBoston":7576,"cio":7577,"phinx":7578,"comments":7579,"ĠReport":7580,"resis":7581,"INCLUDING":7582,"Ġdoct":7583,"Ġsysc":7584,"Ġpak":7585,"oog":7586,"ATOR":7587,"places":7588,"grant":7589,"Record":7590,"ĠrunCmd":7591,"...'":7592,"SEL":7593,"():":7594,"ACHE":7595,"ETHER":7596,"Ġqueries":7597,"defaults":7598,"Ġmatched":7599,"Ġindexes":7600,"validation":7601,"Ġinitiali":7602,"Stream":7603,"Ġinteractive":7604,"ĠExpected":7605,"AML":7606,"Ġscreen":7607,"arkw":7608,"236":7609,"ĠINFO":7610,"Ġqueryset":7611,"NotUtili":7612,"processors":7613,"ĠProperty":7614,"ĠProtocol":7615,"Ġsending":7616,"Ġhosts":7617,"Ġlinesit":7618,"Ġbackground":7619,")))":7620,"Ġ'\\\\'":7621,"ĠWeb":7622,"OPTIONS":7623,"DBFeature":7624,"LOW":7625,"Loss":7626,"POINT":7627,"Ġabc":7628,"Ġgood":7629,"pki":7630,"5401":7631,"2010":7632,"ĠLocal":7633,"3984":7634,"ĠSTD":7635,"ĠSTREAM":7636,"tracks":7637,"Ġplane":7638,"Ġplain":7639,"patient":7640,"IVM":7641,"ĠAnsibleModule":7642,"diffe":7643,"Ġinitialization":7644,"963984":7645,"ĠSMS":7646,"ĠLogging":7647,"Canvas":7648,"Ġfunctools":7649,"Tracker":7650,"ĠApplication":7651,"signal":7652,"specified":7653,"Byte":7654,"Ġbarcode":7655,"ĠcontrolValueDict":7656,"ENDIAN":7657,"circle":7658,"ArtistID":7659,"Ġhexdigest":7660,"ipheral":7661,"identifier":7662,"Ġnormalized":7663,"ĠgraspingHand":7664,"ĠnPositionX":7665,"ĠnPositionY":7666,"ĠIndexError":7667,"Ġsanitize":7668,"ĠGraph":7669,"ĠCONTRACT":7670,"Ġ'@'":7671,"Ġangles":7672,"ĠPlace":7673,"ĠcheckApks":7674,"ArchList":7675,"ĠHowever":7676,"Password":7677,"959963984":7678,"authenticated":7679,"Ġbcolist":7680,"onymous":7681,"ĠPROVIDED":7682,"pheroid":7683,"ULTILINE":7684,"NotUtilizedError":7685,"9599639845401":7686,"-'":7687,"064":7688,"822":7689,"As":7690,"Batch":7691,"CO":7692,"Driver":7693,"Distance":7694,"FORM":7695,"Gre":7696,"Json":7697,"Origin":7698,"Person":7699,"Rel":7700,"SM":7701,"Sign":7702,"Uid":7703,"VERSION":7704,"WE":7705,"WIS":7706,"Wind":7707,"XF":7708,"YPE":7709,"Zip":7710,"bk":7711,"bul":7712,"cup":7713,"fit":7714,"iform":7715,"jpg":7716,"mar":7717,"middleware":7718,"uan":7719,"zA":7720,"zy":7721,"deprecated":7722,"deengine":7723,"stime":7724,"selected":7725,"inbound":7726,"reet":7727,"remo":7728,"reload":7729,"Ġtell":7730,"Ġsecurity":7731,"Ġ'*.":7732,"Ġ]*":7733,"Ġoch":7734,"Ġsite":7735,"Ġswa":7736,"Ġelev":7737,"ced":7738,"Ġdummy":7739,"Ġmw":7740,"Ġtheme":7741,"Ġinfix":7742,"ros":7743,"ropo":7744,"Ġbits":7745,"ĠwristAngleCW":7746,"Ġ127":7747,"ĠToolTip":7748,"launch":7749,"Ġve":7750,"Ġvers":7751,"unsigned":7752,"isol":7753,"Ġstaff":7754,"Ġsticky":7755,"ĠAb":7756,"exams":7757,"Ġgets":7758,"ĠgetLoc":7759,"Ġhoriz":7760,"Ġgn":7761,"Ġgaussian":7762,"Ġdiris":7763,"mag":7764,"machine":7765,"Ġrespon":7766,"Ġ};":7767,"istant":7768,"Ġcontraction":7769,"owels":7770,"ĠdataDir":7771,"ĠDummy":7772,"ĠDistance":7773,"tok":7774,"Ġapplied":7775,"ĠMOD":7776,"ĠEng":7777,"Ġunless":7778,"Ġjava":7779,"isect":7780,"ĠWork":7781,"Ġaddresses":7782,"OND":7783,"phome":7784,"compute":7785,"Ġ54":7786,"INTER":7787,"answer":7788,"Ġdolo":7789,"Ġdocker":7790,"scriber":7791,"ĠVariable":7792,"Ġprece":7793,"defs":7794,"ENTI":7795,"Ġversionadded":7796,"cesses":7797,"227":7798,"Ġnumerical":7799,"ĠSequence":7800,"ĠSegment":7801,"contact":7802,"ante":7803,"Ġ80":7804,"ACS":7805,"Ġnocase":7806,"ified":7807,"Ġtranslation":7808,"Ġcurrentcoststruct":7809,"START":7810,"filters":7811,"Ġsplitext":7812,"Ġinternet":7813,"socket":7814,"lobber":7815,"ixel":7816,"Ġregion":7817,"leting":7818,"lette":7819,"Ġactivity":7820,"Ġchangelog":7821,"CHAR":7822,"INGS":7823,"Settings":7824,"Ġ2007":7825,"ĠUserMessage":7826,"runner":7827,"Ġlimits":7828,"center":7829,"Ġobstime":7830,"Ġwriteln":7831,"correlate":7832,"ocrit":7833,"sumer":7834,"Ġpts":7835,"Ġsimrun":7836,"Ġ\"/\"":7837,"QUAL":7838,"area":7839,"reports":7840,"Ġradians":7841,"ĠEXPRESS":7842,"Cmds":7843,"PATTERN":7844,"ĠfixtureCmds":7845,"suffixes":7846,"ĠManagement":7847,"ĠHttpResponseRedirect":7848,"Ġletters":7849,"Ġmodifier":7850,"pinax":7851,"ĠOTHERWIS":7852,"NPolymorphicIn":7853,"Matrix":7854,"SPACE":7855,"Ġspeed":7856,"METHO":7857,"hydeengine":7858,"ĠDeleteModel":7859,"metageneration":7860,"FSFile":7861,"ĠSPEC":7862,"toolchains":7863,"approve":7864,"PASSWORD":7865,"ybq":7866,"ĠassertAllClose":7867,"vidual":7868,"ĠWHETHER":7869,"alizedString":7870,"Ġderived":7871,"ĠOPTIONS":7872,"Ġsatisfied":7873,"ĠBLACS":7874,"SizerNotUtilizedError":7875,"Step":7876,"Analyzer":7877,"ĠCodonTable":7878,"ĠgetLocalizedString":7879,"ĠOTHERWISE":7880,"'))":7881,")*":7882,"-\"":7883,"356":7884,"><":7885,"?\"":7886,"After":7887,"Bool":7888,"Basic":7889,"DC":7890,"DD":7891,"DNA":7892,"DOWN":7893,"DIRECT":7894,"Future":7895,"Flag":7896,"Go":7897,"Gener":7898,"Grid":7899,"HU":7900,"JIS":7901,"Lower":7902,"NEC":7903,"PER":7904,"POP":7905,"Rs":7906,"So":7907,"Tou":7908,"Tool":7909,"ToolTip":7910,"UnoControl":7911,"ZB":7912,"_\\":7913,"`_":7914,"dwa":7915,"dummy":7916,"gis":7917,"have":7918,"nz":7919,"plan":7920,"qq":7921,"uU":7922,"uint":7923,"vs":7924,"vol":7925,"wide":7926,"window":7927,"})":7928,"Ø¯":7929,"âĢ":7930,"lid":7931,"lineOptions":7932,"newlines":7933,"decimal":7934,"dependen":7935,"destroy":7936,"seg":7937,"dential":7938,"rew":7939,"reader":7940,"Ġtray":7941,"Ġtwisted":7942,"Ġctype":7943,"Ġcloud":7944,"Ġcells":7945,"Ġ\"^":7946,"Ġfuse":7947,"Ġprom":7948,"Ġrecent":7949,"ĠoDialog":7950,"Ġsit":7951,"Ġnarrow":7952,"Ġnprow":7953,"Ġep":7954,"Ġdeep":7955,"Ġdetail":7956,"Ġdol":7957,"Ġinstant":7958,"Ġwtable":7959,"Ġwater":7960,"Ġune":7961,"servers":7962,"ĠTORT":7963,"lambda":7964,"Ġanalog":7965,"chat":7966,"chmod":7967,"Ġask":7968,"ĠChem":7969,"ĠSolution":7970,"ĠSchema":7971,"ĠFE":7972,"Ġhs":7973,"Ġhard":7974,"esca":7975,"Ġgphome":7976,"ĠPipe":7977,"ubs":7978,"amount":7979,"Ġconden":7980,"Ġconstructor":7981,"istent":7982,"Ġprod":7983,"Ġcontrols":7984,"prop":7985,"problem":7986,"Ġkun":7987,"ĠDon":7988,"Ġapps":7989,"usage":7990,"pacity":7991,"ĠclassResourcePayload":7992,"Ġye":7993,"ĠWorld":7994,"permissions":7995,"ĠUsed":7996,"ĠobjectResourcePayload":7997,"Ġ```":7998,"syn":7999,"ilent":8000,"blems":8001,"Ġenough":8002,"latex":8003,"Ġidle":8004,"ught":8005,"shuffle":8006,"UTE":8007,"Ġtimezone":8008,"Ġnpcol":8009,"readonly":8010,"Ġreadlines":8011,"ĠInfo":8012,"notify":8013,"backup":8014,"porter":8015,"Ġgrouping":8016,"Ġmanip":8017,"built":8018,"builder":8019,"subnet":8020,"rows":8021,"epg":8022,"NUMBER":8023,"curs":8024,"axes":8025,"Ġminor":8026,"ĠStat":8027,"Ġ2015":8028,"hostname":8029,"LOAT":8030,"LOAD":8031,"Ġiterations":8032,"Ġexitmsg":8033,"Ġresources":8034,"Ġthreads":8035,"nexson":8036,"UND":8037,"Ġidentity":8038,"ocab":8039,"Ġrefresh":8040,"candid":8041,"ĠvalidateAfter":8042,"2000":8043,"trace":8044,"general":8045,"ĠCommandOption":8046,"Ġfts":8047,"assign":8048,"RESERV":8049,"Ġrelpath":8050,"PolymorphicTwice":8051,"Ġwsdl":8052,"Org":8053,"LinkTh":8054,"Ġmoves":8055,"Ġgoverned":8056,"CRS":8057,"ĠEnvironment":8058,"invoice":8059,"Ġsmall":8060,"ipherals":8061,"Ġdescendent":8062,"Web":8063,"ĠCourseTab":8064,"STRING":8065,"Ġevaluate":8066,"uptools":8067,"hood":8068,"ĠTeX":8069,"SKILL":8070,"pressor":8071,"Ġpreviously":8072,"uplicate":8073,"Ġcatalog":8074,"Ġdecorator":8075,"Ġchannel":8076,"shared":8077,"Ġcommunicate":8078,"PUBLIC":8079,"ĠRedistributions":8080,"branches":8081,"ĠScenario":8082,"richlet":8083,"Ġpropagate":8084,"KOI":8085,"ĠskipUnlessDBFeature":8086,"dieresis":8087,"IVMGR":8088,"ĠPipelineOptions":8089,").\"":8090,"414":8091,"62":8092,"BOT":8093,"FPT":8094,"GK":8095,"GCC":8096,"IAS":8097,"Lk":8098,"LATE":8099,"Last":8100,"My":8101,"Play":8102,"Pattern":8103,"RF":8104,"SU":8105,"Ter":8106,"Upper":8107,"XML":8108,"Zcut":8109,"brow":8110,"calibr":8111,"duration":8112,"dynam":8113,"dashboard":8114,"fb":8115,"floor":8116,"front":8117,"gres":8118,"jar":8119,"lb":8120,"lst":8121,"nul":8122,"ratch":8123,"rated":8124,"sin":8125,"some":8126,"switch":8127,"scores":8128,"two":8129,"uate":8130,"xF":8131,"Ġri":8132,"security":8133,"reverse":8134,"ond":8135,"enum":8136,"era":8137,"Ġcmp":8138,"Ġps":8139,"Ġplayer":8140,"alpha":8141,"Ġrestore":8142,"Ġrestart":8143,"ctoring":8144,"Ġnu":8145,"geo":8146,"Ġequivalent":8147,"cel":8148,"Ġdatatype":8149,"Ġmis":8150,"Ġmtype":8151,"Ġincomplete":8152,"Ġbpy":8153,"Ġbib":8154,"ssh":8155,"rain":8156,"diagon":8157,"union":8158,"uninstall":8159,"ĠCSV":8160,"ĠClusterNode":8161,"ĠScan":8162,"ĠSwitch":8163,"ĠSpan":8164,"ĠSANG":8165,"ĠSAX":8166,"Ġsto":8167,"ĠAli":8168,"quantity":8169,"exceptions":8170,"ĠgetProperty":8171,"Ġ28":8172,"Ġthreshold":8173,"Ġgx":8174,"uml":8175,"Ġrcode":8176,"ĠIF":8177,"Ġdiam":8178,"Ġdialect":8179,"ĠLAS":8180,"001":8181,"Ġln":8182,"ordance":8183,"tection":8184,"ryan":8185,"Ġmechanism":8186,"Ġkm":8187,"vides":8188,"ĠGE":8189,"ĠDocument":8190,"align":8191,"ĠMaster":8192,"ĠEns":8193,"ĠEval":8194,"Ġoutside":8195,"Ġcompare":8196,"ĠOn":8197,"pay":8198,"Ġjinja":8199,"Ġyaxis":8200,"ĠBig":8201,"msgs":8202,"dataset":8203,"dataverse":8204,"actual":8205,"Ġpairs":8206,"ĠVariant":8207,"Ġsubscribed":8208,"Ġsubscribers":8209,"stricted":8210,"ĠHOLD":8211,"ontal":8212,"228":8213,"codename":8214,"codeError":8215,"steps":8216,"poses":8217,"profiles":8218,"ĠTesting":8219,"logical":8220,"Ġgene":8221,"Ġmethodname":8222,"alizer":8223,"manage":8224,"043":8225,"Defines":8226,"Ġtransformed":8227,"Ġdistribute":8228,"supp":8229,"support":8230,"Ġndim":8231,"READ":8232,"ĠXen":8233,"Ġmatrices":8234,"Ġinterfaces":8235,"Ġcapt":8236,"Ġscn":8237,"Ġscratch":8238,"avatar":8239,"become":8240,"Ġprior":8241,"characters":8242,"Alarm":8243,"FileSystem":8244,"affine":8245,"ĠProtein":8246,"Arg":8247,"Ġselectors":8248,"Ġhostname":8249,"registry":8250,"HEAD":8251,"Ġrepresenting":8252,"Ġalphabets":8253,"ĠKONG":8254,"Ġgoing":8255,"TRIBUT":8256,"Ġindividual":8257,"2014":8258,"tooltip":8259,"generate":8260,"Less":8261,"Ġ\"-\"":8262,"([^":8263,"Ġindentation":8264,"Ġlibcloud":8265,"tasks":8266,"Ġvisible":8267,"arest":8268,"Ġcertain":8269,"feeds":8270,"versations":8271,"ĠContent":8272,"Ġestis":8273,"Builder":8274,"Ġsqlalchemy":8275,"ĠCTypesData":8276,"Grasp":8277,"fragment":8278,"Desired":8279,"probability":8280,"initialize":8281,"ĠSubscription":8282,"Ġlonger":8283,"AlbumTitle":8284,"ĠAuthor":8285,"Ġbeginning":8286,"Ġfetchone":8287,"Ġvertices":8288,"Generic":8289,"ĠCandidate":8290,"ĠDisplay":8291,"zero":8292,"seconds":8293,"Ġsymlink":8294,"ĠPOST":8295,"Ġdidn":8296,"Entity":8297,"ĠHelp":8298,"ĠInitialize":8299,"2345678":8300,"ĠCharacter":8301,"ĠFeed":8302,"ĠModi":8303,"ALException":8304,"memory":8305,"ĠLike":8306,"Ġintegration":8307,"ticks":8308,"ĠDNAAlphabet":8309,"Ġâĸģ\"{}\"":8310,"ĠQuery":8311,"Ġexplicitly":8312,"DistributionAnalysis":8313,"expandtab":8314,"ĠGDALException":8315,"Ġrmtree":8316,"tblspace":8317,"ĠOFPTFPT":8318,"SERVER":8319,"Ġrendered":8320,"ĠFLAGS":8321,"existing":8322,"stralia":8323,"ĠAustralia":8324,"ĠHEAD":8325,"Ġfurther":8326,"Greater":8327,"Touch":8328,"Ġdolor":8329,"escape":8330,"Ġcondensed":8331,")]":8332,"/.":8333,"299":8334,">/":8335,"></":8336,"?)":8337,"Art":8338,"BJ":8339,"Body":8340,"COL":8341,"Codon":8342,"Doc":8343,"Fv":8344,"Font":8345,"Guid":8346,"GUI":8347,"If":8348,"Items":8349,"LS":8350,"LAS":8351,"LIB":8352,"One":8353,"OFF":8354,"Print":8355,"Qz":8356,"RC":8357,"SY":8358,"Sensor":8359,"Scope":8360,"Screen":8361,"Two":8362,"UES":8363,"Unknown":8364,"YLE":8365,"apon":8366,"bbl":8367,"eb":8368,"every":8369,"effect":8370,"fu":8371,"fname":8372,"factor":8373,"href":8374,"household":8375,"mware":8376,"multiple":8377,"native":8378,"ograph":8379,"pn":8380,"por":8381,"qa":8382,"qt":8383,"rf":8384,"ssed":8385,"tex":8386,"vfs":8387,"wg":8388,"}{":8389,"}}":8390,"Ø¨":8391,"Ø³":8392,"à¤":8393,"Ġå":8394,"Ġquestion":8395,"news":8396,"dep":8397,"decode":8398,"delivery":8399,"Ġ(?":8400,"retry":8401,"representer":8402,"Ġtw":8403,"Ġten":8404,"atory":8405,"enapi":8406,"Ġcatch":8407,"Ġfour":8408,"Ġpg":8409,"Ġregex":8410,"geometric":8411,"Ġemp":8412,"Ġeos":8413,"Ġdepth":8414,"Ġdeclar":8415,"Ġdct":8416,"Ġdynamic":8417,"Ġinconsistency":8418,"Ġblacs":8419,"Ġug":8420,"otent":8421,"Ġvariance":8422,"ĠCancel":8423,"Ġstance":8424,"ĠAct":8425,"through":8426,"ĠFil":8427,"ĠFraction":8428,"Ġgetting":8429,"Ġhistory":8430,"Ġthird":8431,"umflex":8432,"ubric":8433,"Ġconform":8434,"004":8435,"igxis":8436,"Ġlibraries":8437,"term":8438,"Ġsetuptools":8439,"scan":8440,"Ġxs":8441,"using":8442,"ĠMin":8443,"Ġoutgoing":8444,"Ġcome":8445,"ĠOctave":8446,"ĠOmegaT":8447,"Ġshards":8448,"ĠBO":8449,"Ġadds":8450,"prepare":8451,"predicate":8452,"ĠReference":8453,"Ġsyn":8454,"ively":8455,"tabid":8456,"ĠVER":8457,"Ġresulting":8458,"88596":8459,"img":8460,"tries":8461,"nsu":8462,"Ġsubmission":8463,"tach":8464,"Ġsudo":8465,"colors":8466,"Ġcreates":8467,"Ġcoltype":8468,"Ġsocial":8469,"Ġformatted":8470,"Ġreadable":8471,"ĠInvenio":8472,"Ġ70":8473,"Ġbasestring":8474,"manual":8475,"Ġdisabled":8476,"REQU":8477,"STYLE":8478,"NULL":8479,"Ġgrading":8480,"Ġacquire":8481,"Ġregistry":8482,"ĠINTER":8483,"errupt":8484,"passwd":8485,"categories":8486,"scriptors":8487,"nalg":8488,"examples":8489,"plural":8490,"Union":8491,"IMG":8492,"visible":8493,"Ġ2009":8494,"Ġentire":8495,"Ġiterator":8496,"Ġcriter":8497,"OMAIN":8498,"Ġmapx":8499,"Ġzipfile":8500,"ĠMethod":8501,"Ġrefer":8502,"2015":8503,"Ġscripts":8504,"AttrShape":8505,"AttrPartial":8506,"etails":8507,"Enabled":8508,"Encoding":8509,"Polygon":8510,"mcu":8511,"1252":8512,"half":8513,"Build":8514,"ĠTOOL":8515,"ByName":8516,"Ġbarrier":8517,"FILENAME":8518,"ENDED":8519,"Complex":8520,"Ġnormal":8521,"Ġplaceholder":8522,"Subscription":8523,"ĠSymbol":8524,"softtabstop":8525,"Ġazure":8526,"Ġmakes":8527,"metrics":8528,"limiter":8529,"ĠExtended":8530,"Geometry":8531,"EDITOR":8532,"ĠInternal":8533,"SOURCE":8534,"ĠCorresponding":8535,"Formatter":8536,"Posture":8537,"ĠBytes":8538,"ĠDOCUMENT":8539,"Advice":8540,"ĠSouthTexasCity":8541,"Anomaly":8542,"Ġproperly":8543,"Accept":8544,"Ġsxip":8545,"lapsed":8546,"ENABLED":8547,"Ġmeasure":8548,"gCtl":8549,"umbna":8550,"Manipulation":8551,"struction":8552,"Whitespace":8553,"RestClient":8554,"Ġipsum":8555,"Impl":8556,"ĠSECOND":8557,"phanum":8558,"FORMAT":8559,"Ġinstanti":8560,"candidato":8561,"AttrPartialShape":8562,"ĠDOCUMENTATION":8563,"(**":8564,")``":8565,"215":8566,"266":8567,">).":8568,"?\\":8569,"Api":8570,"BG":8571,"Big":8572,"Cal":8573,"Car":8574,"CName":8575,"CREATE":8576,"Email":8577,"EVER":8578,"FK":8579,"FW":8580,"Iter":8581,"Icon":8582,"Ignore":8583,"NET":8584,"NLL":8585,"PID":8586,"RI":8587,"Sort":8588,"Space":8589,"Tilde":8590,"TARGET":8591,"cpp":8592,"clock":8593,"flip":8594,"gi":8595,"gyp":8596,"hip":8597,"ji":8598,"ki":8599,"mill":8600,"nav":8601,"oz":8602,"pca":8603,"qs":8604,"uvex":8605,"vo":8606,"ws":8607,"wy":8608,"xgw":8609,"Ġment":8610,"lihood":8611,"deleted":8612,"Ġ(\"":8613,"Ġaquote":8614,"Ġ'$":8615,"Ġcb":8616,"Ġpw":8617,"Ġptr":8618,"Ġpkt":8619,"hex":8620,"arc":8621,"Ġrepository":8622,"Ġsq":8623,"Ġss":8624,"Ġsizer":8625,"Ġequ":8626,"Ġelem":8627,"Ġdecla":8628,"Ġdts":8629,"Ġinc":8630,"Ġbund":8631,"Ġbio":8632,"Ġbisect":8633,"Ġwiki":8634,"Ġ128":8635,"oth":8636,"radius":8637,"ĠTRAN":8638,"ully":8639,"ulong":8640,"unity":8641,"unused":8642,"olden":8643,"ĠNew":8644,"ĠCN":8645,"ĠCss":8646,"ĠCartesian":8647,"idden":8648,"Ġhad":8649,"Ġgs":8650,"ĠPattern":8651,"ĠIter":8652,"ĠLook":8653,"Ġconcentration":8654,"ĠRES":8655,"ĠREST":8656,"ĠRender":8657,"__.":8658,"0003":8659,"Ġlvs":8660,"ignored":8661,"cos":8662,"eter":8663,"Ġlinalg":8664,"lying":8665,"Ġ33":8666,"ĠGData":8667,"Ġâĸģ'-":8668,"imes":8669,"too":8670,"ĠMULTILINE":8671,"ĠEP":8672,"mble":8673,"Ġshall":8674,"Ġchoose":8675,"constraint":8676,"setFilter":8677,"ĠUnoControl":8678,"prev":8679,"Ġlaunch":8680,"Ġsystems":8681,"ives":8682,"Ġlistener":8683,"molecule":8684,"Ġnested":8685,"Reader":8686,"Ġbugs":8687,"Ġsock":8688,"Ġcompany":8689,"SECTION":8690,"readmill":8691,"Ġcodes":8692,"ĠcontextHelper":8693,"Ġpassing":8694,"apping":8695,"Ġcmdline":8696,"ACL":8697,"mined":8698,"Ġquit":8699,"044":8700,"minor":8701,"Debug":8702,"Ġtranslated":8703,"submission":8704,"rences":8705,"Session":8706,"Ġ1024":8707,"AMPL":8708,"acle":8709,"Ġcaret":8710,"URN":8711,"DEBUG":8712,"Ġdirpath":8713,"Ġhandled":8714,"Ġmia":8715,"Ġmice":8716,":`~":8717,"Ġoverrides":8718,"ĠUninstall":8719,"msgqueue":8720,"ĠState":8721,"143":8722,"recipitation":8723,"Ġiterate":8724,"running":8725,"Lock":8726,"Ġretn":8727,"Ġabsent":8728,"lexible":8729,"Ġpacket":8730,"outputs":8731,"Poses":8732,"rappe":8733,"Leading":8734,"cases":8735,"798":8736,"ĠHttpRequest":8737,"Ġradio":8738,"Configuration":8739,"Ġinitializer":8740,"slug":8741,"ginator":8742,"ĠDouble":8743,"ĠCTypesGeneric":8744,"Ġresolved":8745,"Order":8746,"ĠResult":8747,"\"></":8748,"ĠMatched":8749,"executable":8750,"activated":8751,"Ġdimensions":8752,"ojn":8753,"Ġmaking":8754,"masked":8755,"Ġgives":8756,"BOOL":8757,"ILED":8758,"Ġimg":8759,"ĠCHAN":8760,"Ġbotocore":8761,"OWNED":8762,"NPolymorphicOut":8763,"Ġrandrange":8764,"ĠQtCore":8765,"ĠHasStop":8766,"Ġera":8767,"ĠreachAngle":8768,"Ġtraining":8769,"services":8770,"ĠFeature":8771,"Ġkiam":8772,"shiftwidth":8773,"IBUTORS":8774,"ĠCONTRIBUTORS":8775,"uplicates":8776,"Ġconflicts":8777,"Ġexactly":8778,"ĠOclApi":8779,"ĠMARKER":8780,"Ġcombined":8781,"TIMEOUT":8782,"ĠCommonDefines":8783,"ĠArguments":8784,"Ġasyncio":8785,"phericalRepresentation":8786,"Ġrelationship":8787,"ARIANT":8788,"--+--+":8789,"ĠOverride":8790,"EMPLATE":8791,"ĠCurrentCost":8792,"Simulator":8793,"implementation":8794,"ĠSkip":8795,"automated":8796,"smartindent":8797,"ĠOrderedDict":8798,"analytic":8799,"ĠassertIsNone":8800,"Ġrollback":8801,"EXTRA":8802,"ĠEXTENDED":8803,"avascript":8804,"Ġinitialise":8805,"Zipcode":8806,"browser":8807,"ĠSpanish":8808,"LeadingWhitespace":8809,"ĠHasStopCodon":8810,"/<":8811,"/(?":8812,"174":8813,"=-":8814,"=[":8815,">``":8816,"AZ":8817,"Ans":8818,"CY":8819,"DAT":8820,"Day":8821,"Domain":8822,"Gui":8823,"Household":8824,"KEN":8825,"LINK":8826,"MN":8827,"MARK":8828,"Over":8829,"PU":8830,"PACE":8831,"Qt":8832,"RAT":8833,"San":8834,"Spin":8835,"TC":8836,"TS":8837,"UST":8838,"Url":8839,"Xn":8840,"_\"":8841,"clobber":8842,"dsc":8843,"dash":8844,"ka":8845,"lv":8846,"mk":8847,"ni":8848,"nu":8849,"natch":8850,"nado":8851,"rg":8852,"snow":8853,"sqrt":8854,"slots":8855,"ude":8856,"ufe":8857,"vrouter":8858,"wp":8859,"needed":8860,"dec":8861,"dest":8862,"standard":8863,"staging":8864,"sete":8865,"secs":8866,"ince":8867,"repe":8868,"references":8869,"Ġtot":8870,"Ġagent":8871,"Ġ'+":8872,"Ġ'?'":8873,"Ġ\":\"":8874,"alarm":8875,"Ġscal":8876,"anization":8877,"Ġnx":8878,"ges":8879,"Ġdeci":8880,"Ġdelimiter":8881,"utron":8882,"Ġmf":8883,"Ġmchannel":8884,"Ġincr":8885,"ropy":8886,"route":8887,"Ġwi":8888,"Ġud":8889,"Ġuint":8890,"Ġucs":8891,"ĠTR":8892,"ĠTEMP":8893,"ĠTYPE":8894,"edu":8895,"chron":8896,"choice":8897,"ĠNAN":8898,"Ġ---":8899,"ĠCy":8900,"ĠCall":8901,"ĠCAS":8902,"ĠCertificate":8903,"ĠSalt":8904,"rome":8905,"Ġimports":8906,"ĠgetSegment":8907,"Ġhour":8908,"Ġ256":8909,"Ġgf":8910,"asca":8911,"Ġrnn":8912,"ĠPr":8913,"ĠPart":8914,"ĠPlayer":8915,"ĠPolling":8916,"Ġdialog":8917,"Ġarc":8918,"Ġarbit":8919,"Ġlogs":8920,"igi":8921,"Ġlin":8922,"prog":8923,"protected":8924,"Ġkar":8925,"Ġalt":8926,"Ġalert":8927,"ĠDist":8928,"Ġellipse":8929,"ĠMIT":8930,"ĠOne":8931,"ĠOper":8932,"connected":8933,"quent":8934,"perf":8935,"reduce":8936,"ĠUsage":8937,"Ġ45":8938,"Ġ51":8939,"Ġsyntax":8940,"88592":8941,"Ġsubclasses":8942,"Ġros":8943,"Ġupgrade":8944,"Ġzn":8945,"ildcard":8946,"Ġpresence":8947,"cally":8948,"codeEqual":8949,"Ġcomposition":8950,"Ġcurrency":8951,"Ġformatter":8952,"Ġurlparse":8953,"mitter":8954,"Ġmsgstr":8955,"ACGT":8956,"Ġ``<":8957,"miss":8958,"ICES":8959,"Ġdiscre":8960,"Ġencrypt":8961,"154":8962,"without":8963,"Ġpartner":8964,"subdir":8965,"REG":8966,"doctype":8967,"Ġindexing":8968,"Ġcharge":8969,"cluding":8970,"ĠExp":8971,"Ġscanner":8972,"Resolver":8973,"workers":8974,"ĠZs":8975,"DEC":8976,"Ġclients":8977,"Ġmaybe":8978,"ĠCompare":8979,"ĠCondition":8980,"ĠINC":8981,"layers":8982,"Ġports":8983,"Ġlocalename":8984,"Ġlocalrepo":8985,"00000000":8986,"Member":8987,"calls":8988,"IME":8989,"Ġconfd":8990,"cyrillic":8991,"Ġ2006":8992,"ControlModelProperty":8993,"Local":8994,"Ġtoplevel":8995,"requests":8996,"requested":8997,"DataFrame":8998,"Ġabort":8999,"Ġabstract":9000,"ĠassertRcodeEqual":9001,"Interrupt":9002,"ADATA":9003,"IRED":9004,"opener":9005,"changelog":9006,"Ġarchs":9007,"Ġsignature":9008,"ĠLOGGER":9009,"AttrList":9010,"ĠDEF":9011,"generated":9012,"ĠHTTPError":9013,"Ġsimilar":9014,"Ġsimuvex":9015,"INDIC":9016,"ĠEXAMPL":9017,"ĠDeferred":9018,"Ġipv":9019,"Ġacceptable":9020,"copyright":9021,"successors":9022,"Ġfontfile":9023,"Transport":9024,"queryset":9025,"WARNING":9026,"ynamo":9027,"Ġlayout":9028,"circumflex":9029,"Ġsmiles":9030,"onsnatch":9031,"Methods":9032,"\\\":\"":9033,"multiword":9034,"Ġprotocols":9035,"AlbumID":9036,"ĠSELECT":9037,"ĠConverts":9038,"ircle":9039,"ĠdoubleSpin":9040,"Ġsensors":9041,"AVE":9042,"Ġterminal":9043,"ĠInstallationError":9044,"ĠHasLinkTh":9045,"recipients":9046,"Ġbinder":9047,"InputHook":9048,"Ġldap":9049,"OpError":9050,"ĠLineSegment":9051,"ORMAL":9052,"Library":9053,"ĠBatchEntry":9054,"Ġindicates":9055,"Ġhelper":9056,"Ġmsf":9057,"Ġappears":9058,"Ġhappen":9059,"ĠIGMP":9060,"ĠRectangle":9061,"bsolete":9062,"Ġconfirmation":9063,"SupArchList":9064,"arbage":9065,"IUPACProtein":9066,"Ġdoctest":9067,"ĠProtocolError":9068,"bullet":9069,"METHOD":9070,"dynamics":9071,"ĠGEOS":9072,"ĠHOLDERS":9073,"ĠAustraliaCity":9074,"Ġcriterion":9075,"ĠPollingFuture":9076,"ĠEXAMPLES":9077,"ĠdoubleSpinBox":9078,"ĠHasLinkThing":9079,");":9080,"+)'":9081,"/?":9082,"/$\"":9083,"Az":9084,"Arc":9085,"BA":9086,"BB":9087,"Bad":9088,"Bryan":9089,"Cluster":9090,"EE":9091,"FILES":9092,"Hd":9093,"Hg":9094,"Ip":9095,"LU":9096,"Main":9097,"Open":9098,"RNN":9099,"Take":9100,"Uno":9101,"Vx":9102,"Yt":9103,"bb":9104,"bon":9105,"basic":9106,"black":9107,"cus":9108,"ess":9109,"gc":9110,"gm":9111,"goog":9112,"ker":9113,"must":9114,"plit":9115,"power":9116,"sa":9117,"super":9118,"saved":9119,"vp":9120,"wheel":9121,"xes":9122,"yt":9123,"}|":9124,"Ġ^":9125,"Ġè":9126,"Ġnewline":9127,"dependent":9128,"nte":9129,"inherit":9130,"rerun":9131,"Ġtco":9132,"Ġtwe":9133,"Ġtcor":9134,"Ġaround":9135,"Ġamet":9136,"Ġcv":9137,"Ġcron":9138,"Ġfc":9139,"Ġfrappe":9140,"median":9141,"Ġpose":9142,"Ġpdf":9143,"Ġprompt":9144,"always":9145,"hemer":9146,"Ġreloader":9147,"Ġsch":9148,"Ġsink":9149,"encies":9150,"Ġnargs":9151,"Ġmu":9152,"Ġmar":9153,"Ġmont":9154,"Ġind":9155,"Ġbgp":9156,"Ġwon":9157,"mpath":9158,"Ġdeferred":9159,"rable":9160,"lapping":9161,"edt":9162,"Ġvarkw":9163,"direction":9164,"Ġasus":9165,"vec":9166,"ĠCR":9167,"ĠClose":9168,"ĠCache":9169,"ĠCPU":9170,"ĠSY":9171,"ĠSIGN":9172,"ĠAuto":9173,"ĠFK":9174,"Ġgetcwd":9175,"Ġhit":9176,"Ġ29":9177,"Ġrbp":9178,"ĠLa":9179,"ĠLet":9180,"Ġlos":9181,"Ġconver":9182,"Ġconversion":9183,"ĠRUN":9184,"ĠRaw":9185,"may":9186,"enter":9187,"entity":9188,"endor":9189,"pyc":9190,"Ġproblems":9191,"Ġalarm":9192,"imeter":9193,"ĠDS":9194,"ĠMag":9195,"ĠMap":9196,"ĠMax":9197,"Ġunambiguous":9198,"lsb":9199,"ĠBlacs":9200,"ĠWh":9201,"Ġadding":9202,"setitem":9203,"Ġinte":9204,"pressed":9205,"ĠRepresenter":9206,"ĠRequired":9207,"Ġwhom":9208,"Ġkeywords":9209,"Ġlisting":9210,"ITT":9211,"ATY":9212,"matched":9213,"nsity":9214,"Ġprinted":9215,"Ġroles":9216,"Ġnewly":9217,"Ġnewznab":9218,"ĠHO":9219,"Ġneutron":9220,"ĠassertEqualIgnore":9221,"clusters":9222,"Ġpreserve":9223,"Ġleave":9224,"UTT":9225,"Ġ/>":9226,"Ġpyplot":9227,"statements":9228,"ĠSearch":9229,"codegen":9230,"Ġformatting":9231,"ĠTestSuite":9232,"Ġpassphrase":9233,"apply":9234,"Ġgeom":9235,"Ġ72":9236,"cutils":9237,"Exists":9238,"ICK":9239,"ifiers":9240,"Ġdispatch":9241,"ETERS":9242,"Ġresponses":9243,"lenium":9244,"048":9245,"ASH":9246,"ickle":9247,"Ġsplitlines":9248,"Condition":9249,"ĠANSIBLE":9250,"Comment":9251,"238":9252,"CHAIN":9253,"ĠinfosetFilter":9254,"curred":9255,"frames":9256,"osen":9257,"Attributes":9258,"ĠPygments":9259,"ĠUnused":9260,"Ġcalculate":9261,"namespace":9262,"Ġ\"%\"":9263,"functionapp":9264,"cpu":9265,"Ġdifflib":9266,"Ġagree":9267,"2022":9268,"bitarray":9269,"Ġvarargs":9270,"192":9271,"UPPORT":9272,"085":9273,"ĠKE":9274,"PLAY":9275,"ellation":9276,"ĠassertRaisesOpError":9277,"occurred":9278,"ĠtaskTree":9279,"ĠtransformUtils":9280,"ĠSTATE":9281,"ĠChecks":9282,"stalling":9283,"Change":9284,"Running":9285,"sider":9286,"ĠSourceVersion":9287,"assistant":9288,"good":9289,"feedback":9290,"itespaces":9291,"Ġaccepted":9292,"ATIONS":9293,"XXXX":9294,"displayed":9295,"OrUnion":9296,"UDP":9297,"ĠtranslatePath":9298,"ĠMockRunner":9299,"CONF":9300,"Prepared":9301,"postmaster":9302,"Descript":9303,"certs":9304,"Ġmultiword":9305,"Ġmultiprocessing":9306,"Ġxbmcvfs":9307,"elev":9308,"rules":9309,"ĠPermission":9310,"Ġautomated":9311,"issue":9312,"Color":9313,"speed":9314,"ĠDisable":9315,"Ġcxar":9316,"Ġimmediate":9317,"ĠPOSS":9318,"Plunge":9319,"levant":9320,"Ġdetermined":9321,"failure":9322,"NotFoundError":9323,"Ġquoteattr":9324,"ĠInterface":9325,"Ġpurpose":9326,"Ġpurposes":9327,"TERNAL":9328,"Ġscalars":9329,"Ġrotation":9330,"StructOrUnion":9331,"MAND":9332,"absolute":9333,"ĠLibrary":9334,"Ġtorznab":9335,"ĠTokenInfo":9336,"PREFIX":9337,"HTTPAdapter":9338,"bracket":9339,"(.*?)\"":9340,"twilio":9341,"providers":9342,"ĠEntity":9343,"Ġindicating":9344,"ĠPRIMIT":9345,"Ġcontributor":9346,"NIntsIn":9347,"Ġstandby":9348,"Finder":9349,"Ġprecision":9350,"Ġoptimize":9351,"Ġtakes":9352,"skipped":9353,"ĠFlask":9354,"Ġcomparison":9355,"ĠpostfixStr":9356,"ĠElasticStack":9357,"ĠAssume":9358,"Ġusually":9359,"ĠFunPerson":9360,"Signature":9361,"Ġhorizontal":9362,"ĠEnglish":9363,"ENTIAL":9364,"assignment":9365,"Playing":9366,"ography":9367,"IMGsize":9368,"umbnail":9369,"RATIO":9370,"Ġarbitrary":9371,"ĠPollingFutureImpl":9372,"TakeMany":9373,"Ġtcov":9374,"hemeral":9375,"Ġasusdisplay":9376,"ĠassertEqualIgnoreLeadingWhitespace":9377,"ĠMockRunners":9378,"Descriptor":9379,"'>":9380,")`":9381,".+":9382,"/{}":9383,"424":9384,"Call":9385,"DIGIT":9386,"EK":9387,"EMAIL":9388,"FH":9389,"FOR":9390,"Got":9391,"HG":9392,"LC":9393,"LAB":9394,"LSTATUS":9395,"Multinomial":9396,"On":9397,"OOD":9398,"Pi":9399,"Rule":9400,"Router":9401,"Sm":9402,"Sparse":9403,"Ta":9404,"[:":9405,"](":9406,"`:":9407,"ace":9408,"bian":9409,"dump":9410,"dating":9411,"dynamic":9412,"dhcp":9413,"fB":9414,"journal":9415,"kr":9416,"ktop":9417,"ln":9418,"lug":9419,"mR":9420,"nb":9421,"pas":9422,"pdist":9423,"poll":9424,"tile":9425,"vative":9426,"wx":9427,"wage":9428,"where":9429,"xlink":9430,"zu":9431,"Ã³":9432,"æķ":9433,"nels":9434,"lite":9435,"newznab":9436,"nto":9437,"sess":9438,"Ġ(@":9439,"ino":9440,"ining":9441,"Ġtro":9442,"Ġaffect":9443,"Ġaway":9444,"Ġselection":9445,"Ġ'>'":9446,"Ġ';'":9447,"Ġ'+'":9448,"Ġcq":9449,"Ġche":9450,"Ġcds":9451,"Ġcipher":9452,"ĠcLabel":9453,"ĠiDisplay":9454,"Ġ\",":9455,"Ġ\"|":9456,"Ġ\"}\"":9457,"Ġfk":9458,"Ġfmt":9459,"Ġpm":9460,"Ġpen":9461,"Ġpower":9462,"Ġreli":9463,"Ġsiso":9464,"Ġsamples":9465,"geometry":9466,"Ġelapsed":9467,"Ġder":9468,"Ġdeps":9469,"uthentic":9470,"Ġmid":9471,"Ġmtable":9472,"Ġmgr":9473,"Ġincorrect":9474,"Ġbus":9475,"Ġ180":9476,"atever":9477,"ategories":9478,"ĠTABLE":9479,"ĠTwitter":9480,"ĠTHeader":9481,"Ġvo":9482,"Ġcov":9483,"Ġtoday":9484,"ĠNor":9485,"Ġexclusive":9486,"ĠSASL":9487,"Ġstuff":9488,"thers":9489,"throttle":9490,"Ġimporter":9491,"ppings":9492,"ĠFourier":9493,"exact":9494,"ico":9495,"odings":9496,"Ġrng":9497,"ĠPort":9498,"ĠPlease":9499,"ĠIss":9500,"ĠIgnored":9501,"ĠLab":9502,"ube":9503,"ĠRaised":9504,"ecture":9505,"etc":9506,"mant":9507,"exter":9508,"versed":9509,"Ġprocessed":9510,"Ġsetlocale":9511,"ĠsetControlModelProperty":9512,"Ġalternative":9513,"Ġâĸģ''":9514,"scroll":9515,"ĠDLSTATUS":9516,"Ġmag":9517,"Ġelx":9518,"ĠMetadata":9519,"ĠEU":9520,"Ġunnamed":9521,"ĠOGR":9522,"Ġje":9523,"Ġjar":9524,"ĠclassResponse":9525,"ĠBit":9526,"ĠBATCH":9527,"ĠWill":9528,"peripheral":9529,"ĠUUID":9530,"ĠobjectResponse":9531,"Ġ4326":9532,"cant":9533,"moji":9534,"LEX":9535,"Ġtrying":9536,"ORIZ":9537,"Ġleading":9538,"Ġcanvas":9539,"graded":9540,"..\"":9541,"Ġpyscript":9542,"Ġpylab":9543,"223":9544,"Ġcodegen":9545,"Ġreads":9546,"Ġreading":9547,"()\"":9548,"Ġgeometry":9549,"``:":9550,"``).":9551,"Ġutc":9552,"apack":9553,"apped":9554,"Ġmsgid":9555,"Ġshouldn":9556,"Ġdisp":9557,"041":9558,"within":9559,"Ġpermut":9560,"subs":9561,"rendered":9562,"ledrive":9563,"REQ":9564,"facing":9565,"Ġtemplat":9566,"NUM":9567,"ĠExecut":9568,"Ġscaling":9569,"begin":9570,"ĠDefine":9571,"aker":9572,"Ġopenstack":9573,"Ġ'%.":9574,"ĠZip":9575,"indexer":9576,"ĠQU":9577,"cursor":9578,"transition":9579,"framework":9580,"refs":9581,"Ġparenthe":9582,"ĠGetString":9583,"Ġtoolkit":9584,"Ġdestfile":9585,"Ġrepresented":9586,"ridden":9587,"stroke":9588,"Ġreplaced":9589,"Unable":9590,"Ġpostp":9591,"cepts":9592,"Ġiterable":9593,"Parallel":9594,"Ġmigrate":9595,"ĠParser":9596,"conflict":9597,"Ġretract":9598,"AAA":9599,"ADD":9600,"Update":9601,"Ġwritable":9602,"\":\"":9603,"AttrBool":9604,"ĠSTAT":9605,"Ġcallbacks":9606,"accounts":9607,"'\\\\":9608,".*'":9609,"duction":9610,"ĠTextTestRunner":9611,"There":9612,"Ġextends":9613,"***":9614,"gpg":9615,"Ġnormpath":9616,"resourceGroup":9617,"ĠDoes":9618,"ĠDoesNotExist":9619,"Tee":9620,"CheckBox":9621,"ĠLogType":9622,"Grading":9623,"ĠAlbumTitle":9624,"Ġcorrespond":9625,"overlapping":9626,"Ġ\"<\"":9627,"ORDER":9628,"Extra":9629,"ĠTraffic":9630,"Ġcyc":9631,"Android":9632,"\\\"\"":9633,"ĠPerform":9634,"ĠoControlModel":9635,"torznab":9636,"CADE":9637,"ywm":9638,"isticsError":9639,"ĠUtil":9640,"Ø§Ù":9641,"Ġterminate":9642,"allowed":9643,"ĠIPv":9644,"Ġdependency":9645,"Ġauthenticate":9646,"Matches":9647,"ĠInitial":9648,"caron":9649,"ĠEND":9650,"ĠENCOD":9651,"IFIC":9652,"Mirror":9653,"ĠCOPYING":9654,"Operation":9655,"Ġbigchaindb":9656,"OfList":9657,"Ġcentroid":9658,"Ġwraps":9659,"ĠCOMMAND":9660,"ĠAUTHOR":9661,"ĠAUTHORS":9662,"Ġactivations":9663,"Ġcircle":9664,"Ġforecast":9665,"Ġbelongs":9666,"ĠClientError":9667,"resolvers":9668,"Ġcalculated":9669,"eerGrading":9670,"Ġmaterial":9671,"Ġdominos":9672,"representers":9673,"ĠCoreSimulator":9674,"Ġneighbour":9675,"Ġtreat":9676,"Ġlexer":9677,"Ġevdev":9678,"Ġprobably":9679,"BUILD":9680,"loyee":9681,"Ġvarious":9682,"schedule":9683,"ĠSTDOUT":9684,"âĢĮ":9685,"ĠCourseTabList":9686,"ĠProteinAlphabet":9687,"otential":9688,"Carve":9689,"ĠCASCADE":9690,"Ġkarrot":9691,"ĠPRIMITIVE":9692,"æķ°":9693,"Ġtemplatename":9694,"ĠGetStringOfList":9695,"AndroidManifest":9696,"'m":9697,"+\"":9698,".]":9699,"199":9700,"Av":9701,"AUTH":9702,"BAR":9703,"BACK":9704,"BLOCK":9705,"BUTT":9706,"CQ":9707,"Cat":9708,"CLE":9709,"Cspace":9710,"CTYPE":9711,"CII":9712,"CERT":9713,"Certificate":9714,"Done":9715,"DIST":9716,"JG":9717,"Jo":9718,"KD":9719,"Met":9720,"MESS":9721,"Obj":9722,"Off":9723,"PD":9724,"Ph":9725,"QT":9726,"Question":9727,"SN":9728,"Top":9729,"TEMPLATE":9730,"USE":9731,"Vr":9732,"Work":9733,"Wspace":9734,"Wgv":9735,"YU":9736,"Zsafe":9737,"]{":9738,"bB":9739,"bi":9740,"btn":9741,"cfg":9742,"click":9743,"eo":9744,"four":9745,"free":9746,"fpos":9747,"glet":9748,"imat":9749,"mul":9750,"nv":9751,"nx":9752,"numpy":9753,"qC":9754,"sOut":9755,"tcp":9756,"udio":9757,"vowels":9758,"xB":9759,"xfe":9760,"never":9761,"linenos":9762,"dendrogram":9763,"ntp":9764,"nts":9765,"stock":9766,"inless":9767,"reason":9768,"retrie":9769,"Ġtial":9770,"strap":9771,"Ġ')'":9772,"Ġcc":9773,"Ġcval":9774,"Ġfer":9775,"Ġfrequency":9776,"Ġfully":9777,"Ġpiece":9778,"Ġpixel":9779,"alth":9780,"alSymbol":9781,"Ġrepro":9782,"Ġothers":9783,"Ġsom":9784,"ano":9785,"Ġnav":9786,"generic":9787,"Ġey":9788,"Ġembedded":9789,"Ġdeal":9790,"Ġdeta":9791,"Ġdetected":9792,"Ġdeprecation":9793,"ceived":9794,"Ġds":9795,"ĠdÃ©":9796,"inger":9797,"Ġbld":9798,"pest":9799,"ssa":9800,"fidence":9801,"rics":9802,"otion":9803,"Ġvmware":9804,"Ġcovariance":9805,"Ġformed":9806,"Ġtoler":9807,"unzip":9808,"chart":9809,"ĠNex":9810,"ĠCF":9811,"ĠCREATE":9812,"ĠAngle":9813,"ĠAzure":9814,"ppy":9815,"Ġgetvalue":9816,"Ġhil":9817,"Ġhav":9818,"Ġhalf":9819,"Ġhaving":9820,"Ġthough":9821,"icMock":9822,"oday":9823,"Ġgit":9824,"Ġgis":9825,"Ġgzip":9826,"Ġgiving":9827,"Ġrather":9828,"Ġryu":9829,"ĠPool":9830,"ĠPush":9831,"Ġorm":9832,"ĠRET":9833,"ĠRandom":9834,"Ġ{}\"":9835,"Ġlparam":9836,"Ġlatest":9837,"Ġlarge":9838,"Ġbeh":9839,"terms":9840,"ourc":9841,"puter":9842,"prod":9843,"Ġalliance":9844,"ĠGB":9845,"ĠGot":9846,"ĠGather":9847,"Ġdatas":9848,"ĠDXF":9849,"ĠDOMAIN":9850,"ĠMust":9851,"Ġunich":9852,"Ġuniversal":9853,"ips":9854,"Ġcomma":9855,"pact":9856,"pacing":9857,"constants":9858,"consumer":9859,"ĠBasic":9860,"ĠBLOCK":9861,"ĠWE":9862,"ĠWith":9863,"ĠWarning":9864,"ĠUTF":9865,"until":9866,"preview":9867,"ĠRealm":9868,"outine":9869,"ESTION":9870,"ilest":9871,"Ġlogfile":9872,"ISH":9873,"ITTER":9874,"017":9875,"mont":9876,"ARG":9877,"Ġwebo":9878,"Ġweakref":9879,"Ġsubnet":9880,"Ġidf":9881,"Ġstarted":9882,"LENG":9883,"shot":9884,"pick":9885,"ifs":9886,"Ġpreference":9887,"defer":9888,"deferred":9889,"Ġmodulestore":9890,"ENU":9891,"sonants":9892,"Reach":9893,"Ġpygments":9894,"contains":9895,"SEQU":9896,"Ġcurdir":9897,"Ġformats":9898,"://'":9899,"Ġtruth":9900,"Ġutilities":9901,"ĠtargetKey":9902,"Ġendpoints":9903,"ACCESS":9904,"Demand":9905,"jected":9906,"Ġperformed":9907,"ĠCONSEQU":9908,"Selection":9909,"airo":9910,"dog":9911,"ABLES":9912,"Ġframes":9913,"weights":9914,"035":9915,"inally":9916,"complex":9917,"availability":9918,"ĠDeveloper":9919,"ĠYSCALE":9920,"harded":9921,"DEF":9922,"streaming":9923,"oldown":9924,"curobj":9925,"Ġtokenize":9926,"Ġlocals":9927,"Ġreqs":9928,"Ġtracing":9929,"maxsize":9930,"Ġcohorts":9931,"ĠAlt":9932,"024":9933,"Ġdistin":9934,"ĠSets":9935,"veni":9936,"Ġlowercase":9937,"ĠUserFactory":9938,"distributions":9939,"Ġdebugging":9940,"Ġmigration":9941,"both":9942,"updated":9943,"Ġstripped":9944,"Ġdocuments":9945,"Ġmarkers":9946,"ValueError":9947,"ĠKeyboard":9948,"topics":9949,"matcher":9950,"ĠLOSS":9951,"jobs":9952,"Ġchunksize":9953,"CLAIM":9954,"Ġinvoke":9955,"ĠlockBase":9956,"Ġindents":9957,"gbm":9958,"Ġpositive":9959,"RESP":9960,"Ġinitialized":9961,"OKEN":9962,"FLAG":9963,"Ġdegree":9964,"Ġassignments":9965,"rupt":9966,"ĠDirichlet":9967,"Tradius":9968,"StatusCommand":9969,"Ġlocated":9970,"Ġserializers":9971,"Description":9972,"Desktop":9973,"Ġmetavar":9974,"Tyw":9975,"Tybp":9976,"[^%":9977,"Ġplaced":9978,"Success":9979,"Ġgrr":9980,"ĠPerforms":9981,"ĠExtension":9982,"Ġvertical":9983,"Geom":9984,"MBED":9985,"ĠGeometry":9986,"Processor":9987,"ĠASCII":9988,"ĠOrder":9989,"Ġremainder":9990,"ĠSpecifies":9991,"shortcut":9992,"ĠQtGui":9993,"ĠCount":9994,"Ġauthentication":9995,"KEYWORD":9996,"documentation":9997,"Ġrotate":9998,"Returns":9999,"Ġannotations":10000,"Ġpipeline":10001,"Ġoccurred":10002,"ĠCalculate":10003,"quirement":10004,"ĠProcessing":10005,"ultinic":10006,"ĠUDError":10007,"consistent":10008,"koi":10009,"Parent":10010,"ĠSouthTexasZipcode":10011,"ĠAlterField":10012,"Ġturning":10013,"ĠEnter":10014,"separator":10015,"pawn":10016,"Ġcombine":10017,"Ġbooks":10018,"'),)\"":10019,"NIntsOut":10020,"Ġschedule":10021,"ĠMainWindow":10022,"Ġospf":10023,"ĠVALID":10024,"scipy":10025,"ĠPolicy":10026,"rouped":10027,"ĠDescription":10028,"ĠDISCLAIM":10029,"waterfall":10030,"ĠSPECIAL":10031,"Ġyeast":10032,"Ġgxin":10033,"poration":10034,"Ġblacsgrid":10035,"ĠBytesIO":10036,"Answer":10037,"ĠTEMPUNIT":10038,"ascade":10039,"RNNCell":10040,"ĠMagicMock":10041,"ITTLE":10042,"Small":10043,"conflicts":10044,"BUTTON":10045,"Ġunichr":10046,"Ġwebob":10047,"LENGTH":10048,"ĠCONSEQUENTIAL":10049,"TybpN":10050,"'.\"":10051,"-{":10052,"369":10053,"512":10054,">`.":10055,">[^":10056,"Ali":10057,"AIL":10058,"Bug":10059,"Block":10060,"CZ":10061,"CACHE":10062,"DICT":10063,"FER":10064,"FLOAT":10065,"GER":10066,"Look":10067,"MC":10068,"Middleware":10069,"MOCK":10070,"Please":10071,"Phi":10072,"Pickle":10073,"Rate":10074,"Role":10075,"SION":10076,"Spec":10077,"TOM":10078,"UWN":10079,"Vb":10080,"WM":10081,"Wait":10082,"YW":10083,"]|":10084,"bus":10085,"cL":10086,"dc":10087,"dt":10088,"dtype":10089,"dll":10090,"dtemp":10091,"drunk":10092,"fv":10093,"gid":10094,"gers":10095,"gpl":10096,"hg":10097,"hard":10098,"high":10099,"ict":10100,"ivi":10101,"jis":10102,"lte":10103,"nr":10104,"narrow":10105,"qn":10106,"sound":10107,"simple":10108,"slider":10109,"tle":10110,"wsgi":10111,"xC":10112,"xm":10113,"ÃŁ":10114,"åı":10115,"ĠÃ":10116,"Ġ59":10117,"need":10118,"neous":10119,"delay":10120,"dentifier":10121,"recognized":10122,"recurs":10123,"aton":10124,"atial":10125,"atomic":10126,"ora":10127,"Ġcla":10128,"Ġcms":10129,"leaves":10130,"oment":10131,"Ġ\"*\"":10132,"Ġflo":10133,"Ġflip":10134,"Ġpred":10135,"aring":10136,"Ġsax":10137,"Ġna":10138,"Ġnl":10139,"Ġnw":10140,"Ġnun":10141,"Ġndef":10142,"itations":10143,"ura":10144,"Ġever":10145,"Ġelection":10146,"Ġdelay":10147,"Ġdeconstruct":10148,"ceeded":10149,"Ġdpi":10150,"Ġdlevel":10151,"Ġdrop":10152,"Ġdyear":10153,"Ġmuch":10154,"Ġwa":10155,"Ġ10000":10156,"fici":10157,"Ġupon":10158,"rie":10159,"oto":10160,"otide":10161,"ĠTool":10162,"lant":10163,"ptx":10164,"estig":10165,"abb":10166,"abric":10167,"Ġanonymous":10168,"getattr":10169,"unny":10170,"Ġassets":10171,"ollow":10172,"ĠNum":10173,"ĠNCR":10174,"Ġexits":10175,"ĠClear":10176,"ĠSched":10177,"ĠStop":10178,"ĠAUT":10179,"ĠAfter":10180,"adv":10181,"Ġoften":10182,"Ġimported":10183,"ĠFO":10184,"ĠFrom":10185,"ĠFig":10186,"ĠFrank":10187,"ĠFortran":10188,"Ġhi":10189,"Ġhq":10190,"Ġhar":10191,"Ġhuman":10192,"Ġhadoop":10193,"Ġgxi":10194,"Ġgpaw":10195,"Ġ%.":10196,"ummary":10197,"assets":10198,"ĠPoll":10199,"Ġdie":10200,"Ġfine":10201,"trunc":10202,"transcribe":10203,"amb":10204,"Ġloops":10205,"Ġconside":10206,"Ġconcaten":10207,"ĠRet":10208,"008":10209,"upError":10210,"upgrade":10211,"covery":10212,"Ġliter":10213,"Ġresize":10214,"Ġresourc":10215,"termin":10216,"Ġprofiles":10217,"Ġproceed":10218,"ĠGo":10219,"ĠGtk":10220,"android":10221,"ĠDIRECT":10222,"alified":10223,"Ġappended":10224,"Ġxaxis":10225,"Ġxenapi":10226,"usic":10227,"Ġjoint":10228,"Ġshown":10229,"Ġshard":10230,"Ġchosen":10231,"console":10232,"ĠBASE":10233,"ĠWEN":10234,"ĠaddGroup":10235,"ĠaddManual":10236,"cir":10237,"ONT":10238,"ONY":10239,"Ġpara":10240,"perm":10241,"Ġraster":10242,"ĠUS":10243,"anging":10244,"angular":10245,"prep":10246,"Ġ43":10247,"ĠRelease":10248,"ĠRecord":10249,"resize":10250,"INST":10251,"Ġlab":10252,"Ġwhy":10253,"Ġwhitespace":10254,"Ġwhitespaces":10255,"ĠThey":10256,"Ġpause":10257,"ITUTE":10258,"ATUR":10259,"moid":10260,"nkt":10261,"ĠHOW":10262,"Ġstarts":10263,"LEASE":10264,"shard":10265,"pipe":10266,"boost":10267,"bounded":10268,"ORATION":10269,"Ġlem":10270,"riginal":10271,"Proje":10272,"Revision":10273,"TIF":10274,"Ġtimesys":10275,"Names":10276,"ewx":10277,"codes":10278,"arrays":10279,"SEC":10280,"libs":10281,"rightarrow":10282,"Ġpasslib":10283,"cutdir":10284,"Ġdisk":10285,"045":10286,"Container":10287,"Ġenclose":10288,"Ġencodings":10289,"DecodeError":10290,"ASTER":10291,"Ġtransformation":10292,"Ġpermit":10293,"Ġperipherals":10294,"','":10295,"sudo":10296,"opython":10297,"Ġmaxlen":10298,"Ġmaxsplit":10299,"211":10300,"21356":10301,"STITUTE":10302,"ĠitemListenerProc":10303,"Storage":10304,"website":10305,"644":10306,"AMS":10307,"URI":10308,"rony":10309,"=\"(.*?)\"":10310,"ĠZHU":10311,"psk":10312,"ternate":10313,"ĠINDIRECT":10314,"869":10315,"Notify":10316,"ENTAL":10317,"Ġparsers":10318,"Ġvals":10319,"ĠProvides":10320,"prise":10321,"06798":10322,"ĠJust":10323,"deny":10324,"Mechanism":10325,"Ġbackref":10326,"ĠStorage":10327,"56037":10328,"partner":10329,"ĠSetup":10330,"168":10331,"Parse":10332,"1301":10333,"POS":10334,"bottom":10335,"Ġsessions":10336,"netic":10337,"'])":10338,"FrameDesired":10339,"PLORATION":10340,"svc":10341,"Ġtemplates":10342,"Ġxmlstream":10343,"Ġxmlutil":10344,"IBILITY":10345,"ĠBaseCoordinateFrame":10346,"EXPLORATION":10347,"ĠFORM":10348,"Ġsignals":10349,"ĠURLs":10350,"cleotide":10351,"tracker":10352,"traffic":10353,"handlers":10354,"ĠrelativeStance":10355,"Ġsimulate":10356,"Ġanswer":10357,"searcharound":10358,"ĠmasterOnly":10359,"Bucket":10360,"ĠFieldDefinitionError":10361,"JKK":10362,"ĠSMTP":10363,"Ġmuts":10364,"CRIP":10365,"\\''":10366,"override":10367,"Ġplotted":10368,"Ġrestriction":10369,"ĠMany":10370,"ĠRegular":10371,"]+)'":10372,"\\.\\":10373,"ĠOptionParser":10374,"999998":10375,"Ġcandidates":10376,"rossEnt":10377,"Ġdrawable":10378,"Ġmimetypes":10379,"simctl":10380,"OUTPUT":10381,"Weather":10382,"issues":10383,"BOSE":10384,"ĠErrors":10385,"ĠTransform":10386,"closing":10387,"]*)":10388,"ĠPOINTER":10389,"Ø§Ø±":10390,"ĠSpecify":10391,"euclidean":10392,"Registered":10393,"requirement":10394,"ĠSupport":10395,"ĠCoNLL":10396,"Interface":10397,"Ġattempts":10398,"ĠNotImplemented":10399,"Ġflavorid":10400,"Ġexpanduser":10401,"rotation":10402,"Initial":10403,"ROLES":10404,"Ġissues":10405,"ĠTimeout":10406,"CacheFilename":10407,"METADATA":10408,"ĠfaceFrameDesired":10409,"Ġwidening":10410,"ĠADD":10411,"Temperature":10412,"ĠUnitS":10413,"ĠArgumentParser":10414,"precationWarning":10415,"ĠIGN":10416,"ĠHomeKit":10417,"CONTENT":10418,"Ġquiet":10419,"Ġ\"(('":10420,"ĠSUCH":10421,"Ġhighlight":10422,"ĠGridOut":10423,"RobotState":10424,"gfortran":10425,"Ġbroken":10426,"Ġsoapenv":10427,"RawResponse":10428,"Ġearlier":10429,"ĠradialLength":10430,"Ġsimply":10431,"ĠSEGMENT":10432,"Ġ02110":10433,"innodb":10434,"Ġdays":10435,"Ġammo":10436,"ĠAdmin":10437,"ĠRelated":10438,"23606798":10439,"difference":10440,"Ġversioned":10441,"Ġdolore":10442,"NECTION":10443,"ĠoDialogModel":10444,"builtin":10445,"ĠStatisticsError":10446,"41421356":10447,"LATEX":10448,"Term":10449,"diagonalize":10450,"ĠScanner":10451,"ĠXenAPI":10452,"ĠCancelSubscription":10453,"ĠFilter":10454,"ĠconformTo":10455,"nsupported":10456,"Ġbundlename":10457,"Ġscalapack":10458,"Ġdecide":10459,"ropyLoss":10460,"Ġdiscrete":10461,"ĠKEY":10462,"ĠSourceVersions":10463,"Tags":10464,"external":10465,"Ġreproduce":10466,"ĠFigure":10467,"ĠFranklin":10468,"Ġresourcename":10469,"ATURES":10470,"ĠHOWEVER":10471,"5603799999":10472,"rossEntropyLoss":10473,"!!":10474,"%%":10475,"'(":10476,"'(?":10477,"'(\\":10478,"->":10479,">:":10480,"?]":10481,"Br":10482,"Create":10483,"Copy":10484,"CSS":10485,"CVH":10486,"Django":10487,"DET":10488,"FC":10489,"FIT":10490,"Flexible":10491,"Import":10492,"IJK":10493,"KR":10494,"LI":10495,"Lspace":10496,"Latest":10497,"MODE":10498,"Microsoft":10499,"Metadata":10500,"OG":10501,"Oo":10502,"OBJ":10503,"Pack":10504,"QOp":10505,"RM":10506,"Rgt":10507,"Score":10508,"SERT":10509,"Square":10510,"SASL":10511,"Tuple":10512,"Variant":10513,"VECT":10514,"Wd":10515,"Wr":10516,"Word":10517,"XT":10518,"ah":10519,"adir":10520,"ached":10521,"aze":10522,"bh":10523,"bat":10524,"bom":10525,"bal":10526,"boring":10527,"cross":10528,"dget":10529,"embedded":10530,"emoji":10531,"fc":10532,"fp":10533,"green":10534,"glut":10535,"hgt":10536,"ios":10537,"kf":10538,"kely":10539,"ming":10540,"pz":10541,"pump":10542,"rx":10543,"rubric":10544,"silent":10545,"tary":10546,"tiny":10547,"uer":10548,"uLk":10549,"wire":10550,"xor":10551,"Ð¸":10552,"æĪ":10553,"nearest":10554,"demo":10555,"deactivate":10556,"selection":10557,"segments":10558,"inator":10559,"incoming":10560,"including":10561,"rely":10562,"remote":10563,"Ġ=>":10564,"Ġtan":10565,"Ġtex":10566,"Ġterr":10567,"Ġtiu":10568,"Ġselenium":10569,"Ġ'('":10570,"Ġcpp":10571,"Ġcred":10572,"Ġchem":10573,"Ġcategories":10574,"Ġcairo":10575,"Ġide":10576,"Ġiri":10577,"lea":10578,"Ġ\")\"":10579,"Ġfls":10580,"Ġfew":10581,"Ġpind":10582,"Ġpear":10583,"Ġreversed":10584,"Ġorel":10585,"Ġoctave":10586,"Ġsn":10587,"Ġslow":10588,"Ġnag":10589,"geodetic":10590,"ited":10591,"Ġei":10592,"Ġem":10593,"Ġeas":10594,"Ġepg":10595,"Ġdf":10596,"Ġdx":10597,"Ġbb":10598,"Ġwat":10599,"Ġwind":10600,"Ġwaf":10601,"Ġ199":10602,"rient":10603,"riend":10604,"racket":10605,"racle":10606,"ĠTer":10607,"ĠTARGET":10608,"Ġvel":10609,"Ġvtf":10610,"Ġcooldown":10611,"Ġisabs":10612,"olar":10613,"vels":10614,"Ġexon":10615,"onetary":10616,"ĠCpp":10617,"ĠCCR":10618,"ĠSite":10619,"ĠSince":10620,"ages":10621,"Ġstmt":10622,"ĠAB":10623,"ĠAS":10624,"than":10625,"ppa":10626,"ĠFin":10627,"ĠFuzz":10628,"Ġha":10629,"Ġholder":10630,"Ġthing":10631,"Ġthus":10632,"Ġgd":10633,"Ġgmock":10634,"asc":10635,"asl":10636,"Ġran":10637,"ĠPOP":10638,"ĠPeerGrading":10639,"ĠICRS":10640,"ĠLatex":10641,"ĠLatin":10642,"Ġoracle":10643,"trude":10644,"ammo":10645,"amera":10646,"Ġtester":10647,"gslayer":10648,"ĠRole":10649,"003":10650,"Ġstroke":10651,"Ġproduce":10652,"Ġprocesses":10653,"processed":10654,"Ġkion":10655,"ĠGui":10656,"ĠGapped":10657,"Ġâĸģ'*'":10658,"ĠDom":10659,"ĠDomain":10660,"Ġmaps":10661,"ĠMIN":10662,"ĠMAT":10663,"ĠEMAIL":10664,"Ġuninstalled":10665,"ĠOracle":10666,"foot":10667,"Ġchr":10668,"ĠBi":10669,"ĠBut":10670,"ĠBIG":10671,"ERN":10672,"fork":10673,"ĠaddArc":10674,"ĠUses":10675,"ĠReset":10676,"ĠRetry":10677,"resp":10678,"dataflow":10679,"Ġdocs":10680,"Ġpalette":10681,"ATHER":10682,"capacity":10683,"imal":10684,"Ġweewx":10685,"ĠprintHelp":10686,"Ġ\\'":10687,"ĠstartPoseName":10688,"lists":10689,"Ġmodes":10690,"LECTION":10691,"Ġaren":10692,"Ġzur":10693,"Ġchecking":10694,"Ġchecksum":10695,"dbg":10696,"Ġcollect":10697,"Ġcollector":10698,"timesys":10699,"attrname":10700,"222":10701,"Ġsoft":10702,"Fields":10703,"Ġcompil":10704,"Ġ*****":10705,"llu":10706,"Ġtran":10707,"Ġmoved":10708,"Ġurlpatterns":10709,"ALIAS":10710,"Exp":10711,"Ġfast":10712,"Ġends":10713,"Ġendpoint":10714,"IDENTAL":10715,"Ġoptparse":10716,"ICAL":10717,"EDI":10718,"IGENCE":10719,"dale":10720,"Ġanyone":10721,"ĠCONNECTION":10722,"Ġunderlying":10723,"icket":10724,"submit":10725,"render":10726,"Ġmaxx":10727,"212":10728,"Separ":10729,"ABASE":10730,"week":10731,"isoir":10732,"Ġranges":10733,"oked":10734,"Keeper":10735,"Ġgenerating":10736,"Ġgrad":10737,"Ġgrade":10738,"Ġgrader":10739,"Ġregistered":10740,"Computer":10741,"ROP":10742,"Ġcorner":10743,"configured":10744,"Ġdirnames":10745,"ĠINT":10746,"OTE":10747,"862":10748,"Ġqgslayer":10749,"Ġstatistics":10750,"ĠGets":10751,"Atom":10752,"298":10753,"ĠAlternative":10754,"APH":10755,"APPL":10756,"ToMany":10757,"Unambiguous":10758,"ĠSetting":10759,"Ġposture":10760,"Ġ2008":10761,"ricHook":10762,"ĠUserOr":10763,"Ġsrcfile":10764,"myextension":10765,"ajx":10766,"Ġfollows":10767,"Ġfollowed":10768,"ĠAPIC":10769,"Ġxmldata":10770,"authors":10771,"corator":10772,"Ġbreaks":10773,"Ġsuccessful":10774,"Ġsuccessfully":10775,"ĠLocation":10776,"OutTypeList":10777,"ĠNamespace":10778,"FAILED":10779,"SCR":10780,"iao":10781,"Ġisscalar":10782,"ĠcleanName":10783,"Encode":10784,"QuerySet":10785,"...)":10786,"GGCC":10787,"GGGCC":10788,"Ġimplements":10789,"Ġproducts":10790,"VHg":10791,"Ġmerging":10792,"HTML":10793,"Ġinvalidation":10794,"ĠCTypesPtr":10795,"ĠLogin":10796,"ttl":10797,"Ġfixtures":10798,"ĠPROFIT":10799,"white":10800,"whitespace":10801,"overwrite":10802,"TabIndex":10803,"ĠDefaults":10804,"NNNN":10805,"]+)\\":10806,"Component":10807,"Ġbackends":10808,"ĠElementTree":10809,"MixIn":10810,"gorithms":10811,"gateway":10812,"Ġtiles":10813,"Ġopened":10814,"xcrun":10815,"ĠFunctions":10816,"MethodSource":10817,"ĠBooleanVar":10818,"ĠRemoveField":10819,"Ġeverything":10820,"Ġfixer":10821,"Ġletter":10822,"addonid":10823,"ĠGenerateMethodSource":10824,"Collection":10825,"gregate":10826,"Fail":10827,"finalizer":10828,"Ġsymlinks":10829,"Ġevaluation":10830,"ĠShow":10831,"GLIGENCE":10832,"ĠEVEN":10833,"Ġotus":10834,"aemon":10835,"sensitive":10836,"HelpText":10837,"ĠNodeList":10838,"ĠCorporation":10839,"Ġweighted":10840,"ĠTraceback":10841,"Ġpercentile":10842,"VALID":10843,"UREMENT":10844,"flush":10845,"Ġcenter":10846,"FFFFFFFF":10847,"FEED":10848,"Ġ?,":10849,"Ġtiam":10850,"Ġwidened":10851,"(.*?)":10852,"Ġwrapping":10853,"ĠADVIS":10854,"claration":10855,"RegexpMatches":10856,"ĠassertAllEqual":10857,"Validator":10858,"================================":10859,"Ġ'|'":10860,"Ġbelong":10861,"Ġhomeassistant":10862,"Ġquotes":10863,"ĠNEW":10864,"ĠNEGLIGENCE":10865,"ĠutilityMode":10866,"Ġddapp":10867,"Ġconsistent":10868,"ĠWSGIRequest":10869,"XYZ":10870,"InsertMany":10871,"ĠRenameField":10872,"Ġ3600":10873,"Ġchamfer":10874,"Ġregardless":10875,"Ġoddt":10876,"IService":10877,"written":10878,"ĠLoggingMet":10879,"COUN":10880,"removal":10881,"Ġ]*\\\\":10882,"Ġswap":10883,"tokens":10884,"LowerBound":10885,"OrgMixin":10886,"calibration":10887,"ĠEvaluate":10888,"ĠHelpText":10889,"ĠMinion":10890,"ĠTOOLCHAIN":10891,"AnomalyScore":10892,"ĠTRANS":10893,"ĠCartesianRepresentation":10894,"ĠRESTful":10895,"repeat":10896,"ĠINCIDENTAL":10897,"ĠDEFINE":10898,"maybe":10899,"Ġinterest":10900,"elevator":10901,"ĠPOSSIBILITY":10902,"qCFW":10903,"ingerprint":10904,"Ġtolerance":10905,"Ġbehaves":10906,"ĠWEATHER":10907,"venience":10908,"ĠKeyboardInterrupt":10909,"sounds":10910,"abbix":10911,"Ġconsidered":10912,"trafficmanager":10913,"FlexibleForeignKey":10914,"Ġchemical":10915,"Ġorelse":10916,"ĠFuzzy":10917,"ĠUserOrOrgMixin":10918,"ĠPROFITS":10919,"ĠADVISED":10920,"ĠLoggingMetricHook":10921,"\"/>":10922,"(*":10923,")?":10924,".],":10925,"309":10926,"864":10927,"Aff":10928,"Any":10929,"Be":10930,"BIB":10931,"CLO":10932,"Da":10933,"Download":10934,"Database":10935,"EOF":10936,"GU":10937,"GNU":10938,"Hu":10939,"Hist":10940,"Hash":10941,"Html":10942,"Ijk":10943,"JLK":10944,"KK":10945,"LV":10946,"LITTLE":10947,"Msg":10948,"MAC":10949,"MSG":10950,"ND":10951,"NE":10952,"NP":10953,"NONE":10954,"OFrame":10955,"PLE":10956,"RNA":10957,"Rgb":10958,"RPY":10959,"Spe":10960,"Tensors":10961,"TCP":10962,"Usage":10963,"VFSFile":10964,"Your":10965,"btype":10966,"border":10967,"blacs":10968,"cra":10969,"dv":10970,"epy":10971,"embed":10972,"gD":10973,"guest":10974,"how":10975,"iw":10976,"ibuf":10977,"mg":10978,"microsoft":10979,"nm":10980,"nost":10981,"ogram":10982,"pop":10983,"plex":10984,"polygon":10985,"potential":10986,"rrd":10987,"rarr":10988,"spaces":10989,"tg":10990,"tStatusCommand":10991,"uom":10992,"vB":10993,"vendor":10994,"wt":10995,"war":10996,"when":10997,"wilio":10998,"|.":10999,"Ð°":11000,"à°":11001,"Ġdedent":11002,"Ġrig":11003,"Ġ<<":11004,"lidate":11005,"demand":11006,"delim":11007,"stit":11008,"seen":11009,"rected":11010,"reating":11011,"redirect":11012,"removed":11013,"restricted":11014,"Ġtrel":11015,"orss":11016,"ormed":11017,"Ġaj":11018,"onical":11019,"Ġsever":11020,"Ġserial":11021,"Ġcn":11022,"Ġct":11023,"Ġcamera":11024,"Ġil":11025,"Ġiu":11026,"Ġiom":11027,"Ġimm":11028,"Ġ\"(\"":11029,"meas":11030,"Ġpure":11031,"Ġpolygon":11032,"Ġsd":11033,"Ġsci":11034,"Ġsmo":11035,"Ġsaving":11036,"anna":11037,"ctxt":11038,"encrypt":11039,"itivity":11040,"uradio":11041,"Ġecho":11042,"Ġdepre":11043,"Ġdescriptors":11044,"utilities":11045,"cedes":11046,"Ġmc":11047,"Ġmonetary":11048,"Ġinactive":11049,"Ġboot":11050,"Ġbbl":11051,"lopen":11052,"Ġ120":11053,"ateway":11054,"Ġuom":11055,"ravel":11056,"ĠTwilio":11057,"edx":11058,"edirs":11059,"ulated":11060,"abe":11061,"ckTitle":11062,"cha":11063,"ĠNull":11064,"ĠNAME":11065,"Ġexe":11066,"ĠSPE":11067,"ĠSVN":11068,"ĠSharded":11069,"Ġstubs":11070,"ĠApi":11071,"ĠARE":11072,"ĠASO":11073,"things":11074,"ĠFont":11075,"ĠFinally":11076,"Ġgetpass":11077,"Ġgetroot":11078,"keeper":11079,"Ġgolden":11080,"ershed":11081,"async":11082,"ĠPa":11083,"ĠPosition":11084,"ĠPUS":11085,"ĠIgnore":11086,"Ġdiag":11087,"amma":11088,"Ġlot":11089,"Ġconnected":11090,"Ġconversations":11091,"Ġconsider":11092,"005":11093,"maint":11094,"proc":11095,"proct":11096,"ryption":11097,"integ":11098,"Ġmeth":11099,"Ġknab":11100,"Ġalb":11101,"ĠGPL":11102,"scanner":11103,"ands":11104,"ĠDeter":11105,"Ġmaus":11106,"Ġapplies":11107,"Ġxy":11108,"Ġund":11109,"Ġuniform":11110,"Ġcombin":11111,"ĠOriginal":11112,"ĠjtStatusCommand":11113,"Ġyscale":11114,"ĠBR":11115,"ĠBClass":11116,"testPlugin":11117,"ĠaddParameters":11118,"ĠaddManipulation":11119,"paration":11120,"parsed":11121,"izard":11122,"comput":11123,"commit":11124,"Ġusernames":11125,"Ġintent":11126,"ĠUL":11127,"ĠUTC":11128,"Ġatan":11129,"ĠRepresent":11130,"ESCRIP":11131,"datasets":11132,"Ġdoor":11133,"Ġwhite":11134,"Ġpare":11135,"ffe":11136,"ĠVOT":11137,"Ġlistadd":11138,"mozilla":11139,"ARCH":11140,"Ġweapon":11141,"Ġsubstant":11142,"Ġnewpath":11143,"Ġupsert":11144,"ĠHdfs":11145,"piaz":11146,"Ġzi":11147,"xtick":11148,"Prober":11149,"ENV":11150,"Report":11151,"Removing":11152,"...,":11153,"ĠexpectedCode":11154,"Ġpasswd":11155,"()`":11156,"Ġ77":11157,"agg":11158,"aps":11159,"ĠendPose":11160,"ACR":11161,"IDX":11162,"Ġ``\"":11163,"Ġ``(":11164,"ifies":11165,"EDUNIT":11166,"040":11167,"046":11168,"047":11169,"049":11170,"Ġtransl":11171,"Ġtranspose":11172,"Ġparty":11173,"subprocess":11174,"subscribe":11175,"inese":11176,"219":11177,"REC":11178,"ĠcurrentQueue":11179,"filer":11180,"filtered":11181,"Static":11182,"ListBox":11183,"solidate":11184,"Ġaccur":11185,"Ġacross":11186,"akes":11187,"Ġ'%(":11188,"KeyError":11189,"lets":11190,"letes":11191,"Ġdescriptions":11192,"ĠCompute":11193,"ĠactionListenerProc":11194,"Ġhandling":11195,"861":11196,"ĠtokenTypes":11197,"Ġdirectives":11198,"Ġprivilege":11199,"Ġportions":11200,"Alchemy":11201,"internet":11202,"294":11203,"296":11204,"ĠPyOS":11205,"ĠPytestPlugin":11206,"privilege":11207,"creator":11208,"Ġbackup":11209,"Ġbackwards":11210,"026":11211,"THON":11212,"ĠACO":11213,"Ġdistapp":11214,"forever":11215,"Ġadvice":11216,"Ġ2003":11217,"Ġ2005":11218,"Ġenter":11219,"Ġiteration":11220,"137":11221,"ajn":11222,"Ġretain":11223,"templates":11224,"varargs":11225,"Feet":11226,"Ġhereby":11227,"occup":11228,"apter":11229,"2013":11230,"culation":11231,"AttrEnum":11232,"directories":11233,"ĠDEV":11234,"ĠinitialResponse":11235,"Leak":11236,"opening":11237,"sessions":11238,"Chat":11239,"Enable":11240,"Environment":11241,"Ġteams":11242,"Ġ'<'":11243,"Ġlooking":11244,"Ġfeedback":11245,"ĠIDs":11246,"ĠMessages":11247,"QUESTION":11248,"Ġclosing":11249,"FromText":11250,"FromCurrent":11251,"FromSection":11252,"gbk":11253,"searcher":11254,"Ġlicenses":11255,"ĠplanFromCurrent":11256,"EMENT":11257,"precision":11258,"Ġestimate":11259,"Ġautoclobber":11260,"Ġseparated":11261,"Ġmonit":11262,"Ġauthorize":11263,"ĠCTypesStructOrUnion":11264,"fftnd":11265,"Ġmutually":11266,"{}\\":11267,"cdt":11268,"Results":11269,"Ġapplications":11270,"ĠPROC":11271,"stripped":11272,"ĠConfigParser":11273,"Ġlsn":11274,"]+'":11275,"Ġserializer":11276,"Ġserialized":11277,"Ġrestored":11278,"Ġbeamtext":11279,"small":11280,"CleanName":11281,"Ġprivatekey":11282,"ĠSOA":11283,"ĠSyntax":11284,"stables":11285,"Ġways":11286,"FeatureFlag":11287,"Ã¡j":11288,"encoder":11289,"Ġmaker":11290,"hashes":11291,"GTK":11292,"Ġdepends":11293,"ĠExtract":11294,"ACTIVATE":11295,"Ġpreparer":11296,"Ġprimitives":11297,"RightArrow":11298,"Ġmkdtemp":11299,"Ġrepeat":11300,"clouds":11301,"NPolymorphicRestrict":11302,"eucJP":11303,"chunks":11304,"ĠSuite":11305,"community":11306,"Ġauthenticator":11307,"dwim":11308,"Ġommit":11309,"acceptable":11310,"MANAGE":11311,"sensitivity":11312,"heads":11313,"TESTS":11314,"ĠgraphicFrame":11315,"rontab":11316,"ĠCalled":11317,"tips":11318,"Admin":11319,"Like":11320,"ĠAsserts":11321,"Ġ'[?]":11322,"Ġnsx":11323,"Ġbounding":11324,"ĠFloating":11325,"Ġexpires":11326,"Children":11327,"separated":11328,"weighted":11329,"\"^[^%":11330,"Ġforest":11331,"symlinks":11332,"undedBig":11333,"Extensions":11334,"Ġtypical":11335,"CloudError":11336,"TWITTER":11337,"ĠanomalyComputer":11338,"Execution":11339,"unes":11340,"Ġguide":11341,"cookies":11342,"cookie":11343,"weathermap":11344,"BackendOptions":11345,"Ġmaterials":11346,"BoundedBig":11347,"KGAR":11348,"Primitive":11349,"Ġsvn":11350,"Visitor":11351,"INPUTS":11352,"ĠREQUIRED":11353,"Activity":11354,"ragma":11355,"Corpus":11356,"ĠDownloadState":11357,"ĠTIBRVFT":11358,"Ġsyscall":11359,"cedures":11360,"Ġgnuradio":11361,"ĠChemDataFrame":11362,"Ġnucleotide":11363,"23456789":11364,"COLLECTION":11365,"REQUEST":11366,"gCtlBackendOptions":11367,"Calc":11368,"Ġdeclare":11369,"ĠEPG":11370,"ĠOperator":11371,"Ġrospy":11372,"REGEX":11373,"ĠConditionalSymbol":11374,"ĠHOST":11375,"ĠIssue":11376,"mantics":11377,"Ġcycles":11378,"WgvV":11379,"Ġdetailed":11380,"month":11381,"GeomFromText":11382,"drunksettings":11383,"ronyms":11384,"ĠUnitSphericalRepresentation":11385,"RgtcNVH":11386,"Ġwaflib":11387,"Affordance":11388,"Ġtrellis":11389,"ĠSPEEDUNIT":11390,"ĠDetermine":11391,"Ġsubstantial":11392,"piazza":11393,"ĠcurrentQueueEntry":11394,"ĠPytestPluginManager":11395,"ĠplanFromCurrentRobotState":11396,"BoundedBigAutoField":11397,"ĠConditionalSymbolVisitor":11398,"$)'":11399,"'<":11400,"({":11401,")$'":11402,"-\\":11403,"/*":11404,"634":11405,"811":11406,"Amount":11407,"Authentic":11408,"BY":11409,"Bunny":11410,"CU":11411,"Cut":11412,"CES":11413,"Dot":11414,"Dog":11415,"Drop":11416,"Details":11417,"GLO":11418,"Hour":11419,"IIT":11420,"IFT":11421,"KN":11422,"LA":11423,"LIST":11424,"LgH":11425,"MIS":11426,"Mark":11427,"Migration":11428,"MOTE":11429,"Na":11430,"PK":11431,"Po":11432,"Ra":11433,"RET":11434,"RUP":11435,"Raised":11436,"SI":11437,"Slider":11438,"Ts":11439,"Tri":11440,"Tgw":11441,"TOKEN":11442,"VHE":11443,"WristAngleCW":11444,"Yi":11445,"`)":11446,"bR":11447,"bro":11448,"bank":11449,"cf":11450,"cli":11451,"clas":11452,"dri":11453,"duplicates":11454,"eff":11455,"gDT":11456,"hne":11457,"han":11458,"hgC":11459,"ior":11460,"ilab":11461,"kl":11462,"llable":11463,"lting":11464,"lCVH":11465,"migr":11466,"mYW":11467,"pur":11468,"pull":11469,"publish":11470,"rw":11471,"rfft":11472,"rnn":11473,"sable":11474,"sout":11475,"salt":11476,"spheroid":11477,"tar":11478,"tdb":11479,"tuples":11480,"umed":11481,"vl":11482,"vance":11483,"variant":11484,"yo":11485,"yml":11486,"zw":11487,"zapi":11488,"Ð¾":11489,"Øª":11490,"ï¼":11491,"ĠÙ":11492,"deps":11493,"derable":11494,"stls":11495,"seu":11496,"serial":11497,"Ġ(\\":11498,"Ġ(``":11499,"repl":11500,"retries":11501,"Ġts":11502,"atom":11503,"Ġah":11504,"Ġage":11505,"Ġaward":11506,"Ġsec":11507,"Ġsell":11508,"Ġseries":11509,"Ġ':":11510,"Ġ'../":11511,"environment":11512,"Ġclock":11513,"Ġcities":11514,"ley":11515,"Ġ\":":11516,"Ġ\"(%":11517,"meth":11518,"Ġpp":11519,"Ġpptx":11520,"arth":11521,"Ġ[(":11522,"Ġrelat":11523,"Ġrepl":11524,"Ġrelevant":11525,"ionError":11526,"Ġocc":11527,"Ġobsolete":11528,"Ġsun":11529,"Ġsdist":11530,"Ġsnap":11531,"Ġslug":11532,"anch":11533,"enclat":11534,"Ġnct":11535,"itro":11536,"itch":11537,"Ġeli":11538,"Ġembed":11539,"Ġdet":11540,"Ġdeny":11541,"Ġdensity":11542,"utes":11543,"Ġdas":11544,"Ġmm":11545,"Ġmiddle":11546,"Ġincre":11547,"Ġincoming":11548,"Ġbirth":11549,"Ġwildcard":11550,"loj":11551,"losed":11552,"fication":11553,"Ġuly":11554,"rik":11555,"oting":11556,"otonic":11557,"ĠTarget":11558,"ĠTiny":11559,"laplace":11560,"Ġva":11561,"Ġvect":11562,"Ġvrouter":11563,"Ġvocab":11564,"Ġforget":11565,"ilon":11566,"directed":11567,"Ġasset":11568,"ĠNC":11569,"ĠNx":11570,"ĠNet":11571,"ĠNON":11572,"ĠNORMAL":11573,"Ġexperiment":11574,"ĠCIR":11575,"ĠCAU":11576,"ĠSTH":11577,"Ġstar":11578,"Ġstamp":11579,"nament":11580,"adcast":11581,"thumbnail":11582,"quo":11583,"ĠFI":11584,"ĠFif":11585,"ĠFuse":11586,"ĠFIR":11587,"ĠFloor":11588,"except":11589,"ĠgetT":11590,"Ġho":11591,"Ġher":11592,"Ġhass":11593,"Ġ202":11594,"Ġgarbage":11595,"ĠPh":11596,"ĠPER":11597,"ĠPAT":11598,"ĠISS":11599,"Ġarm":11600,"ĠLIB":11601,"ĠLDC":11602,"ĠtestName":11603,"Ġconvex":11604,"ĠRoot":11605,"Ġlcs":11606,"cover":11607,"made":11608,"isters":11609,"ournament":11610,"pyglet":11611,"Ġcontained":11612,"Ġ38":11613,"ĠsetValue":11614,"Ġmember":11615,"ĠGOOD":11616,"ĠDatabase":11617,"ĠDraw":11618,"Ġelt":11619,"Ġxval":11620,"ĠMatch":11621,"ĠMET":11622,"ĠEOF":11623,"ĠEMBED":11624,"Ġunquote":11625,"Ġunravel":11626,"ĠOOo":11627,"lsdale":11628,"mbV":11629,"pause":11630,"pairs":11631,"ĠBU":11632,"ĠBack":11633,"ĠBUS":11634,"ĠBib":11635,"quee":11636,"testing":11637,"ĠWA":11638,"ĠWAY":11639,"ONSE":11640,"phen":11641,"parallel":11642,"compare":11643,"ĠUP":11644,"Ġatt":11645,"osv":11646,"INESS":11647,"ESIS":11648,"ilePro":11649,"Ġâĸģ\"--":11650,"Ġsystables":11651,"ĠVector":11652,"capy":11653,"Ġweave":11654,"Ġwebsite":11655,"Ġsubdir":11656,"ĠHost":11657,"Ġstartup":11658,"LED":11659,"pix":11660,"Ġjoined":11661,"coll":11662,"boot":11663,"ORRENT":11664,"Ġlevels":11665,"Ġfilled":11666,"grams":11667,"gradient":11668,"ENER":11669,"InPolymorphicTwice":11670,"ĠcreateUno":11671,"dbid":11672,"Ġcoll":11673,"221":11674,"bert":11675,"Ġsole":11676,"csibm":11677,"Ġrequesting":11678,"SEED":11679,"SEEK":11680,"readable":11681,"Ġrecorder":11682,"Ġmole":11683,"ĠInstance":11684,"ĠInstructor":11685,"noerror":11686,"Ġservers":11687,"notation":11688,"Expression":11689,"Ġcmdfra":11690,"Ġnoqa":11691,"Ġtmppath":11692,"Ġwritestr":11693,"042":11694,"Ġencount":11695,"Decimal":11696,"TestCmd":11697,"lectd":11698,"Ġunderscores":11699,"subscriber":11700,"renderer":11701,"Ġmaxy":11702,"214":11703,"Ġlinker":11704,"STOP":11705,"STATE":11706,"usew":11707,"ABC":11708,"ongong":11709,"Ġtemps":11710,"Ġinterlea":11711,"033":11712,"039":11713,"spans":11714,"Ġcapa":11715,"Ġcounters":11716,"ĠparseString":11717,"Ġworkdir":11718,"ULEST":11719,"below":11720,"Ġgrace":11721,"Ġfloating":11722,"Ġregistration":11723,"ĠYAML":11724,"Compressor":11725,"DEP":11726,"ĠComm":11727,"ĠConnect":11728,"vertical":11729,"ĠQuestion":11730,"ĠINV":11731,"ĠINST":11732,"ĠINTO":11733,"currency":11734,"transforms":11735,"Nothing":11736,"Ġparentpath":11737,"Ġstatuses":11738,"Ġlocalhost":11739,"Ġmakeindex":11740,"AGGG":11741,"295":11742,"Ġoverridden":11743,"Ġfailures":11744,"ĠUnivers":11745,"msgstr":11746,"bases":11747,"Ġclr":11748,"flowRunner":11749,"ĠForce":11750,"Together":11751,"ĠStreet":11752,"ĠStrings":11753,"ĠACT":11754,"Ġaliqu":11755,"Ġavg":11756,"ESSION":11757,"127":11758,"IMAGE":11759,"Ġadj":11760,"Ġ2001":11761,"LOCAL":11762,"Cohort":11763,"checked":11764,"ĠParameter":11765,"Ġlimitation":11766,"ajax":11767,"ĠerrMsg":11768,"ĠtopStack":11769,"envs":11770,"735":11771,"DataSource":11772,"building":11773,"AAAGGG":11774,"Ġulx":11775,"ĠnextRange":11776,"Updater":11777,"ĠBaseFactory":11778,"Through":11779,"mathml":11780,"ĠTHEORY":11781,"5432":11782,"buttonClick":11783,"Ġsecondary":11784,"2017":11785,"ĠhandleMatch":11786,"2001":11787,"Ġdifference":11788,"handled":11789,"Level":11790,".*?":11791,"([[":11792,"Ġtem":11793,"Ġlooks":11794,"Ġsimulator":11795,"Ġsimctl":11796,"ĠChore":11797,"ĠChinese":11798,"Ġaccounts":11799,"Protobuf":11800,"Ġurlopen":11801,"versation":11802,"ĠEXEMPL":11803,"OSX":11804,"ServiceManager":11805,"Ġcredential":11806,"Ġshortcut":11807,"Ġwebpage":11808,"Ġmonocrit":11809,"packer":11810,"Ġruntimes":11811,"Ġpositional":11812,"ollongong":11813,"Nodes":11814,"Tracks":11815,"ĠAppend":11816,"ById":11817,"subscriptionId":11818,"ĠConfigure":11819,"Ġfinish":11820,"]+)":11821,"offline":11822,"Ġlayers":11823,"crs":11824,"Ġnormally":11825,"ĠrestMethods":11826,"ĠMakeIndex":11827,"Extended":11828,"Lines":11829,"Ġwxs":11830,"[^\\":11831,"Ġhowever":11832,"ĠSQLAlchemy":11833,"initializer":11834,"Ġmeaning":11835,"Permissions":11836,"cssfile":11837,"Ġmakedirs":11838,"Ġfixed":11839,"Ġshutting":11840,"ĠRequestException":11841,"Ġverts":11842,"specs":11843,"finder":11844,"Ġrevlog":11845,"ĠASCIIT":11846,"Ġevaluated":11847,"degree":11848,"Ġ'{'":11849,"ĠSpecial":11850,"Ġorganization":11851,"Ġldc":11852,"ĠknownBug":11853,"Ġspent":11854,"Ġyears":11855,"Ġsubclassing":11856,"Ftq":11857,"Ġnotebook":11858,"fficiency":11859,"ĠServices":11860,"drawable":11861,"ĠSPRL":11862,"ĠDAMAGE":11863,"Ġdefines":11864,"ĠRedistribution":11865,"ĠViewConfig":11866,"Ġaggregation":11867,"swc":11868,"Ġtornado":11869,"Ġrespectively":11870,"timesheet":11871,"Panel":11872,"TEXT":11873,"ceeds":11874,"ĠDECSEL":11875,"PortSelector":11876,"Ġexpired":11877,"english":11878,"Ġmbeds":11879,"ĠSERVFAIL":11880,"ĠSERVICES":11881,"ĠPrints":11882,"ĠgeoTransform":11883,"grey":11884,"stylesheet":11885,"legal":11886,"ĠFlavor":11887,"ĠSUBSTITUTE":11888,"ĠBecause":11889,"Ġcarrier":11890,"ĠNeed":11891,"ĠSEGSTART":11892,"worldmap":11893,"ĠGPIO":11894,"ĠMUTs":11895,"Ġroutines":11896,"Ġâĸģ'{}'\"":11897,"ĠTibrvStatus":11898,"Ġcomputed":11899,"RktENU":11900,"TrackerURL":11901,"Ġrespons":11902,"Ġprecedence":11903,"DOWNLOAD":11904,"Software":11905,"volume":11906,"dependencies":11907,"Ġdeepcopy":11908,"FvmbV":11909,"effective":11910,"Ġtenant":11911,"ĠVERBOSE":11912,"ĠINTERRUP":11913,"=-=-":11914,"wpLgH":11915,"ĠDistutils":11916,"Ġabstractmethod":11917,"openerp":11918,"essay":11919,"fBbk":11920,"passed":11921,"ĠMetadataUpdater":11922,"Ġpermutation":11923,"ĠExecute":11924,"ĠQUOT":11925,"ĠRETURN":11926,"Ġdistinct":11927,"ĠMainWindowWidget":11928,"ĠDISCLAIMED":11929,"advark":11930,"Weathermap":11931,"Ġâĸģ'*'))":11932,"ĠBiopython":11933,"ToManyField":11934,"UnambiguousDNA":11935,"Speed":11936,"Ġajax":11937,"ĠRepresents":11938,"ĠVOTable":11939,"Ġadvices":11940,"ĠPROCUREMENT":11941,"Hourly":11942,"classed":11943,"Ġvectors":11944,"ĠCAUSED":11945,"ĠSTHICK":11946,"ĠFifth":11947,"ĠFIRST":11948,"ĠGOODS":11949,"ĠBUSINESS":11950,"Ġcmdfrags":11951,"Ġinterleaver":11952,"ULESTORE":11953,"ĠUniversity":11954,"ĠEXEMPLARY":11955,"ĠASCIITable":11956,"ĠINTERRUPTION":11957,"\"))":11958,"'d":11959,",'":11960,".)":11961,".__":11962,"099":11963,"188":11964,"132":11965,"206":11966,"564":11967,"513":11968,"855":11969,"Bns":11970,"BIND":11971,"Cy":11972,"CGG":11973,"COPY":11974,"CrossEntropyLoss":11975,"DF":11976,"DASH":11977,"FCompiler":11978,"GD":11979,"Gen":11980,"Gyp":11981,"HV":11982,"Ht":11983,"Half":11984,"IH":11985,"JF":11986,"LT":11987,"LW":11988,"MIT":11989,"Pp":11990,"PAGE":11991,"Prompt":11992,"RVH":11993,"RITE":11994,"TM":11995,"Tor":11996,"Tol":11997,"Total":11998,"Triangle":11999,"UA":12000,"UER":12001,"VAR":12002,"Vert":12003,"VCS":12004,"YY":12005,"[\"":12006,"aud":12007,"break":12008,"birth":12009,"cz":12010,"cmap":12011,"cascade":12012,"equiv":12013,"fk":12014,"fort":12015,"glob":12016,"hull":12017,"hadoop":12018,"iq":12019,"kes":12020,"kim":12021,"know":12022,"lD":12023,"lus":12024,"lationError":12025,"mtime":12026,"mql":12027,"multip":12028,"mlab":12029,"micro":12030,"nable":12031,"phe":12032,"pred":12033,"rG":12034,"rum":12035,"swa":12036,"sbin":12037,"square":12038,"tz":12039,"tan":12040,"tot":12041,"tilde":12042,"titions":12043,"treadmill":12044,"uP":12045,"uy":12046,"uda":12047,"ulip":12048,"udid":12049,"xed":12050,"{}'":12051,"ªå":12052,"Ãº":12053,"ä»":12054,"ä½":12055,"Ġ~~":12056,"deserialize":12057,"stp":12058,"inue":12059,"inner":12060,"invent":12061,"incr":12062,"rename":12063,"reft":12064,"remain":12065,"rejected":12066,"Ġtim":12067,"Ġtill":12068,"Ġtpl":12069,"Ġant":12070,"Ġaio":12071,"onitor":12072,"Ġ'}'":12073,"eno":12074,"Ġctr":12075,"Ġcsr":12076,"Ġcspan":12077,"Ġcnos":12078,"Ġfall":12079,"Ġfault":12080,"mes":12081,"means":12082,"Ġpli":12083,"Ġpprint":12084,"hext":12085,"Ġ[]":12086,"Ġou":12087,"Ġonto":12088,"Ġsolution":12089,"Ġsamp":12090,"Ġspheroid":12091,"ana":12092,"analysis":12093,"ench":12094,"itizer":12095,"Ġee":12096,"Ġefficient":12097,"Ġ00":12098,"Ġdeleting":12099,"Ġdeactivated":12100,"utor":12101,"Ġduplicate":12102,"Ġdkim":12103,"Ġmicro":12104,"Ġinvenio":12105,"Ġble":12106,"Ġwire":12107,"figs":12108,"ficial":12109,"Ġua":12110,"Ġub":12111,"Ġunexpected":12112,"ĠTile":12113,"ĠTsan":12114,"orted":12115,"estimate":12116,"abbit":12117,"Ġance":12118,"getter":12119,"uninitialized":12120,"chtml":12121,"ĠNU":12122,"ĠNZB":12123,"Ġexport":12124,"ĠCS":12125,"ĠCur":12126,"ĠCUP":12127,"ĠSync":12128,"ĠSRC":12129,"idle":12130,"Ġstage":12131,"Ġstrep":12132,"Ġimpl":12133,"ada":12134,"adapt":12135,"three":12136,"else":12137,"ĠFix":12138,"ĠFFT":12139,"exclusive":12140,"Ġgetopt":12141,"Ġgetsets":12142,"Ġhide":12143,"Ġhdfs":12144,"Ġ204":12145,"ica":12146,"icip":12147,"Ġgcode":12148,"Ġgyp":12149,"Ġglossary":12150,"ĠIT":12151,"ĠLINE":12152,"uby":12153,"Ġ{!":12154,"filebase":12155,"006":12156,"Ġlxml":12157,"typestruct":12158,"igation":12159,"coo":12160,"Ġliber":12161,"Ġlife":12162,"ordb":12163,"artists":12164,"teams":12165,"prof":12166,"proj":12167,"Ġ39":12168,"Ġsetfcn":12169,"Ġalphanum":12170,"ĠGL":12171,"ĠGS":12172,"ĠGer":12173,"Ġâĸģ'--":12174,"ĠDav":12175,"Ġmass":12176,"Ġmagn":12177,"Ġxx":12178,"Ġxdata":12179,"Ġxscale":12180,"ĠMark":12181,"ĠMpl":12182,"ĠEscape":12183,"ĠEarth":12184,"Ġuncoords":12185,"ĠOff":12186,"paginator":12187,"fox":12188,"ĠclassId":12189,"ĠclassUid":12190,"ĠBOT":12191,"ĠBinary":12192,"ĠBGP":12193,"ERATOR":12194,"testapp":12195,"testcase":12196,"ĠWaf":12197,"Ġaddition":12198,"phone":12199,"perly":12200,"permission":12201,"comes":12202,"ĠobjectId":12203,"ĠobjectUid":12204,"previous":12205,"presence":12206,"Ġ400":12207,"ĠRemoved":12208,"msrest":12209,"Ġusecols":12210,"ĠusePoses":12211,"INSERT":12212,"Ġlas":12213,"syntax":12214,"Ġlogic":12215,"Ġkeyed":12216,"Ġlisted":12217,"Ġresultcode":12218,"016":12219,"ARGS":12220,"Ġsubparser":12221,"Ġsubcommands":12222,"Ġ\\'%":12223,"Ġnewvalue":12224,"Ġneither":12225,"listener":12226,"colnames":12227,"umenta":12228,"Ġleaves":12229,"Prop":12230,"Program":12231,"Ġ/=":12232,"Required":12233,"220":12234,"ĠnumContent":12235,"Ġbuff":12236,"Ġsoon":12237,"Ġsobject":12238,"codeent":12239,"locked":12240,"thernet":12241,"Ġtranscribe":12242,"ĠInclude":12243,"ĠTestGyp":12244,"Ġplu":12245,"logged":12246,"Ġdbdata":12247,"Ġdicts":12248,"()`.":12249,"``)":12250,"Exporter":12251,"Ġnoise":12252,"Ġwritelines":12253,"versionCode":12254,"Ġquad":12255,"ookie":12256,"150":12257,"ASCII":12258,"Ġunderlayer":12259,"Ġndims":12260,"rench":12261,"RELEASE":12262,"Ġfieldtype":12263,"favorite":12264,"nums":12265,"Ġsplits":12266,"Ġtempf":12267,"Ġtemperature":12268,"Ġindexer":12269,"Ġcaller":12270,"Stat":12271,"647":12272,"rownames":12273,"ephemeral":12274,"sock":12275,"linked":12276,"Ġcare":12277,"Ġcapi":12278,"tablespace":12279,"completion":12280,"avoid":12281,"Ġgraded":12282,"monocrit":12283,"ixin":12284,"worker":12285,"Compute":12286,"ROUP":12287,"pageHt":12288,"ĠINPUT":12289,"domains":12290,"transport":12291,"transactions":12292,"866":12293,"867":12294,"Algorithm":12295,"passphrase":12296,"maximum":12297,"interfaces":12298,"297":12299,"ĠPyGet":12300,"000014":12301,"ĠlastilePro":12302,"Ġsupporting":12303,"));'":12304,"567":12305,"partitions":12306,"ĠACTIV":12307,"124":12308,"pended":12309,"Ġloading":12310,"Ġpathext":12311,"169":12312,"Ġassumed":12313,"LOOP":12314,"runs":12315,"Ġcrud":12316,"Ġsrcdescriptor":12317,"Ġagg":12318,"::%":12319,"Ġlimitby":12320,"Loop":12321,"egr":12322,"Ġsky":12323,"080":12324,"ĠAdding":12325,"foobar":12326,"Ġxmlrpc":12327,"frm":12328,"ractal":12329,"posn":12330,"Ġreflect":12331,"345":12332,"cular":12333,"candidate":12334,"Outlook":12335,"BaseCoordinateFrame":12336,"TextField":12337,"joined":12338,"ĠNotFound":12339,"IOERR":12340,"stallable":12341,"Ġlikelihood":12342,"TICE":12343,"ducer":12344,"Ġwants":12345,"Choice":12346,"Ġoffer":12347,"IVATE":12348,"ribbon":12349,"Ġarticle":12350,"ĠAnsibleParser":12351,"associated":12352,"Hosts":12353,"Ġ&&":12354,"CCCG":12355,"goanna":12356,"scaler":12357,"records":12358,"xbmc":12359,"ypename":12360,"UBLE":12361,"437":12362,"1255":12363,"markdown":12364,"Ġlocaleconv":12365,"Ġwaiting":12366,"Ġwebapp":12367,"Ġ160":12368,"Ġedited":12369,"Ġfnmatch":12370,"Ġresolution":12371,"Ġfontsize":12372,"Ġobtaining":12373,"define":12374,"850":12375,"ĠNOTICE":12376,"Ġfinished":12377,"Ġplotting":12378,"ĠmenuBar":12379,"FOO":12380,"Ġwheels":12381,"Ġsimplejson":12382,"Ġbeamcodeent":12383,"edges":12384,"Sublayers":12385,"Ġroutes":12386,"Ġzoomify":12387,"ĠFindChildren":12388,"CurrentCost":12389,"MethodSelector":12390,"\\\"%":12391,"merge":12392,"Ġviro":12393,"Ġviol":12394,"Ġsurname":12395,"Ġbuiltin":12396,"ACTIVE":12397,"BOARD":12398,"CharsIn":12399,"modify":12400,"ĠGeneric":12401,"Constraints":12402,"ĠTranslationError":12403,"finite":12404,"DoesNotExist":12405,"FRING":12406,"ĠPrepare":12407,"Ġprepend":12408,"Mocks":12409,"routine":12410,"artistPage":12411,"Ġmanually":12412,"ĠCohort":12413,"ACKET":12414,"ĠHeader":12415,"sInCluster":12416,"Ġspecs":12417,"ĠROOT":12418,"Ġborderwidth":12419,"Ġgraphics":12420,"helpers":12421,"USERNAME":12422,"linux":12423,"~~~":12424,"Ġsegmentation":12425,"ĠCloudError":12426,"ĠDOCTYPE":12427,"ĠVLANs":12428,"ĠQuantity":12429,"Operator":12430,"TEXINPUTS":12431,"Ġeffective":12432,"Ġdecorated":12433,"Ġvolupt":12434,"ĠgetControlModelProperty":12435,"ĠInputSource":12436,"GEOS":12437,"dicates":12438,"ĠAssertScreen":12439,"FEATURES":12440,"Ġboaton":12441,"PROCESS":12442,"--------------------------------":12443,"Ġcircum":12444,"PUBLISH":12445,"RectEqual":12446,"Ġhappens":12447,"ĠLength":12448,"MODERATOR":12449,"MultiPage":12450,"Ġscheduler":12451,"ĠNetworkController":12452,"ĠProfileList":12453,"incipalInfo":12454,"ĠFormMultiPage":12455,"ĠElasticHosts":12456,"constellation":12457,"cxXr":12458,"ĠSTRING":12459,"ĠSTRICT":12460,"FilesMixin":12461,"HumanTouch":12462,"ÙĩØ§":12463,"Ġfactories":12464,"ĠStrict":12465,"IServer":12466,"NAMESPACE":12467,"VAIVMGR":12468,"Ġelevator":12469,"Ġnarrowing":12470,"Ġwaterusew":12471,"RESERVE":12472,"RESERVED":12473,"Ġcatalogcoord":12474,"ĠPipelineOptionsValidator":12475,"UpperBound":12476,"cells":12477,"Ġstores":12478,"ĠEnsure":12479,"ĠBigQuery":12480,"managed":12481,"ĠModified":12482,"Ġâĸģ\"{}\"'":12483,"Ġmeasurement":12484,"ozak":12485,"Ġsqlite":12486,"MARKER":12487,"chronous":12488,"missive":12489,"DECSEL":12490,"ĠGEOSFunc":12491,"ĠCloseHand":12492,"Changed":12493,"Ġimmediately":12494,"ĠhorizontalSlider":12495,"SparseImage":12496,"Ġutcnow":12497,"æķ°æ":12498,"MESSAGE":12499,"Offset":12500,"Ġfermi":12501,"Ġsomew":12502,"ĠNexson":12503,"ĠProcessingConfig":12504,"estigator":12505,"ĠSchedule":12506,"ĠRetrie":12507,"Ġliteral":12508,"Ġlemur":12509,"Projections":12510,"Ġencloses":12511,"Ø§Ø±Ø³":12512,"ĠSpecifying":12513,"rientation":12514,"ĠMATLAB":12515,"VHgnkt":12516,"ĠWSGIRequestHandler":12517,"Daily":12518,"RgblCVH":12519,"Ġseveral":12520,"ĠShardedCorpus":12521,"fferent":12522,"ĠDEVICE":12523,"VHEmYW":12524,"Ð¾Ð":12525,"enclature":12526,"ĠISSUER":12527,"Ġtempest":12528,"ĠQUOTATION":12529,"DASHBOARD":12530,"HVWgw":12531,"totype":12532,"Ġ~~~~~":12533,"reftypename":12534,"ĠTsanAnalyzer":12535,"abbitVCS":12536,"Ġlifecycle":12537,"ĠEarthLocation":12538,"ĠWafError":12539,"ĠnumContentsInCluster":12540,"ĠAnsibleParserError":12541,"CharsInRectEqual":12542,"ĠAssertScreenCharsInRectEqual":12543,"Ġwaterusewells":12544,"\").":12545,"\">'":12546,"\"\\\\":12547,"%(":12548,"'ve":12549,"').":12550,")',":12551,",%":12552,"1234":12553,"399":12554,"684":12555,"827":12556,">.":12557,"Ab":12558,"Ban":12559,"Blob":12560,"CXX":12561,"Category":12562,"CODE":12563,"CARD":12564,"Clear":12565,"Center":12566,"DG":12567,"DO":12568,"Draw":12569,"DOC":12570,"Est":12571,"EQUAL":12572,"Full":12573,"FREQ":12574,"GA":12575,"GIN":12576,"HR":12577,"Ha":12578,"Is":12579,"JH":12580,"Ls":12581,"Leg":12582,"MY":12583,"Max":12584,"Pb":12585,"RY":12586,"Rb":12587,"Rain":12588,"RATE":12589,"RPM":12590,"SIS":12591,"Some":12592,"Snow":12593,"TV":12594,"Trees":12595,"Used":12596,"Using":12597,"VARIANT":12598,"WX":12599,"WIT":12600,"WAVE":12601,"WRITE":12602,"Xnst":12603,"]['":12604,"_*":12605,"_:":12606,"bord":12607,"cgi":12608,"dape":12609,"ej":12610,"equ":12611,"ecycle":12612,"fet":12613,"fetch":12614,"gat":12615,"gal":12616,"grange":12617,"gaussian":12618,"glossary":12619,"hl":12620,"hp":12621,"iTerm":12622,"kin":12623,"mil":12624,"mory":12625,"mys":12626,"nis":12627,"oframe":12628,"ping":12629,"qf":12630,"rr":12631,"sample":12632,"sleep":12633,"snc":12634,"sphinx":12635,"squee":12636,"tM":12637,"tice":12638,"uu":12639,"xD":12640,"xX":12641,"ylim":12642,"zi":12643,"}}'":12644,"®ļ":12645,"Ã£":12646,"ãĢ":12647,"åħ":12648,"è¯":12649,"Ġ88":12650,"Ġ99":12651,"nes":12652,"detect":12653,"stand":12654,"inst":12655,"inken":12656,"Ġtrees":12657,"atter":12658,"attemp":12659,"ĠaBu":12660,"Ġsen":12661,"Ġ'!":12662,"erg":12663,"ero":12664,"erator":12665,"Ġcity":12666,"ĠcPath":12667,"Ġig":12668,"Ġist":12669,"Ġiang":12670,"Ġicoord":12671,"learn":12672,"omq":12673,"Ġ\"</":12674,"Ġ\"..\"":12675,"Ġfact":12676,"Ġfallback":12677,"Ġfurn":12678,"Ġfloor":12679,"ĠfÃ¡j":12680,"Ġfractal":12681,"Ġple":12682,"Ġpump":12683,"Ġpalm":12684,"alone":12685,"arily":12686,"Ġrename":12687,"Ġremo":12688,"Ġrecipy":12689,"Ġ]+":12690,"Ġsing":12691,"Ġsup":12692,"Ġsolve":12693,"Ġspherical":12694,"Ġsasl":12695,"anag":12696,"ancy":12697,"ĠnTabIndex":12698,"Ġea":12699,"Ġek":12700,"Ġeq":12701,"Ġemit":12702,"Ġeva":12703,"Ġden":12704,"Ġdevi":12705,"Ġdenom":12706,"Ġdelegate":12707,"utility":12708,"ceil":12709,"Ġdll":12710,"Ġdcoord":12711,"ametri":12712,"Ġmor":12713,"Ġmcu":12714,"Ġmilest":12715,"ĠmRNA":12716,"Ġinverse":12717,"Ġindependent":12718,"rospe":12719,"Ġbal":12720,"ĠbDrop":12721,"pem":12722,"Ġwindows":12723,"Ġwizard":12724,"ssib":12725,"lone":12726,"mpPath":12727,"Ġ116":12728,"fier":12729,"Ġums":12730,"ĠTop":12731,"ĠTLS":12732,"Ġcoo":12733,"Ġcophe":12734,"Ġfork":12735,"Ġtogether":12736,"dip":12737,"divide":12738,"digit":12739,"Ġreturncode":12740,"ĠNa":12741,"ĠNon":12742,"Ġextrude":12743,"ĠCmd":12744,"ĠCircle":12745,"ĠSave":12746,"ĠSpat":12747,"ĠSSH":12748,"ĠSplit":12749,"idunt":12750,"ĠAg":12751,"ĠAng":12752,"ĠAFF":12753,"elcome":12754,"Ġimporting":12755,"ĠFA":12756,"ĠFF":12757,"ĠFail":12758,"expi":12759,"exporter":12760,"Ġhr":12761,"Ġhack":12762,"Ġ27":12763,"Ġthrottle":12764,"icles":12765,"Ġground":12766,"Ġgaddr":12767,"Ġrfft":12768,"ĠPlay":12769,"ĠPTR":12770,"ĠPrecipitation":12771,"ĠImp":12772,"ĠIERS":12773,"ĠIdna":12774,"ĠIPython":12775,"ĠLim":12776,"ĠLay":12777,"ĠLMS":12778,"Ġlost":12779,"ĠtestCompute":12780,"Ġconse":12781,"Ġconsu":12782,"Ġconfidence":12783,"ĠRest":12784,"ĠRaise":12785,"ĠRNN":12786,"maj":12787,"Ġbez":12788,"Ġprotection":12789,"Ġmed":12790,"Ġmes":12791,"Ġmedia":12792,"Ġmedium":12793,"Ġkv":12794,"Ġkiv":12795,"virt":12796,"Ġâĸģ'='":12797,"ando":12798,"Ġmaint":12799,"keypatch":12800,"Ġappengine":12801,"ĠMath":12802,"ĠMay":12803,"ĠMODE":12804,"Ġunsigned":12805,"Ġunsubscribed":12806,"ĠfileExists":12807,"Errors":12808,"pares":12809,"Ġjid":12810,"Ġjournal":12811,"Ġshoot":12812,"Ġshare":12813,"constant":12814,"conllu":12815,"ĠBArgs":12816,"oprint":12817,"ĠWr":12818,"ĠWidth":12819,"Ġparity":12820,"compose":12821,"Ġuserdict":12822,"Ġrax":12823,"ĠUr":12824,"angups":12825,"untest":12826,"preserve":12827,"Ġ409":12828,"ĠRecalculate":12829,"licated":12830,"osx":12831,"oute":12832,"ĠuseIMGsize":12833,"INIT":12834,"INFRING":12835,"Ġlagrange":12836,"Ġdoing":12837,"Ġlinear":12838,"Ġlinenos":12839,"tablename":12840,"actic":12841,"ooKeeper":12842,"ĠVFSFile":12843,"ATTRIBUT":12844,"inity":12845,"Ġeng":12846,"88595":12847,"caption":12848,"Ġbygroups":12849,"trial":12850,"trials":12851,"Ġsublicense":12852,"umpt":12853,"Ġupdating":12854,"tained":12855,"tached":12856,"ĠstartX":12857,"ĠstartY":12858,"should":12859,"waits":12860,"Ġzmq":12861,"vention":12862,"Ġpredi":12863,"boBox":12864,"ANC":12865,"ANSIBLE":12866,"ENAME":12867,"Inv":12868,"InRelease":12869,"Incorrect":12870,"InDjango":12871,"Retry":12872,"Requirement":12873,"timed":12874,"229":12875,"Ġnumeric":12876,"berg":12877,"Named":12878,"ĠSelect":12879,"posed":12880,"Ġextent":12881,"Ġmox":12882,"ĠIncrement":12883,"ĠTestR":12884,"ĠTestS":12885,"ALINGS":12886,"nolog":12887,"nova":12888,"()'":12889,"Ġspline":12890,"alization":12891,"counter":12892,"aggregate":12893,"Ġfaci":12894,"Ġmsgpack":12895,"ACTION":12896,"Ġopttype":12897,"Ġoptdef":12898,"ICODE":12899,"defaultlocale":12900,"minus":12901,"151":12902,"1546":12903,"ides":12904,"TypeVariable":12905,"ledger":12906,"Ġmaxint":12907,"Ġsearching":12908,"ongo":12909,"ĠtempStr":12910,"Ġspecifies":12911,"latn":12912,"spatial":12913,"ĠExternal":12914,"linker":12915,"AMst":12916,"company":12917,"Conf":12918,"Constants":12919,"okens":12920,"ĠGenerated":12921,"methodname":12922,"Ġstatusicon":12923,"Ġfloats":12924,"monic":12925,"=\"\"></":12926,"ĠZooKeeper":12927,"ROOT":12928,"Ġvero":12929,"textbook":12930,"letters":12931,"letely":12932,"Ġcoroutine":12933,"CHW":12934,"iterator":12935,"vertices":12936,"Ġdocid":12937,"Ġdocinfo":12938,"frameset":12939,"863":12940,"ĠGetPosition":12941,"ĠPyQt":12942,"Ġsends":12943,"Ġoverri":12944,"creation":12945,"basedir":12946,"xmlns":12947,"Ġmini":12948,"ĠCreated":12949,"569":12950,"SetProber":12951,"144":12952,"Ġ|=":12953,"recv":12954,"foreign":12955,"cpus":12956,"ĠWARNING":12957,"Ġinserted":12958,"184":12959,"Idle":12960,"boto":12961,"Ġsessionid":12962,"confmod":12963,"Ġretval":12964,"Ġgoes":12965,"pkt":12966,"Ġlocations":12967,"Ġsavefig":12968,"ierra":12969,"337":12970,"6666":12971,"corpus":12972,"optiondb":12973,"ĠREAL":12974,"ĠREAD":12975,"Ġreceiving":12976,"Ġprefixed":12977,"FFER":12978,"Ġarchit":12979,"theme":12980,"alsa":12981,"2011":12982,"2012":12983,"Ġprojected":12984,"Ġconverts":12985,"Ġchunkdata":12986,"2005":12987,"ĠDEALINGS":12988,"ĠNameError":12989,"Ġmodifying":12990,"Ġnetloc":12991,"wds":12992,"Ġencoder":12993,"Ġcustomer":12994,"Ġstructures":12995,"Ġtech":12996,"698":12997,"Ġlocker":12998,"ĠlockFeet":12999,"Ġmathutil":13000,"Ġrealpath":13001,"Ġsimulation":13002,"ĠChromium":13003,"fontfile":13004,"FromString":13005,"zipcode":13006,"ĠDefinition":13007,"ForName":13008,"ForCompressor":13009,"ĠContainer":13010,"ĠController":13011,"markers":13012,"markup":13013,"pidfile":13014,"Ġaccepts":13015,"Contents":13016,"successor":13017,"ĠAttributeList":13018,"Login":13019,"devanag":13020,"Ġconnecting":13021,"ĠDoxy":13022,"ĠDocutils":13023,"Pages":13024,"Team":13025,"ERVC":13026,"Transition":13027,"cdn":13028,"uclidean":13029,"CEPT":13030,"courses":13031,"ĠDataFrame":13032,"ĠDataflowRunner":13033,"ĠGuidProtocolPpiXml":13034,"ĠPROGR":13035,"ĠMockRestClient":13036,"writes":13037,"Ġlocid":13038,"ĠManage":13039,"TabWidget":13040,"Tyz":13041,"Ġgpdb":13042,"Ġpickled":13043,"Ġplayers":13044,"ĠLoads":13045,"SizeForCompressor":13046,"Ġdescend":13047,"Ġloaders":13048,"PRIVATE":13049,"Ġphone":13050,"Ġphys":13051,"metrical":13052,"Ġdivisions":13053,"Ġsurter":13054,"Ġbitsize":13055,"issuer":13056,"ometimes":13057,"ĠExtra":13058,"GPU":13059,"spent":13060,"Processing":13061,"Ġrepetitions":13062,"grp":13063,"isticsTypes":13064,"Ġlegacy":13065,"ĠSupported":13066,"Ġthrown":13067,"Ġrandn":13068,"operations":13069,"Headers":13070,"NOTE":13071,"Ġerat":13072,"ĠTeam":13073,"Ġfuzzing":13074,"ĠHere":13075,"ĠHeight":13076,"ĠIndexed":13077,"carve":13078,"Ġrectangle":13079,"ĠBuildContext":13080,"ĠUnicodeModel":13081,"Ġoccurs":13082,"Ġkiel":13083,"pressure":13084,"hyphen":13085,"ĠWheel":13086,"Reflection":13087,"VALUES":13088,"mols":13089,"TYPICAL":13090,"ighbor":13091,"ĠHandles":13092,">`_":13093,"Ġmirrormode":13094,"ĠAssertionError":13095,"ĠCLAIM":13096,"4528":13097,"Ġbuildinger":13098,"ĠDOES":13099,"ĠpostmasterPID":13100,"={{":13101,"FixedIp":13102,"Scripts":13103,"Ġntpath":13104,"Ġcontributors":13105,"ĠEllipse":13106,"Ġderivative":13107,"Modi":13108,"sanity":13109,"ungap":13110,"Ġconveying":13111,"Ġprecise":13112,"ĠcurrPlaying":13113,"QueueItem":13114,"legacy":13115,"Ġguar":13116,"ĠConnectionError":13117,"Ġmanaged":13118,"NInPolymorphicTwice":13119,"NInTwo":13120,"Ġtriangular":13121,"Ġddt":13122,"DISTRIBUT":13123,"landscape":13124,"Ġbroadcast":13125,"Ġvenue":13126,"ĠStoreException":13127,"ĠWaiting":13128,"ĠQueueEntry":13129,"ĠREQUEST":13130,"CENTER":13131,"ĠPrivate":13132,"ĠLeaf":13133,"Ġprotobuf":13134,"Ġkiuj":13135,"25519":13136,"Ġtracking":13137,"Creating":13138,"Ġproducer":13139,"Ġchamber":13140,"Ġpairwise":13141,"Ġregarding":13142,"ĠnominalPose":13143,"wcTyz":13144,"Ġolder":13145,"Cursor":13146,"Specify":13147,"sigmoid":13148,"ĠAccount":13149,"ĠPropertyManager":13150,"fitted":13151,"cedure":13152,"Ġrespond":13153,"ĠMODIFIC":13154,"ĠWorkplane":13155,"widened":13156,"dependency":13157,"gresql":13158,"lstools":13159,"nulls":13160,"ĠCharacteristicsTypes":13161,"PostureConstraint":13162,"ĠGDataEntry":13163,"NPolymorphicOutDefault":13164,"Sanitizer":13165,"Ġlinux":13166,"quential":13167,"ĠCompareSizeForCompressor":13168,"ynamoDB":13169,"googledrive":13170,"ĠLaunch":13171,"CONFIG":13172,"/{}/{}":13173,"Ġaffects":13174,"Ġrelief":13175,"Ġparenthesize":13176,"Ø§ÙĦ":13177,"retrieve":13178,"RESPONSE":13179,"ĠEnterprise":13180,"ivize":13181,"narrowing":13182,"recursive":13183,"Ġwaits":13184,"ĠNumPy":13185,"ĠaddManualButton":13186,"=\"(.*?)\"'":13187,"ĠRegularPolygon":13188,"DETECT":13189,"OBJECT":13190,"ĠDominos":13191,"SCRIP":13192,"InsertManyTakeMany":13193,"microsoftcp":13194,"Ġrigid":13195,"Ġdeprel":13196,"ĠconversationsTabWidget":13197,"proctored":13198,"ESCRIPTION":13199,"RECORD":13200,"ĠFloatingIP":13201,"Policy":13202,"drives":13203,"Ġrelativize":13204,"Ġdashes":13205,"ĠNONINFRING":13206,"ĠFIELD":13207,"ĠgetTmpPath":13208,"ĠLIBR":13209,"ExpressionContext":13210,"DecimalField":13211,"ExtendedIUPACProtein":13212,"RktENUwcTyz":13213,"knows":13214,"adapters":13215,"Ġmagna":13216,"ĠMplCanvas":13217,"ĠRemovedInDjango":13218,"SublayersDialog":13219,"ozakura":13220,"VHEmYWp":13221,"DOCTYPE":13222,"squeeze":13223,"ãĢĤ":13224,"ĠaBuf":13225,"ĠcPathname":13226,"Ġfurnished":13227,"Ġevalf":13228,"rospection":13229,"ĠbDropdown":13230,"ĠCmdArgs":13231,"virtual":13232,"TypeVariables":13233,"devanagari":13234,"NInTwoTypeVariables":13235,"DISTRIBUTION":13236,"ĠMODIFICATIONS":13237,"ĠNONINFRINGEMENT":13238,"ĠgetTmpPathForName":13239,"(['":13240,")}":13241,")).":13242,"+\\":13243,"+|":13244,"059":13245,"088":13246,"103":13247,"232":13248,"506":13249,"578":13250,"539":13251,"703":13252,"709":13253,"903":13254,">=":13255,"Ap":13256,"Ass":13257,"BL":13258,"Bit":13259,"CURRENT":13260,"CUM":13261,"ClusterNode":13262,"Drunk":13263,"EH":13264,"Effect":13265,"Fi":13266,"Fan":13267,"FLEX":13268,"GJ":13269,"GLE":13270,"GPL":13271,"Green":13272,"GROUP":13273,"Hc":13274,"Im":13275,"Ignored":13276,"Ji":13277,"KW":13278,"LH":13279,"Low":13280,"Language":13281,"Lecture":13282,"MQ":13283,"Mapp":13284,"NVw":13285,"Omit":13286,"Pdf":13287,"PQz":13288,"Precipitation":13289,"PgCtlBackendOptions":13290,"Qi":13291,"Red":13292,"Row":13293,"Raster":13294,"Site":13295,"Scal":13296,"SITE":13297,"TK":13298,"Today":13299,"VC":13300,"Ws":13301,"Xns":13302,"]?":13303,"]\\":13304,"]``,":13305,"aight":13306,"best":13307,"bdist":13308,"cv":13309,"cTy":13310,"cxi":13311,"dar":13312,"dtree":13313,"dxf":13314,"drive":13315,"eE":13316,"equivalent":13317,"frequency":13318,"glo":13319,"gdb":13320,"gap":13321,"gzip":13322,"grees":13323,"ghi":13324,"hit":13325,"hick":13326,"iating":13327,"jd":13328,"jx":13329,"jsi":13330,"junit":13331,"kg":13332,"km":13333,"kins":13334,"ksim":13335,"kdtree":13336,"lla":13337,"larr":13338,"mx":13339,"mnt":13340,"moment":13341,"nan":13342,"nuc":13343,"pnt":13344,"rP":13345,"rns":13346,"sx":13347,"smp":13348,"sol":13349,"spa":13350,"sdf":13351,"salsa":13352,"timer":13353,"uss":13354,"uches":13355,"uigi":13356,"vod":13357,"vatar":13358,"wcs":13359,"wdist":13360,"xh":13361,"xk":13362,"xp":13363,"xff":13364,"xlim":13365,"ya":13366,"yon":13367,"{{":13368,"Ã§":13369,"à¥":13370,"à®":13371,"ä¹":13372,"åį":13373,"çĶ":13374,"Ġæ":13375,"ĠKe":13376,"ĠØ¨":13377,"ĩªå":13378,"į®":13379,"nent":13380,"neqq":13381,"Ġ<,":13382,"licies":13383,"delegate":13384,"sth":13385,"sem":13386,"sender":13387,"selector":13388,"inverse":13389,"rea":13390,"reve":13391,"reps":13392,"resta":13393,"repository":13394,"Ġtangle":13395,"Ġtreated":13396,"Ġticket":13397,"Ġtierra":13398,"orse":13399,"orange":13400,"orary":13401,"orientation":13402,"orderable":13403,"Ġamong":13404,"Ġawait":13405,"Ġawards":13406,"Ġsea":13407,"Ġsect":13408,"Ġ'~":13409,"Ġ'!'":13410,"Ġcf":13411,"Ġcame":13412,"ĠcStyle":13413,"Ġii":13414,"lformed":13415,"Ġ\">\"":13416,"Ġ\"--------------------------------":13417,"Ġfid":13418,"Ġfpath":13419,"Ġfarray":13420,"Ġfobj":13421,"Ġfrm":13422,"Ġfraction":13423,"Ġpul":13424,"Ġpca":13425,"Ġpens":13426,"alphanum":13427,"Ġ[\"":13428,"Ġ[[":13429,"Ġrely":13430,"Ġreactor":13431,"Ġrealf":13432,"Ġregexp":13433,"Ġog":13434,"Ġoval":13435,"Ġoauth":13436,"Ġoxm":13437,"Ġson":13438,"Ġsmp":13439,"Ġsay":13440,"Ġsouth":13441,"anas":13442,"encryption":13443,"geom":13444,"georss":13445,"ital":13446,"Ġemitted":13447,"Ġdele":13448,"Ġdesign":13449,"Ġdecoding":13450,"Ġdy":13451,"Ġdry":13452,"Ġdans":13453,"Ġdmm":13454,"Ġdhcp":13455,"Ġinp":13456,"roperly":13457,"Ġbon":13458,"Ġbanner":13459,"Ġbird":13460,"pes":13461,"Ġdefining":13462,"Ġuget":13463,"otus":13464,"radi":13465,"ragment":13466,"ĠTa":13467,"ĠTake":13468,"edits":13469,"Ġviv":13470,"Ġvfg":13471,"ests":13472,"Ġforwar":13473,"abilities":13474,"dint":13475,"disk":13476,"getconftest":13477,"uniform":13478,"isco":13479,"ĠNNNNN":13480,"Ġexposed":13481,"ĠCName":13482,"ĠCOL":13483,"ĠCALL":13484,"ĠSm":13485,"ĠSup":13486,"ĠSte":13487,"ĠSty":13488,"ĠSign":13489,"ĠSRE":13490,"ĠScope":13491,"ĠScreen":13492,"ĠSUPPORT":13493,"agent":13494,"Ġstock":13495,"Ġsthick":13496,"ĠArt":13497,"adj":13498,"adr":13499,"though":13500,"elg":13501,"ĠFILE":13502,"ĠFinn":13503,"exam":13504,"atag":13505,"Ġgetsource":13506,"Ġgettext":13507,"Ġgetpid":13508,"ĠgetUser":13509,"ĠgetCurrent":13510,"Ġhd":13511,"Ġhal":13512,"Ġhfile":13513,"Ġnotifier":13514,"Ġnotices":13515,"Ġandroid":13516,"Ġgshape":13517,"ĠassertResponse":13518,"ĠassertRegexpMatches":13519,"umy":13520,"asd":13521,"Ġratio":13522,"ĠPn":13523,"ĠPop":13524,"ĠPIL":13525,"ĠPoly":13526,"ĠPass":13527,"ĠLeg":13528,"ĠLock":13529,"Ġtested":13530,"ĠRT":13531,"ĠRFC":13532,"0008":13533,"Ġlan":13534,"Ġlspan":13535,"Ġlpx":13536,"Ġlpz":13537,"Ġluigi":13538,"igra":13539,"macr":13540,"extract":13541,"Ġlibso":13542,"Ġlikely":13543,"endo":13544,"endpoint":13545,"verter":13546,"Ġresume":13547,"Ġstrict":13548,"Ġ},":13549,"Ġbeams":13550,"Ġprocs":13551,"Ġcontstr":13552,"Ġcontig":13553,"Ġ37":13554,"Ġ321":13555,"Ġ330":13556,"ĠsetD":13557,"htexas":13558,"Ġklass":13559,"Ġkwds":13560,"Ġalgorithms":13561,"ĠGen":13562,"ĠGnu":13563,"owlf":13564,"Ġâĸģ'.":13565,"andwidth":13566,"Ġdataverse":13567,"Ġ\"\\\\":13568,"ĠDep":13569,"ĠDynamoDB":13570,"Ġmappings":13571,"tostring":13572,"ĠMi":13573,"ĠMut":13574,"ĠMore":13575,"ĠMAC":13576,"ĠMicrosoft":13577,"ĠEasy":13578,"Ġunu":13579,"Ġunmatched":13580,"Ġunparsed":13581,"Ġfilelist":13582,"ĠfileSize":13583,"ĠfileHash":13584,"Ġcompressed":13585,"ĠOrigin":13586,"pap":13587,"payload":13588,"palette":13589,"paxes":13590,"Ġjavascript":13591,"Ġyy":13592,"Ġyes":13593,"conj":13594,"constr":13595,"constructor":13596,"consonants":13597,"consolidate":13598,"ĠBox":13599,"ĠBResult":13600,"ĠBArg":13601,"testmodel":13602,"forward":13603,"ONSN":13604,"parameter":13605,"izations":13606,"setlocale":13607,"Ġraven":13608,"ĠUsing":13609,"angled":13610,"preference":13611,"pretty":13612,"prefer":13613,"ĠReplace":13614,"Ġlaux":13615,"Ġ`[":13616,"Ġdoub":13617,"ĠdoDrunk":13618,"Ġwhatever":13619,"ĠTheAddress":13620,"Ġlogpy":13621,"Ġlogilab":13622,"Ġâĸģ\"<":13623,"orean":13624,"ĠVFG":13625,"ĠVARIANT":13626,"Ġlistitems":13627,"ATING":13628,"ATDIR":13629,"Ġenrep":13630,"014":13631,"triangle":13632,"nsub":13633,"nspace":13634,"Ġsubscriber":13635,"ensure":13636,"ĠHalf":13637,"ĠHORIZ":13638,"ugg":13639,"shut":13640,"Ġsuit":13641,"Ġzz":13642,"ĠargsArr":13643,"Ġpreferred":13644,"xtx":13645,"defghi":13646,"placing":13647,"OREC":13648,"Ġleak":13649,"Ġlearning":13650,"Ġcanned":13651,"quiet":13652,"ENS":13653,"Reserved":13654,"Ġrunpytest":13655,"wordcount":13656,"ĠversionCode":13657,"Ġ655":13658,"Ġ605":13659,"Ġpyes":13660,"Ġpydev":13661,"csisol":13662,"Ġcompletion":13663,"Ġcompletely":13664,"libxwalk":13665,"employee":13666,"anted":13667,"Ġrecv":13668,"Ġrecurse":13669,"Ġcontextlib":13670,"ĠInno":13671,"ĠIndic":13672,"ĠIndicates":13673,"ĠTester":13674,"Ġurlresolvers":13675,"ĠdbData":13676,"Ġdictitems":13677,"Ġgeos":13678,"Ġgeodetic":13679,"Ġspinless":13680,"alizers":13681,"Ġ>-":13682,"ACTIONS":13683,"IGMP":13684,"mino":13685,"minder":13686,"Degrees":13687,"TestRun":13688,"irflow":13689,"suc":13690,"TypeDefault":13691,"ĠXSCALE":13692,"254":13693,"Seg":13694,"Selected":13695,"Ġmatter":13696,"userid":13697,"Standard":13698,"weakref":13699,"tempdir":13700,"Ġintersect":13701,"Ġspecifically":13702,"eps":13703,"cluded":13704,"spin":13705,"software":13706,"solid":13707,"ĠExec":13708,"AMP":13709,"tabledata":13710,"Ġworkplane":13711,"ĠDebug":13712,"Ġfinds":13713,"ĠfindObject":13714,"mono":13715,"acha":13716,"Ġregression":13717,"Ġregisters":13718,"230":13719,"231":13720,"237":13721,"ROW":13722,"pageWd":13723,"ĠConstructor":13724,"ĠConcaten":13725,"CHANG":13726,"placeholder":13727,"transferred":13728,"860":13729,"Ġmidentifier":13730,"refuse":13731,"referr":13732,"layout":13733,"Ġobjs":13734,"Alert":13735,"Ġbotdict":13736,"Ġfeq":13737,"ĠProject":13738,"ĠProperties":13739,"interpre":13740,"Atomic":13741,"Argument":13742,"ĠsendUDP":13743,"ĠsendTCP":13744,"Ġterbord":13745,"062":13746,"066":13747,"00003":13748,"000001":13749,"ĠJob":13750,"basename":13751,"Ġremoves":13752,"nacl":13753,"ridge":13754,"ToValue":13755,"ĠStar":13756,"ĠStudio":13757,"Ġ\"%(":13758,"Ġexecuting":13759,"IMARY":13760,"Ġpopulate":13761,"OPE":13762,"forecast":13763,"yndic":13764,"Ġentrance":13765,"LOG":13766,"LOGGER":13767,"onential":13768,"Ġcrit":13769,"witz":13770,"Ġdiffs":13771,"SSARY":13772,"checker":13773,"1307":13774,"POLY":13775,"bitrate":13776,"ousands":13777,"Ġsortcolumn":13778,"Ġexplan":13779,"Ġlocationid":13780,"Ġmapped":13781,"Ġdomains":13782,"ADMIN":13783,"Ġnextchar":13784,"TRL":13785,"Ġ...)":13786,"775":13787,"ĠassertRaisesRegexp":13788,"Ġwrites":13789,"284":13790,"Ġprefixes":13791,"Ġfootstep":13792,"Ġvalidated":13793,"Ġconverting":13794,"utilus":13795,"2009":13796,"design":13797,"Ġtherefore":13798,"locals":13799,"ĠRuns":13800,"MAIVMGR":13801,"MAKEN":13802,"ĠISO":13803,"SCA":13804,"Ġnetmask":13805,"Ġisspace":13806,"leftarrow":13807,"Ġaddressof":13808,"ĠHTTPS":13809,"Ġparticle":13810,"Challenge":13811,"gwin":13812,"Env":13813,"ĠAPIs":13814,"Ġinvalidate":13815,"Ġinvoked":13816,"ĠPARENT":13817,"Ġlockfile":13818,"Ġtoknum":13819,"ĠTextQuery":13820,"ĠChart":13821,"layerinfo":13822,"Ġdatabases":13823,"Ġstopped":13824,"ĠMessageField":13825,"ypot":13826,"Ġpeople":13827,"ĠContribut":13828,"OSError":13829,"Ġreasons":13830,"=?,":13831,"Ġbundlerev":13832,"Configured":13833,"precipitation":13834,"ĠXMLReader":13835,"ĠcomputeHumanTouch":13836,"ELVb":13837,"ĠcheckedThread":13838,"serialization":13839,"Ġeditw":13840,"Ġreleases":13841,"Ġmasked":13842,"cretized":13843,"nlg":13844,"ContextMenu":13845,"Ġ../":13846,"Ġdstdescriptor":13847,"autos":13848,"PropertyValue":13849,"Linkage":13850,"ĠDataverse":13851,"ĠmoveTo":13852,"Traj":13853,"Ġstudents":13854,"Ġ\"./":13855,"Ġpady":13856,"malized":13857,"Ġwheeldir":13858,"949":13859,"Design":13860,"velocity":13861,"ClientRawResponse":13862,"dotted":13863,"Ġsupply":13864,"Ġdotted":13865,"Ġlatter":13866,"Perf":13867,"wayThrough":13868,"ĠRemoves":13869,"ĠCourseware":13870,"retval":13871,"Ġdepending":13872,"Ġbuiltins":13873,"Ġnormaliz":13874,"LeftArrow":13875,"licitly":13876,"idxsearcharound":13877,"Ġfront":13878,"fermi":13879,"doubleComplex":13880,"nonzero":13881,"compatable":13882,"Ġfoobar":13883,"ĠlzP":13884,"ĠPretty":13885,"Register":13886,"GLUT":13887,"ĠCodec":13888,"Ġdownloaded":13889,"lossless":13890,"ĠTemple":13891,"Ġsavedpath":13892,"itudes":13893,"ButtonModel":13894,"VwEC":13895,"rotate":13896,"xxxx":13897,"ĠUnicodeDecodeError":13898,"Twilio":13899,"Ġtruncated":13900,"MAPP":13901,"Ġoccurrences":13902,"ĠGraphic":13903,"CoreReflection":13904,"ĠModuleStore":13905,"ĠUDF":13906,"???":13907,"NumberError":13908,"drawString":13909,"Ġintegers":13910,"ĠDeviceState":13911,"Ġrankings":13912,"confirmation":13913,"GraphDef":13914,"ĠfacePath":13915,"Ġlangname":13916,"approx":13917,"luU":13918,"StanceFrame":13919,"Ġreceives":13920,"Ġaacs":13921,"Ġinherited":13922,"ĠPostfix":13923,"ĠDECSCA":13924,"ĠWSGIServer":13925,"Ġturko":13926,"Ġnevermore":13927,"privatekey":13928,"GSQL":13929,"Ġprobability":13930,"vileged":13931,"ĠDOUBLE":13932,"Ġhello":13933,"Customer":13934,"Minion":13935,"[\\'\"":13936,"Ġreloading":13937,"ĠPlain":13938,"ĠALIGN":13939,"membership":13940,"AAAAA":13941,"CONTACT":13942,"Finished":13943,"ĠPLATDIR":13944,"Ġgeographic":13945,"beamlist":13946,"Ġcalculation":13947,"greSQL":13948,"ĠNSX":13949,"Ġdaemonize":13950,"Ġanalyze":13951,"Ġrrdclient":13952,"ĠOFPTable":13953,"Ġassumes":13954,"iecewise":13955,"MAKEACR":13956,"MAKEGLO":13957,"Ġsaid":13958,"ĠCurrently":13959,"Ġcomparing":13960,"Visible":13961,"ĠGRAPH":13962,"RawAnomalyScore":13963,"Ġ'&'":13964,"ĠComponent":13965,"Ġ02111":13966,"ĠStrip":13967,"Relation":13968,"ybqTY":13969,"Ġ\"^\"":13970,"Ġdescendents":13971,"ĠLAST":13972,"payment":13973,"HEADER":13974,"Artists":13975,"OFFSET":13976,"Ġdeclarations":13977,"Ġsyndic":13978,"clockwise":13979,"ulonglong":13980,"ĠGDataFeed":13981,"ĠUnoControlCheckBox":13982,"DATABASE":13983,"HouseholdMember":13984,"USTOM":13985,"Ġencrypted":13986,"Ġtweepy":13987,"ĠposeName":13988,"ĠiDisplayStart":13989,"Ġ\"|\"":13990,"ĠLabor":13991,"ĠZipFile":13992,"resourceGroupName":13993,"Extras":13994,"ĠENCODING":13995,"CLEAN":13996,"Topic":13997,"Ġnavbar":13998,"Ġhillsdale":13999,"ĠFromXml":14000,"Ġjoints":14001,"Ġshardsize":14002,"INSTALL":14003,"TIFY":14004,"Writer":14005,"Ġflsfilename":14006,"riendly":14007,"Ġzuro":14008,"Ġcompilation":14009,"weekday":14010,"ĠAlternatively":14011,"Ġisscalarlike":14012,"Encoder":14013,"GGGCCGC":14014,"CLOUD":14015,"MACH":14016,"NEW":14017,"mgmt":14018,"Ġimmutable":14019,"Ġknabo":14020,"ĠHdfsAtomic":14021,"Ġzippy":14022,"AdminTuple":14023,"southtexas":14024,"vanced":14025,"Ġoccup":14026,"Ġslugify":14027,"Ġincrease":14028,"ĠCIRCUM":14029,"ĠFuseOSError":14030,"HalfwayThrough":14031,"inventor":14032,"remaining":14033,"Ġctrlist":14034,"ubyte":14035,"LOOPS":14036,"GEOSPrepared":14037,"Ġsomewhere":14038,"Ø§Ø±Ø³Ø§ÙĦ":14039,"fetches":14040,"millis":14041,"ssibly":14042,"ĠImproperly":14043,"ĠLayer":14044,"ĠPROGRAM":14045,"Ġphysical":14046,"SCRIPT":14047,"çĶ¨":14048,"restazure":14049,"Ġugettext":14050,"getconftestmodules":14051,"ĠFinnish":14052,"ĠPolyline":14053,"Ġlpxn":14054,"Ġlibsodium":14055,"Ġ32140":14056,"ONSNATCH":14057,"ĠTheAddressTable":14058,"ĠVARIANTS":14059,"ORECASE":14060,"libxwalkcore":14061,"ĠIndicator":14062,"ĠfindObjectByName":14063,"ĠsendUDPQuery":14064,"ĠsendTCPQuery":14065,"MAKENCL":14066,"MAKEACRONY":14067,"MAKEGLOSSARY":14068,"ĠHdfsAtomicWrite":14069,"ĠCIRCUMFLEX":14070,"ĠImproperlyConfigured":14071,"\"\"":14072,"')\"":14073,").'":14074,")])":14075,"*\\":14076,"/(":14077,"055":14078,"259":14079,"311":14080,"358":14081,"438":14082,"=(":14083,"=/":14084,"=\\'":14085,"@{":14086,"AE":14087,"AER":14088,"Bin":14089,"BAS":14090,"Bloc":14091,"Cz":14092,"Cap":14093,"CRE":14094,"CAD":14095,"CTIONS":14096,"Circle":14097,"Cookie":14098,"DJ":14099,"DV":14100,"DLE":14101,"Drag":14102,"DROP":14103,"DESCRIPTION":14104,"FJ":14105,"Fit":14106,"FERR":14107,"FROM":14108,"Fragment":14109,"GIS":14110,"Gaze":14111,"HN":14112,"HW":14113,"Hp":14114,"HLO":14115,"Ist":14116,"IUS":14117,"Ll":14118,"Long":14119,"MG":14120,"MX":14121,"Mod":14122,"NT":14123,"Nom":14124,"Ntp":14125,"NAB":14126,"NVH":14127,"NMM":14128,"PF":14129,"PIN":14130,"Public":14131,"Pool":14132,"Press":14133,"Pix":14134,"Pear":14135,"PTR":14136,"Poll":14137,"QHK":14138,"Round":14139,"Ryt":14140,"Short":14141,"Scalar":14142,"SMS":14143,"SUPPORT":14144,"TG":14145,"TOC":14146,"Trial":14147,"TORRENT":14148,"VED":14149,"Vertical":14150,"Wall":14151,"Wby":14152,"WID":14153,"Windows":14154,"Wheel":14155,"Wanted":14156,"XMP":14157,"Yun":14158,"YAML":14159,"Zh":14160,"Zgw":14161,"[%":14162,"]`":14163,"]))":14164,"`\"":14165,"aca":14166,"aaf":14167,"bmp":14168,"bay":14169,"bib":14170,"beta":14171,"cC":14172,"cW":14173,"cue":14174,"cvar":14175,"clip":14176,"cfb":14177,"dj":14178,"dan":14179,"driver":14180,"dxgw":14181,"dwithin":14182,"ea":14183,"ey":14184,"easy":14185,"fK":14186,"fq":14187,"farray":14188,"final":14189,"fds":14190,"finity":14191,"gst":14192,"gation":14193,"grouped":14194,"gamma":14195,"hum":14196,"horiz":14197,"ij":14198,"ipping":14199,"iRyt":14200,"javascript":14201,"korean":14202,"llab":14203,"mas":14204,"nice":14205,"national":14206,"obs":14207,"pw":14208,"ple":14209,"prompt":14210,"rB":14211,"rand":14212,"sz":14213,"sal":14214,"same":14215,"ti":14216,"tv":14217,"tups":14218,"uis":14219,"well":14220,"yam":14221,"zz":14222,"}]":14223,"}-{":14224,"åĲ":14225,"æĸ":14226,"Ġrid":14227,"nen":14228,"nese":14229,"ligent":14230,"deb":14231,"det":14232,"deri":14233,"decla":14234,"ntity":14235,"stA":14236,"stemp":14237,"street":14238,"Ġ.*":14239,"semble":14240,"Ġ({":14241,"instructor":14242,"inconsistent":14243,"installable":14244,"readed":14245,"received":14246,"Ġtu":14247,"Ġtar":14248,"Ġtion":14249,"Ġtries":14250,"atol":14251,"atification":14252,"orn":14253,"Ġ:\"":14254,"Ġae":14255,"Ġapache":14256,"Ġahead":14257,"Ġaws":14258,"Ġamino":14259,"onDemand":14260,"Ġ'?":14261,"Ġ'>>":14262,"Ġ'//":14263,"Ġ'==":14264,"Ġ']'":14265,"Ġ'...'":14266,"enus":14267,"enserver":14268,"enqueue":14269,"enkins":14270,"Ġcra":14271,"Ġcard":14272,"Ġcsrc":14273,"Ġclick":14274,"Ġcalibr":14275,"ĠcPickle":14276,"Ġcrontab":14277,"Ġia":14278,"Ġix":14279,"Ġich":14280,"leq":14281,"omas":14282,"Ġ\"*":14283,"Ġ\"('":14284,"Ġ\"../":14285,"Ġ\"|%":14286,"Ġfg":14287,"Ġfu":14288,"Ġffi":14289,"Ġfis":14290,"Ġfsm":14291,"metic":14292,"Ġpng":14293,"Ġpprof":14294,"algorithm":14295,"hemat":14296,"aron":14297,"Ġrenew":14298,"Ġrebum":14299,"Ġrecomm":14300,"Ġremoving":14301,"Ġreplaces":14302,"Ġretries":14303,"Ġ]|":14304,"Ġ]+'":14305,"Ġobs":14306,"ĠoStyle":14307,"Ġsz":14308,"Ġssh":14309,"Ġslash":14310,"Ġsilent":14311,"ctx":14312,"ctus":14313,"ctree":14314,"Ġnin":14315,"itality":14316,"urable":14317,"Ġemb":14318,"Ġeta":14319,"Ġeir":14320,"Ġemsg":14321,"Ġetag":14322,"utom":14323,"utra":14324,"Ġdynam":14325,"Ġdynamo":14326,"Ġmt":14327,"Ġmort":14328,"Ġmultinic":14329,"Ġinvert":14330,"Ġincompatible":14331,"Ġinstalling":14332,"Ġboring":14333,"pet":14334,"Ġwo":14335,"Ġwcs":14336,
[...]
