{"version":"1.0","truncation":null,"padding":null,"added_tokens":[{"id":0,"special":true,"content":"<s>","single_word":false,"lstrip":false,"rstrip":false,"normalized":false},{"id":1,"special":true,"content":"<pad>","single_word":false,"lstrip":false,"rstrip":false,"normalized":false},{"id":2,"special":true,"content":"</s>","single_word":false,"lstrip":false,"rstrip":false,"normalized":false},{"id":3,"special":true,"content":"<unk>","single_word":false,"lstrip":false,"rstrip":false,"normalized":false},{"id":4,"special":true,"content":"<mask>","single_word":false,"lstrip":false,"rstrip":false,"normalized":false},{"id":5,"special":true,"content":"<dedent>","single_word":false,"lstrip":false,"rstrip":false,"normalized":false},{"id":6,"special":true,"content":"<encdom>","single_word":false,"lstrip":false,"rstrip":false,"normalized":false},{"id":7,"special":true,"content":"<endmarker>","single_word":false,"lstrip":false,"rstrip":false,"normalized":false},{"id":8,"special":true,"content":"<indent>","single_word":false,"lstrip":false,"rstrip":false,"normalized":false},{"id":9,"special":true,"content":"<newline>","single_word":false,"lstrip":false,"rstrip":false,"normalized":false},{"id":10,"special":true,"content":"▁","single_word":false,"lstrip":false,"rstrip":false,"normalized":false},{"id":11,"special":true,"content":"<spacetoken>","single_word":false,"lstrip":false,"rstrip":false,"normalized":false},{"id":12,"special":true,"content":"<strnewline>","single_word":false,"lstrip":false,"rstrip":false,"normalized":false},{"id":13,"special":true,"content":"<tabsymbol>","single_word":false,"lstrip":false,"rstrip":false,"normalized":false}],"normalizer":{"type":"Sequence","normalizers":[]},"pre_tokenizer":{"type":"ByteLevel","add_prefix_space":false,"trim_offsets":true},"post_processor":{"type":"ByteLevel","add_prefix_space":true,"trim_offsets":true},"decoder":{"type":"ByteLevel","add_prefix_space":true,"trim_offsets":true},"model":{"dropout":null,"unk_token":null,"continuing_subword_prefix":null,"end_of_word_suffix":null,"fuse_unk":false,"vocab":{"<s>":0,"<pad>":1,"</s>":2,"<unk>":3,"<mask>":4,"<dedent>":5,"<encdom>":6,"<endmarker>":7,"<indent>":8,"<newline>":9,"▁":10,"<spacetoken>":11,"<strnewline>":12,"<tabsymbol>":13,"!":14,"\"":15,"#":16,"$":17,"%":18,"&":19,"'":20,"(":21,")":22,"*":23,"+":24,",":25,"-":26,".":27,"/":28,"0":29,"1":30,"2":31,"3":32,"4":33,"5":34,"6":35,"7":36,"8":37,"9":38,":":39,";":40,"<":41,"=":42,">":43,"?":44,"@":45,"A":46,"B":47,"C":48,"D":49,"E":50,"F":51,"G":52,"H":53,"I":54,"J":55,"K":56,"L":57,"M":58,"N":59,"O":60,"P":61,"Q":62,"R":63,"S":64,"T":65,"U":66,"V":67,"W":68,"X":69,"Y":70,"Z":71,"[":72,"\\":73,"]":74,"^":75,"_":76,"`":77,"a":78,"b":79,"c":80,"d":81,"e":82,"f":83,"g":84,"h":85,"i":86,"j":87,"k":88,"l":89,"m":90,"n":91,"o":92,"p":93,"q":94,"r":95,"s":96,"t":97,"u":98,"v":99,"w":100,"x":101,"y":102,"z":103,"{":104,"|":105,"}":106,"~":107,"¡":108,"¢":109,"£":110,"¤":111,"¥":112,"¦":113,"§":114,"¨":115,"©":116,"ª":117,"«":118,"¬":119,"®":120,"¯":121,"°":122,"±":123,"²":124,"³":125,"´":126,"µ":127,"¶":128,"·":129,"¸":130,"¹":131,"º":132,"»":133,"¼":134,"½":135,"¾":136,"¿":137,"À":138,"Á":139,"Â":140,"Ã":141,"Ä":142,"Å":143,"Æ":144,"Ç":145,"È":146,"É":147,"Ê":148,"Ë":149,"Ì":150,"Í":151,"Î":152,"Ï":153,"Ð":154,"Ñ":155,"Ò":156,"Ó":157,"Ô":158,"Õ":159,"Ö":160,"×":161,"Ø":162,"Ù":163,"Ú":164,"Û":165,"Ü":166,"Ý":167,"Þ":168,"ß":169,"à":170,"á":171,"â":172,"ã":173,"ä":174,"å":175,"æ":176,"ç":177,"è":178,"é":179,"ê":180,"ë":181,"ì":182,"í":183,"î":184,"ï":185,"ð":186,"ñ":187,"ò":188,"ó":189,"ô":190,"õ":191,"ö":192,"÷":193,"ø":194,"ù":195,"ú":196,"û":197,"ü":198,"ý":199,"þ":200,"ÿ":201,"Ā":202,"ā":203,"Ă":204,"ă":205,"Ą":206,"ą":207,"Ć":208,"ć":209,"Ĉ":210,"ĉ":211,"Ċ":212,"ċ":213,"Č":214,"č":215,"Ď":216,"ď":217,"Đ":218,"đ":219,"Ē":220,"ē":221,"Ĕ":222,"ĕ":223,"Ė":224,"ė":225,"Ę":226,"ę":227,"Ě":228,"ě":229,"Ĝ":230,"ĝ":231,"Ğ":232,"ğ":233,"Ġ":234,"ġ":235,"Ģ":236,"ģ":237,"Ĥ":238,"ĥ":239,"Ħ":240,"ħ":241,"Ĩ":242,"ĩ":243,"Ī":244,"ī":245,"Ĭ":246,"ĭ":247,"Į":248,"į":249,"İ":250,"ı":251,"Ĳ":252,"ĳ":253,"Ĵ":254,"ĵ":255,"Ķ":256,"ķ":257,"ĸ":258,"Ĺ":259,"ĺ":260,"Ļ":261,"ļ":262,"Ľ":263,"ľ":264,"Ŀ":265,"ŀ":266,"Ł":267,"ł":268,"Ń":269,"Ġâ":270,"ĸģ":271,"Ġâĸģ":272,"ne":273,"Ġ<":274,"Ġ,":275,"li":276,"line":277,"new":278,"newline":279,"de":280,"nt":281,"Ġ(":282,"Ġ)":283,"in":284,"Ġ.":285,"se":286,"st":287,"dent":288,"Ġ0":289,"re":290,"Ġ=":291,"or":292,"at":293,"en":294,"Ġt":295,"Ġp":296,"Ġa":297,"Ġse":298,"Ġ:":299,"Ġc":300,"on":301,"om":302,"Ġf":303,"Ġi":304,"er":305,"str":306,"indent":307,"dedent":308,"lf":309,"Ġself":310,"le":311,"me":312,"Ġ'":313,"strnewline":314,"Ġ\"":315,"Ġ#":316,"ar":317,"Ġ[":318,"Ġ]":319,"he":320,"Ġ2":321,"Ġw":322,"Ġre":323,"enc":324,"al":325,"dom":326,"ion":327,"encdom":328,"ic":329,"Ġn":330,"it":331,"ur":332,"Ġde":333,"et":334,"mp":335,"Ġo":336,"ame":337,"ct":338,"Ġs":339,"Ġ1":340,"Ġe":341,"Ġd":342,"Ġin":343,"ut":344,"an":345,"Ġthe":346,"Ġ3":347,"ss":348,"Ġb":349,"ot":350,"Ġk":351,"Ġdef":352,"Ġl":353,"ce":354,"Ġm":355,"ed":356,"ing":357,"Ġg":358,"ra":359,"Ġan":360,"Ġif":361,"pe":362,"Ġ\"\"":363,"il":364,"Ġ_":365,"Ġ\"\"\"":366,"Ġu":367,"ate":368,"urn":369,"ort":370,"ro":371,"ser":372,"ĠC":373,"Ġfor":374,"Ġimp":375,"Ġret":376,"la":377,"ĠT":378,"ue":379,"Ġ+":380,"Ġreturn":381,"ri":382,"fi":383,"ho":384,"Ġimport":385,"Ġand":386,"ĠN":387,"ĠA":388,"oc":389,"id":390,"xt":391,"Ġis":392,"Ġ-":393,"rom":394,"pt":395,"Ġof":396,"ĠG":397,"Ġas":398,"ĠS":399,"is":400,"Ġget":401,"Ġto":402,"ĠP":403,"Ġfrom":404,"est":405,"ol":406,"ĠF":407,"ge":408,"Ġv":409,"ype":410,"ode":411,"ul":412,"Ġname":413,"Ġnot":414,"Ġr":415,"name":416,"ation":417,"ice":418,"Ġfi":419,"lo":420,"ers":421,"der":422,"ac":423,"te":424,"ment":425,"ve":426,"ĠL":427,"one":428,"qu":429,"Ġ25":430,"art":431,"ĠI":432,"pp":433,"ata":434,"gs":435,"ĠR":436,"ect":437,"un":438,"od":439,"bj":440,"ch":441,"ad":442,"ure":443,"ble":444,"Ġh":445,"ith":446,"vice":447,"lic":448,"Ġst":449,"sert":450,"Ġth":451,"__":452,"ule":453,"Ġex":454,"up":455,"ase":456,"ont":457,"Ġ==":458,"if":459,"Ġcon":460,"lass":461,"ist":462,"Ġor":463,"ĠNone":464,"ense":465,"el":466,"Ġassert":467,"Ġres":468,"Ġ__":469,"ml":470,"bject":471,"as":472,"ail":473,"th":474,"ath":475,"met":476,"ption":477,"am":478,"es":479,"qual":480,"ror":481,"Equal":482,"ht":483,"type":484,"Ġ*":485,"Ġbe":486,"ĠD":487,"ĠO":488,"ult":489,"fo":490,"alue":491,"les":492,"gin":493,"Ġ%":494,"ey":495,"Name":496,"fig":497,"uid":498,"ner":499,"Ġma":500,"rit":501,"Ġâĸģ\"":502,"Ġli":503,"pi":504,"ĠM":505,"Ġfile":506,"act":507,"Ġpro":508,"ext":509,"Ġclass":510,"get":511,"Ġ{":512,"are":513,"ub":514,"Ġtest":515,"sc":516,"ĠV":517,"icense":518,"but":519,"rot":520,"red":521,"ature":522,"Ġlen":523,"lu":524,"si":525,"ter":526,"Ġar":527,"ersion":528,"ĠE":529,"ou":530,"Ġj":531,"reate":532,"Ġal":533,"Ġset":534,"Ġpart":535,"and":536,"Ġch":537,"ime":538,"op":539,"Ġwith":540,"ver":541,"Ġcom":542,"Ġobject":543,"Ġstr":544,"ens":545,"ĠLicense":546,"ry":547,"com":548,"po":549,"Ġline":550,"Ġapp":551,"Ġuser":552,"ise":553,"able":554,"Ġ}":555,"Ġun":556,"age":557,"rue":558,"Ġ@":559,"Ġz":560,"ory":561,"end":562,"em":563,"Ġy":564,"Vt":565,"ĠpVt":566,"Ġdata":567,"ER":568,"Ġra":569,"Ġdi":570,"odule":571,"og":572,"wor":573,"ĠW":574,"ange":575,"Ġ255":576,"ip":577,"ict":578,"put":579,"args":580,"Un":581,"ssion":582,"Prot":583,"Ġpo":584,"Ġel":585,"ock":586,"gra":587,"Ġpar":588,"ke":589,"Ġon":590,"Ġat":591,"hod":592,"ĠGuid":593,"lugin":594,"orm":595,"Ġpri":596,"Ġcont":597,"Ġby":598,"AR":599,"LE":600,"method":601,"rite":602,"ir":603,"ent":604,"low":605,"Ġelse":606,"ON":607,"rror":608,"ĠX":609,"int":610,"ls":611,"per":612,"file":613,"stri":614,"Ġthis":615,"Ġpartic":616,"List":617,"our":618,"ĠB":619,"ocol":620,"Ġ253":621,"Ġexce":622,"gn":623,"ly":624,"Ġser":625,"Ġext":626,"util":627,"vor":628,"Ġpre":629,"lavor":630,"TI":631,"ass":632,"less":633,"eld":634,"Ppi":635,"wargs":636,"Protocol":637,"ow":638,"Ġparticles":639,"IN":640,"Ġfail":641,"tr":642,"Ġform":643,"ĠGuidProtocol":644,"ĠGuidProtocolPpi":645,"um":646,"ang":647,"ensor":648,"Ġprint":649,"ali":650,"ĠTrue":651,"Ġvalue":652,"Unless":653,"tt":654,"ction":655,"ack":656,"of":657,"Ġsi":658,"Ġit":659,"ity":660,"cted":661,"Error":662,"Ġthat":663,"eature":664,"Ġâĸģ'":665,"alse":666,"Ġkwargs":667,"pec":668,"roup":669,"SE":670,"que":671,"Ġ''":672,"uth":673,"cess":674,"Ġlog":675,"Ġraise":676,"grad":677,"00":678,"amp":679,"ran":680,"ty":681,"Ġint":682,"Ġuse":683,"Ġconfig":684,"form":685,"pro":686,"IT":687,"ance":688,"stribut":689,"ain":690,"uf":691,"ervice":692,"ific":693,"ĠassertEqual":694,"Ġextra":695,"ĠfailUnless":696,"):":697,"Ġsy":698,"ource":699,"ES":700,"Ġkey":701,"ill":702,"data":703,"info":704,"res":705,"ĠGet":706,"Ġ4":707,"Ġx":708,"init":709,"Ġtype":710,"actory":711,"ĠfailUnlessEqual":712,"ap":713,"all":714,"IS":715,"Ġ5":716,"Ġ\\":717,"Ġ10":718,"ener":719,"pen":720,"Ġne":721,"Ġcreate":722,"opy":723,"Ġmethod":724,"Ġcase":725,"eturn":726,"len":727,"lif":728,"OR":729,"his":730,"ree":731,"Ġtime":732,"Ġad":733,"onfig":734,"Ġelif":735,"Ġmode":736,"Ġservice":737,"late":738,"rst":739,"tw":740,"Ġwrite":741,"html":742,"ab":743,"iv":744,"ze":745,"ĠQ":746,"tem":747,"--":748,"par":749,"ument":750,"01":751,"ag":752,"ave":753,"pre":754,"Ġpy":755,"ings":756,"Ġversion":757,"Ġall":758,"ine":759,"ray":760,"uld":761,"Ġfirst":762,"RU":763,"cont":764,"Ġ!":765,"Ġhe":766,"list":767,"error":768,"ache":769,"Ġstart":770,"ck":771,"oin":772,"ump":773,"Ġresult":774,"Ġargs":775,"UT":776,"ay":777,"im":778,"rc":779,"stance":780,"url":781,"ĠThis":782,"ĠFalse":783,"utils":784,"//":785,"ght":786,"md":787,"mit":788,"ww":789,"Ġho":790,"lement":791,"Ġrun":792,"char":793,"licy":794,"ial":795,"ive":796,"version":797,"ated":798,"Ġare":799,"Ġcan":800,"Ġwh":801,"word":802,"quest":803,"RULE":804,"://":805,"ant":806,"ok":807,"env":808,"Ġac":809,"ĠThe":810,"Ġappend":811,"Ġunder":812,"own":813,"Ġextracted":814,"ile":815,"ĠU":816,"Ġwe":817,"Ġno":818,"ribut":819,"hould":820,"ĠIn":821,"Ġlist":822,"rypt":823,"AN":824,"EC":825,"ore":826,"us":827,"ĠH":828,"heck":829,"Ġout":830,"Ġmodule":831,"Ġjoin":832,"Ġexcept":833,"oftw":834,"oftware":835,"Re":836,"son":837,"yn":838,"Ġ6":839,"Ġme":840,"stem":841,"Ġpath":842,"erm":843,"Ġdict":844,"Ġrange":845,".\"":846,"AT":847,"cur":848,"Ġcls":849,"scri":850,"work":851,"gnature":852,"==":853,"Service":854,"Ġfin":855,"Ġos":856,"Ġlz":857,"Ġ**":858,"ublic":859,"Ġobjects":860,"ader":861,"fer":862,"ield":863,"Ġflavor":864,"ĠReturn":865,"und":866,"ify":867,"andl":868,"In":869,"LI":870,"ault":871,"fe":872,"mplate":873,"Ġesc":874,"olle":875,"thon":876,"EN":877,"Key":878,"test":879,"like":880,"Ġpass":881,"Ġsession":882,"ari":883,"scription":884,"sg":885,"Ġplugin":886,"Ġany":887,"andler":888,"MA":889,"bc":890,"module":891,"Ġtry":892,"ition":893,"Ġshould":894,"ĠCom":895,"ĠTest":896,"ount":897,"Ġformat":898,"jang":899,"Ġtensor":900,"Ġwill":901,"jango":902,"ace":903,"her":904,"Ġ`":905,"ĠSe":906,"rypto":907,"DI":908,"di":909,"ning":910,"pla":911,"Ġ>":912,"Ġenv":913,"ord":914,"Ġgroup":915,"oding":916,"Ġadd":917,"CH":918,"buf":919,"create":920,"ep":921,"ew":922,"plugin":923,"Ġnew":924,"Ġerror":925,"ary":926,"Ġmsg":927,"Factory":928,"rent":929,"Ġtext":930,"array":931,"right":932,"Ġbyte":933,"SS":934,"date":935,"uct":936,"Ġarg":937,"Ġyou":938,"De":939,"TR":940,"Ġ8":941,"Ġnump":942,"point":943,"ide":944,"lat":945,"ust":946,"Ġ9":947,"attr":948,"Ġsp":949,"Ġspec":950,"arent":951,"Ġcontext":952,"Ġnumpy":953,"Xml":954,"ng":955,"ound":956,"py":957,"dex":958,"Ġfeature":959,"Ġread":960,"Ġnode":961,"Ġdoc":962,"fix":963,"acl":964,"adata":965,"Ġmay":966,"Ġchar":967,"Ġ!=":968,"AL":969,"cmd":970,"nal":971,"Ġ16":972,"Ġmap":973,"Ġoutput":974,"Ġesccmd":975,"To":976,"Test":977,"ax":978,"min":979,"pon":980,"Ġdjango":981,"Ġbase":982,"ĠGener":983,"Ġstate":984,"Ġatt":985,"Ġro":986,"Ġurl":987,"set":988,"ert":989,"Ġ201":990,"Ġkf":991,"Ġhas":992,"ther":993,"Ġdistribut":994,"Ġexception":995,"NU":996,"ha":997,"with":998,"xce":999,"Ġcur":1000,"arget":1001,"Ġobj":1002,"Ġ12":1003,"Ġdefault":1004,"ĠAN":1005,"ĠAr":1006,"ĠSet":1007,"sible":1008,"ttp":1009,"Ad":1010,"mon":1011,"rule":1012,"rect":1013,"Ġpat":1014,"Ġsc":1015,"Ġmat":1016,"text":1017,"ĠIf":1018,"Ġpolicy":1019,"TION":1020,"ger":1021,"path":1022,"ug":1023,"Ġ7":1024,"lient":1025,"instance":1026,"Ġclo":1027,"Ġdo":1028,"ssage":1029,"metadata":1030,"ams":1031,"vert":1032,"ariable":1033,"PI":1034,"UR":1035,"imp":1036,"json":1037,"Ġenc":1038,"ded":1039,"Ġcopy":1040,"Ġ32":1041,"Ġup":1042,"ĠGNU":1043,"ĠPublic":1044,"Ġlimit":1045,"umb":1046,"Ġsystem":1047,"ĠReturns":1048,"ĠGeneral":1049,"12":1050,"AS":1051,"api":1052,"bin":1053,"con":1054,"count":1055,"pu":1056,"ator":1057,"Ġtmp":1058,"uture":1059,"ilter":1060,"odel":1061,"Ġchange":1062,"alid":1063,"uthor":1064,"gnatures":1065,"xception":1066,"Ġclose":1067,"Hel":1068,"ME":1069,"Not":1070,"ai":1071,"app":1072,"bo":1073,"br":1074,"har":1075,"mand":1076,"ph":1077,"ters":1078,"Ġle":1079,"read":1080,"Ġparent":1081,"Ġcall":1082,"ĠCopy":1083,"qui":1084,"ĠRe":1085,"unc":1086,"Ġhttp":1087,"ĠOR":1088,"Ġcomp":1089,"Ġpost":1090,"ribute":1091,"Ġdistributed":1092,"HO":1093,"ast":1094,"dir":1095,"gist":1096,"ll":1097,"use":1098,"user":1099,"den":1100,"ati":1101,"Ġte":1102,"Ġtarget":1103,"Ġ'%":1104,"Ġsub":1105,"Ġdtype":1106,"Ġbran":1107,"Ġifp":1108,"ild":1109,"ĠCON":1110,"idget":1111,"Ġofp":1112,"ations":1113,"Ġfield":1114,"log":1115,"ners":1116,"Ġcomment":1117,"Ġstring":1118,"ipher":1119,"Ġinter":1120,"Field":1121,"ies":1122,"tp":1123,"tings":1124,"sent":1125,"ics":1126,"uration":1127,"Ġdec":1128,"pect":1129,"Ġparams":1130,"Ġmodels":1131,"ponse":1132,"Ġcurrent":1133,"umber":1134,"AB":1135,"Text":1136,"group":1137,"val":1138,"ren":1139,"Ġct":1140,"Ġid":1141,"Ġitem":1142,"Ġso":1143,"Ġdat":1144,"Ġ--":1145,"Ġhave":1146,"http":1147,"ĠOpen":1148,"reds":1149,"ension":1150,"Ġhost":1151,"Ġaccess":1152,"Ġjoinpoint":1153,"curity":1154,"Ġspecific":1155,"..":1156,"Config":1157,"ML":1158,"base":1159,"da":1160,"os":1161,"ĠKey":1162,"Ġcre":1163,"Ġother":1164,"Ġsource":1165,"ates":1166,"license":1167,"ash":1168,"ĠfileName":1169,"tern":1170,"Ġsignatures":1171,"ample":1172,"Ġpython":1173,"www":1174,"place":1175,"Ġcharact":1176,"hape":1177,"ainers":1178,"OT":1179,"RE":1180,"You":1181,"by":1182,"ex":1183,"mb":1184,"va":1185,"}\"":1186,"Ġutils":1187,"Ġtag":1188,"etime":1189,"Ġsoftware":1190,"Ġbin":1191,"Ġlo":1192,"Ġlock":1193,"Ġimplement":1194,"ither":1195,"ĠDEC":1196,"size":1197,"Ġallow":1198,"ynam":1199,"ĠANY":1200,"ĠCopyright":1201,"Ġbranch":1202,"Ġdatetime":1203,").":1204,"22":1205,"RAN":1206,"bda":1207,"che":1208,"flavor":1209,"gth":1210,"out":1211,"qx":1212,"org":1213,"Ġterm":1214,"Ġrequest":1215,"Ġeither":1216,"Ġdate":1217,"Ġdis":1218,"Ġlam":1219,"Ġ+=":1220,"ĠNot":1221,"lication":1222,"ĠWAR":1223,"iron":1224,"ĠXml":1225,"ĠXML":1226,"ollect":1227,"Ġlambda":1228,"AX":1229,"Ar":1230,"GE":1231,"HE":1232,"TY":1233,"Value":1234,"back":1235,"cre":1236,"doc":1237,"ili":1238,"object":1239,"we":1240,"Ġcal":1241,"Ġcheck":1242,"Ġoption":1243,"Ġopen":1244,"rapp":1245,"hoice":1246,"ĠAn":1247,"ĠPl":1248,"ails":1249,"ĠOF":1250,"pos":1251,"Ġonly":1252,"containers":1253,"Ġfinder":1254,"ews":1255,"SSL":1256,"Ġencoding":1257,"ĠWARRAN":1258,"DER":1259,"ak":1260,"config":1261,"cache":1262,"cord":1263,"key":1264,"spec":1265,"twork":1266,"ved":1267,"ĠJ":1268,"ĠYou":1269,"Ġco":1270,"ong":1271,"arch":1272,"Ġrequi":1273,"itho":1274,"Ġdot":1275,"Ġinit":1276,"Ġbut":1277,"Ġdim":1278,"perty":1279,"stribution":1280,"Ġresults":1281,"ĠSee":1282,"import":1283,"ithout":1284,"Sup":1285,"bal":1286,"ci":1287,"ual":1288,"Ġwithout":1289,"mpty":1290,"Ġisinstance":1291,"ĠSt":1292,"unction":1293,"comp":1294,"ĠWIT":1295,"Ġparse":1296,"assword":1297,"tring":1298,"rans":1299,"result":1300,"Ġmodel":1301,"Ġheader":1302,"imal":1303,"latform":1304,"Ġspli":1305,"Helper":1306,"ĠOpenSSL":1307,"Crypto":1308,"Id":1309,"OM":1310,"Se":1311,"UL":1312,"ale":1313,"code":1314,"dition":1315,"vo":1316,"yp":1317,"ned":1318,"lib":1319,"Ġwar":1320,"Ġindex":1321,"ach":1322,"ĠRule":1323,"ĠDe":1324,"Ġchild":1325,"Ġzl":1326,"Ġdocument":1327,"Ġsplit":1328,"ĠOpenSSLCrypto":1329,"ID":1330,"cf":1331,"future":1332,"pk":1333,"sy":1334,"value":1335,"def":1336,"inax":1337,"session":1338,"Ġfe":1339,"ark":1340,"ick":1341,"Ġdescription":1342,"Ġsu":1343,"Ġinfo":1344,"Ġmath":1345,"Ġgra":1346,"Ġgiv":1347,"rib":1348,"gener":1349,"template":1350,"Ġexc":1351,"Ġforms":1352,"ĠCommon":1353,"ĠArgs":1354,"rectory":1355,"Arch":1356,"cfb":1357,"':":1358,"Com":1359,"Case":1360,"TAB":1361,"aes":1362,"creds":1363,"gre":1364,"nder":1365,"to":1366,"Ġq":1367,"lied":1368,"ome":1369,"arg":1370,"Ġrender":1371,"Ġdet":1372,"Ġinst":1373,"Ġinstance":1374,"Ġloc":1375,"Ġmust":1376,"files":1377,"ull":1378,"loat":1379,"ĠIN":1380,"foo":1381,"aling":1382,"Ġused":1383,"param":1384,"ollection":1385,"Ġenviron":1386,"buffer":1387,"Ġpattern":1388,"HOUT":1389,"gister":1390,"Ġctxt":1391,"ility":1392,"Ġrequired":1393,"ĠWITHOUT":1394,"ArchList":1395,"\"'":1396,"File":1397,"IP":1398,"Is":1399,"LA":1400,"class":1401,"igin":1402,"loc":1403,"nown":1404,"pinax":1405,"swith":1406,"Ġend":1407,"ind":1408,"ream":1409,"ename":1410,"Ġcpu":1411,"Ġ'/":1412,"Ġ\".":1413,"Ġwrit":1414,"Ġwrapp":1415,"Ġ11":1416,"Ġ19":1417,"Ġmore":1418,"lag":1419,"Ġ---":1420,"ĠPo":1421,"erson":1422,"quenc":1423,"ĠItem":1424,"iff":1425,"Ġorigin":1426,"Ġprefix":1427,"SEL":1428,"ertific":1429,"licenses":1430,"Ġdetails":1431,"400":1432,"Set":1433,"Type":1434,"Tensor":1435,"User":1436,"flow":1437,"ifi":1438,"not":1439,"oot":1440,"pare":1441,"pText":1442,"sing":1443,"ting":1444,"time":1445,"ys":1446,"nes":1447,"ref":1448,"Ġtree":1449,"Ġplatform":1450,"Ġcode":1451,"Ġcipher":1452,"Ġfn":1453,"Ġfol":1454,"err":1455,"hed":1456,"Ġui":1457,"Ġimplied":1458,"temp":1459,"ĠIS":1460,"ĠInt":1461,"vices":1462,"stripe":1463,"ĠBase":1464,"ttribute":1465,"ackage":1466,"present":1467,"brary":1468,"rence":1469,"ches":1470,"position":1471,"822":1472,"Di":1473,"Handler":1474,"IL":1475,"Si":1476,"Widget":1477,"bab":1478,"fil":1479,"face":1480,"hash":1481,"man":1482,"opt":1483,"over":1484,"obuf":1485,"rame":1486,"ted":1487,"ĠK":1488,"Ġtra":1489,"Ġtrans":1490,"Ġauth":1491,"Ġcle":1492,"Ġrece":1493,"item":1494,"ameters":1495,"Ġinput":1496,"Ġbuf":1497,"ĠSAX":1498,"old":1499,"change":1500,"uple":1501,"Ġrespect":1502,"ather":1503,"Ġparser":1504,"Ġprepare":1505,"Ġsys":1506,"ESS":1507,"ference":1508,"Ġtemplate":1509,"Ġgiven":1510,"generation":1511,"Ġ-----":1512,"'t":1513,".'":1514,"DAT":1515,"Ex":1516,"Feature":1517,"Guid":1518,"Of":1519,"``":1520,"duct":1521,"from":1522,"iz":1523,"nk":1524,"ps":1525,"ric":1526,"zy":1527,"lis":1528,"stamp":1529,"req":1530,"order":1531,"Ġcmd":1532,"Ġfound":1533,"ich":1534,"ute":1535,"Ġbar":1536,"otal":1537,"ingle":1538,"ĠCon":1539,"host":1540,"ĠSoftware":1541,"olve":1542,"Ġrule":1543,"vel":1544,"Ġorder":1545,"Ġprofile":1546,"Ġprocess":1547,"TIES":1548,"formation":1549,"ITY":1550,"ĠQgs":1551,"Ġhere":1552,"Ġnova":1553,"usr":1554,"Ġmeas":1555,"bcrypto":1556,"Ġfeatures":1557,"Ġmapx":1558,"Advice":1559,"Ġupdate":1560,"atible":1561,"40":1562,"CK":1563,"CT":1564,"CName":1565,"CEN":1566,"Form":1567,"False":1568,"PO":1569,"RO":1570,"St":1571,"True":1572,"aise":1573,"dict":1574,"dynam":1575,"freq":1576,"gu":1577,"lock":1578,"ove":1579,"ĠUn":1580,"Ġper":1581,"omet":1582,"Ġident":1583,"string":1584,"Ġregister":1585,"Ġnum":1586,"Ġsh":1587,"Ġsup":1588,"cent":1589,"fines":1590,"idth":1591,"Ġnamed":1592,"Ġrd":1593,"Ġ252":1594,"add":1595,"Ġstep":1596,"ĠassertFalse":1597,"ason":1598,"Ġmain":1599,"Ġusers":1600,"gram":1601,"probab":1602,"Ġnetwork":1603,"content":1604,"Ġwhile":1605,"Ġwhich":1606,"Ġtensorflow":1607,"Defines":1608,"ĠcontextHelper":1609,"Ġcreated":1610,"Ġinitial":1611,"Ġdimension":1612,"ĠCommonDefines":1613,"argument":1614,"Ġfollow":1615,"CENSE":1616,"Ġsuper":1617,"probability":1618,"*-":1619,"AME":1620,"Char":1621,"Or":1622,"Pro":1623,"SI":1624,"String":1625,"bs":1626,"diff":1627,"ize":1628,"main":1629,"no":1630,"src":1631,"td":1632,"vis":1633,"wer":1634,"write":1635,"reak":1636,"Ġprot":1637,"Ġwidth":1638,"Ġreason":1639,"allow":1640,"utf":1641,"Ġbod":1642,"Ġbreak":1643,"Ġlp":1644,"Ġlast":1645,"rim":1646,"ĠAs":1647,"Ġ-*-":1648,"ĠPro":1649,"ĠPerson":1650,"ĠFound":1651,"Ġvar":1652,"names":1653,"Ġhandler":1654,"Ġconform":1655,"Ġconvert":1656,"metric":1657,"Ġmake":1658,"Ġâĸģ\"%":1659,"Ġlibcrypto":1660,"ĠValue":1661,"ĠError":1662,"Ġlines":1663,"Ġunit":1664,"Ġyour":1665,"Ġcontent":1666,"Ġserver":1667,"response":1668,"Ġstartswith":1669,"ync":1670,"Ġmessage":1671,"Ġ``":1672,"uthority":1673,"used":1674,"OTE":1675,"SupArchList":1676,"ertificate":1677,"ysis":1678,"ĠQgsA":1679,"dynamics":1680,"Anal":1681,"DE":1682,"ED":1683,"IB":1684,"Return":1685,"ST":1686,"TH":1687,"XX":1688,"be":1689,"bran":1690,"ca":1691,"day":1692,"eg":1693,"ff":1694,"ging":1695,"hing":1696,"ja":1697,"mail":1698,"number":1699,"oke":1700,"pb":1701,"ron":1702,"table":1703,"uage":1704,"vide":1705,"Ġcor":1706,"lete":1707,"Ġword":1708,"Ġrepresent":1709,"Ġsock":1710,"Ġsingle":1711,"Ġinformation":1712,"Ġmod":1713,"ĠAll":1714,"vent":1715,"ĠLO":1716,"ĠassertTrue":1717,"ĠDO":1718,"ĠModel":1719,"Ġproperty":1720,"sired":1721,"ĠException":1722,"Ġcomposition":1723,"pose":1724,"ERN":1725,"Ġdirectory":1726,"ĠXen":1727,"Ġlogger":1728,"Ġconfiguration":1729,"parse":1730,"Ġ!/":1731,"Info":1732,"Ġtensors":1733,"attrs":1734,"python":1735,"Ġ2017":1736,"Ġmatch":1737,"stributionAnal":1738,"ditions":1739,"DistributionAnal":1740,"ILITY":1741,"vision":1742,"ĠFoundation":1743,"Ġsocket":1744,"DistributionAnalysis":1745,"\")":1746,"19":1747,"API":1748,"FI":1749,"For":1750,"Flag":1751,"KE":1752,"SG":1753,"bug":1754,"gment":1755,"iew":1756,"ores":1757,"password":1758,"var":1759,"valid":1760,"inja":1761,"ress":1762,"Ġsee":1763,"Ġclient":1764,"Ġfull":1765,"ard":1766,"arser":1767,"Ġreplace":1768,"ical":1769,"icode":1770,"Ġdevice":1771,"Ġdebug":1772,"etwork":1773,"Ġthere":1774,"Ġlat":1775,"Ġmark":1776,"Ġug":1777,"ĠChar":1778,"ĠTensor":1779,"ĠAttribute":1780,"ĠFactory":1781,"ĠFOR":1782,"Ġrlen":1783,"ontent":1784,"Ġprogram":1785,"ĠVariable":1786,"ĠEU":1787,"Ġstruct":1788,"comment":1789,"Ġraw":1790,"ĠWe":1791,"ĠWrite":1792,"ocker":1793,"anged":1794,"anguage":1795,"Ġlogging":1796,"amples":1797,"ĠGetString":1798,"length":1799,"Ġservices":1800,"ays":1801,"ENT":1802,"CHAR":1803,"lativ":1804,"Ġroot":1805,"Ġscaling":1806,"cond":1807,"Ġload":1808,"Ġimplemented":1809,"Ġallowed":1810,"ĠAnsible":1811,"ĠWARRANTIES":1812,"cording":1813,"Settings":1814,"Signature":1815,"Ġtrace":1816,"items":1817,"OfList":1818,"ĠQgsAuth":1819,"branches":1820,"ĠGetStringOfList":1821,"',":1822,"ATI":1823,"EX":1824,"En":1825,"IO":1826,"Network":1827,"Sy":1828,"STR":1829,"crc":1830,"fter":1831,"ission":1832,"ique":1833,"ns":1834,"pace":1835,"sub":1836,"sage":1837,"the":1838,"ven":1839,"wise":1840,"xn":1841,"Ġutil":1842,"states":1843,"ative":1844,"Ġpub":1845,"Ġperm":1846,"Ġax":1847,"Ġabs":1848,"Ġsecond":1849,"Ġfil":1850,"Ġiter":1851,"Ġshape":1852,"Ġ15":1853,"Ġdump":1854,"utine":1855,"Ġla":1856,"Ġlparam":1857,"Ġlanguage":1858,"ĠCO":1859,"lable":1860,"ĠType":1861,"ĠFree":1862,"lobal":1863,"ĠLI":1864,"artic":1865,"redict":1866,"Ġsettings":1867,"ops":1868,"Ġapplication":1869,"Ġusername":1870,"aliz":1871,"Ġvalues":1872,"Ġsix":1873,"ĠInput":1874,"MAIN":1875,"DID":1876,"Ġerrors":1877,"Ġcharacter":1878,"Ġcharacters":1879,"mbol":1880,"quence":1881,"Ġbody":1882,"Ġrepresentation":1883,"Ġmodify":1884,"ĠDOMAIN":1885,"SettingsWidget":1886,"201":1887,"GR":1888,"PE":1889,"SC":1890,"TO":1891,"cap":1892,"fn":1893,"ject":1894,"pache":1895,"tra":1896,"uz":1897,"vm":1898,"},":1899,"sett":1900,"stant":1901,"atch":1902,"atus":1903,"Ġpl":1904,"Ġcrc":1905,"Ġfinfo":1906,"Ġfilter":1907,"strip":1908,"led":1909,"Ġ24":1910,"domain":1911,"itor":1912,"Ġop":1913,"Ġeach":1914,"Ġdlen":1915,"Ġknown":1916,"Ġlab":1917,"ĠCN":1918,"ĠCreate":1919,"ĠTHE":1920,"ĠNode":1921,"ĠNews":1922,"Ġvariable":1923,"Ġvalid":1924,"acity":1925,"tes":1926,"pport":1927,"admin":1928,"Ġstream":1929,"types":1930,"fore":1931,"ĠMet":1932,"ĠEV":1933,"emath":1934,"ARTI":1935,"percent":1936,"ification":1937,"Ġneed":1938,"Ġwhen":1939,"====":1940,"Ġflavorid":1941,"Ġ>=":1942,"plugins":1943,"TRIB":1944,"Ġattrib":1945,"username":1946,"ĠCONF":1947,"Ġinterface":1948,"Ġitems":1949,"Ġterms":1950,"cii":1951,"results":1952,"oldown":1953,"aises":1954,"ĠAssert":1955,"ĠconformTo":1956,"ĠValueError":1957,"ĠLOG":1958,"ĠXenAPI":1959,"Ġlater":1960,"ĠQgsAuthSettingsWidget":1961,"uzzy":1962,"Ġlabel":1963,"),":1964,"56":1965,"GS":1966,"Item":1967,"Node":1968,"NESS":1969,"Raises":1970,"ags":1971,"cimal":1972,"eded":1973,"ight":1974,"ood":1975,"port":1976,"sv":1977,"source":1978,"uuid":1979,"xp":1980,"}.":1981,"next":1982,"Ġ...":1983,"security":1984,"ret":1985,"enapi":1986,"Ġafter":1987,"Ġsecurity":1988,"Ġcoding":1989,"Ġchoice":1990,"Ġcollection":1991,"Ġfro":1992,"Ġfunc":1993,"Ġframe":1994,"eros":1995,"its":1996,"Ġdesired":1997,"Ġeven":1998,"Ġgather":1999,"ĠTO":2000,"ĠFeature":2001,"ĠFIT":2002,"ĠFuzzy":2003,"ĠLi":2004,"onent":2005,"unk":2006,"Ġexist":2007,"elpText":2008,"Ġbefore":2009,"ĠDict":2010,"rity":2011,"ĠMan":2012,"ĠMode":2013,"ĠMER":2014,"Ġproce":2015,"sive":2016,"Ġjinja":2017,"Ġalong":2018,"Ġstroke":2019,"Ġcontain":2020,"Ġpreference":2021,"INE":2022,"Ġkeys":2023,"IService":2024,"ANTAB":2025,"ĠHelpText":2026,"Ġfind":2027,"ferred":2028,"ĠSequence":2029,"DIR":2030,"CHANTAB":2031,"Ġargument":2032,"Ġattribut":2033,"Ġdoes":2034,"deny":2035,"Ġtermin":2036,"ollectd":2037,"compatible":2038,"void":2039,"tempt":2040,"egrity":2041,"subscription":2042,"Ġpublis":2043,"Ġpermission":2044,"article":2045,"ĠNodeList":2046,"ARTIC":2047,"ĠFITNESS":2048,"ĠMERCHANTAB":2049,"ĠMERCHANTABILITY":2050,"('":2051,"As":2052,"CER":2053,"Content":2054,"Source":2055,"Some":2056,"_'":2057,"cal":2058,"essage":2059,"fact":2060,"handler":2061,"hqx":2062,"my":2063,"ole":2064,"vi":2065,"nection":2066,"Ġtotal":2067,"Ġfree":2068,"Ġfunction":2069,"strap":2070,"arning":2071,"Ġwidget":2072,"Ġwtd":2073,"Ġnon":2074,"Ġden":2075,"Ġsa":2076,"Ġsort":2077,"Ġevent":2078,"Ġgover":2079,"pected":2080,"ĠApache":2081,"ĠPUR":2082,"ĠPARTIC":2083,"Ġhqx":2084,"iffe":2085,"Ġconstant":2086,"isted":2087,"Ġresponse":2088,"Ġresolve":2089,"ask":2090,"ascii":2091,"ultip":2092,"Ġmax":2093,"Ġlink":2094,"Ġproduct":2095,"Ġclassmethod":2096,"Ġarray":2097,"Ġjson":2098,"Ġcommand":2099,"Ġunique":2100,"Ġzeros":2101,"Ġyield":2102,"Ġparameters":2103,"Ġpriv":2104,"Ġcontin":2105,"Ġextension":2106,"IND":2107,"Ġ40":2108,"Ġmethods":2109,"chars":2110,"ĠTestCase":2111,"Ġattribute":2112,"TIONS":2113,"REQ":2114,"ollector":2115,"Ġcooldown":2116,"ULAR":2117,"ickle":2118,"Ġgraph":2119,"Command":2120,"Ġwrapped":2121,"ifier":2122,"ĠKIND":2123,"Ġreceiv":2124,"FeatureFlag":2125,"ized":2126,"POSE":2127,"Returns":2128,"capacity":2129,"ĠMeta":2130,"Ġcollections":2131,"Ġfroz":2132,"CERT":2133,"ĠPURPOSE":2134,"ĠPARTICULAR":2135,"ifferent":2136,"$\"":2137,"'s":2138,"/>":2139,"66":2140,"ADER":2141,"By":2142,"Bug":2143,"CE":2144,"Check":2145,"DEC":2146,"Len":2147,"News":2148,"PA":2149,"PAT":2150,"Parser":2151,"RC":2152,"UG":2153,"bt":2154,"cp":2155,"clu":2156,"do":2157,"ec":2158,"ful":2159,"float":2160,"ire":2161,"iod":2162,"vers":2163,"vail":2164,"ways":2165,"}-":2166,"Ġmetric":2167,"inder":2168,"ork":2169,"Ġpt":2170,"Ġpw":2171,"Ġcli":2172,"Ġcho":2173,"Ġcron":2174,"Ġfactory":2175,"Ġfloat":2176,"leted":2177,"Ġwhe":2178,"Ġref":2179,"Ġrem":2180,"Ġrecur":2181,"Ġredi":2182,"Ġnct":2183,"Ġone":2184,"Ġover":2185,"Ġobt":2186,"Ġest":2187,"Ġeval":2188,"rant":2189,"Ġansible":2190,"row":2191,"ĠConfig":2192,"hook":2193,"Ġ->":2194,"ĠFlavor":2195,"ices":2196,"velo":2197,"ection":2198,"Ġstore":2199,"Ġexp":2200,"Ġ====":2201,"ĠassertRaises":2202,"ĠOGR":2203,"Ġlinal":2204,"ĠView":2205,"Ġparts":2206,"Ġchanged":2207,"ĠLicensed":2208,"Ġdir":2209,"Protobuf":2210,"inter":2211,"ĠBAS":2212,"stribute":2213,"Ġnext":2214,"Ġneeded":2215,"Ġadvices":2216,"press":2217,"context":2218,"words":2219,"Ġweave":2220,"LICENSE":2221,"Ġpassword":2222,"aces":2223,"plain":2224,"Deferred":2225,"TRA":2226,"Ġspaces":2227,"ALL":2228,"PIC":2229,"Notify":2230,"Ġfields":2231,"Ġdecimal":2232,"Ġbinascii":2233,"ĠDECSEL":2234,"Ġcalc":2235,"Ġoptions":2236,"ĠWARRANTY":2237,"Sele":2238,"Ġsupport":2239,"ĠPoint":2240,"ĠBaseFactory":2241,"DATA":2242,"Ġmeasure":2243,"rimary":2244,"vars":2245,"settings":2246,"ĠknownBug":2247,"ĠLibrary":2248,"Ġpublished":2249,"factor":2250,"vailable":2251,"Ġredistribute":2252,"Ġobtain":2253,"Ġ=====":2254,"Ġlinalg":2255,"ĠViewConfig":2256,"ĠBASIS":2257,"\"^":2258,"200":2259,"256":2260,"DO":2261,"Exception":2262,"FLA":2263,"IC":2264,"License":2265,"MP":2266,"None":2267,"Path":2268,"Rect":2269,"Scre":2270,"Tab":2271,"UP":2272,"ZE":2273,"cho":2274,"ead":2275,"ered":2276,"function":2277,"gen":2278,"ix":2279,"ioc":2280,"js":2281,"kwargs":2282,"llable":2283,"mur":2284,"mory":2285,"mock":2286,"mant":2287,"nd":2288,"ost":2289,"ping":2290,"sIn":2291,"xfe":2292,"ĠUnless":2293,"Ġdomain":2294,"liance":2295,"ince":2296,"ination":2297,"index":2298,"ating":2299,"enChar":2300,"Ġport":2301,"Ġabo":2302,"Ġagre":2303,"Ġaioc":2304,"Ġsearch":2305,"Ġcapi":2306,"Ġfuture":2307,"Ġ20":2308,"Ġ23":2309,"Ġ200":2310,"Ġrest":2311,"ally":2312,"Ġnp":2313,"Ġnumber":2314,"Ġsample":2315,"Ġempty":2316,"uto":2317,"ssi":2318,"Ġback":2319,"Ġld":2320,"Ġmin":2321,"Ġgener":2322,"Ġusing":2323,"rol":2324,"served":2325,"ĠCheck":2326,"ĠCUP":2327,"lay":2328,"rix":2329,"ĠAl":2330,"ĠgetT":2331,"Ġtok":2332,"ĠPar":2333,"olute":2334,"Ġvide":2335,"ulate":2336,"ĠLC":2337,"ĠRect":2338,"ĠRun":2339,"licable":2340,"Ġstop":2341,"Ġexpress":2342,"enset":2343,"thday":2344,"Ġbeam":2345,"ĠVersion":2346,"Ġsetup":2347,"Ġsetting":2348,"policy":2349,"Ġapplicable":2350,"ĠWSG":2351,"irthday":2352,"Ġsimp":2353,"Ġ'''":2354,"Ġuseful":2355,"apache":2356,"ISTRIB":2357,"Ġtimestamp":2358,"UTH":2359,"Ġhope":2360,"Ġhook":2361,"ials":2362,"Request":2363,"ATE":2364,"DITIONS":2365,"dig":2366,"ustom":2367,"Tests":2368,"TestCase":2369,"URL":2370,"Ġlimitations":2371,"Ġlemur":2372,"uncal":2373,"Ġcompliance":2374,"ĠCONDITIONS":2375,"bases":2376,"ynamic":2377,"HEADER":2378,"objects":2379,"specs":2380,"Ġwarrant":2381,"achine":2382,"Ġwriting":2383,"Ġtranslate":2384,"ĠConvert":2385,"Ġidentifier":2386,"SIZE":2387,"Ġunittest":2388,"FILE":2389,"Ġabsolute":2390,"Ġlaw":2391,"ĠInputSource":2392,"ĠEVP":2393,"ĠAssertScre":2394,"Ġterminal":2395,"Ġpermissions":2396,"Ġgoverning":2397,"Ġcontinue":2398,"Ġreceived":2399,"Ġfrozenset":2400,"Checked":2401,"DECSEL":2402,"Ġestim":2403,"ĠConfiguration":2404,"RectEqual":2405,"mantics":2406,"sInRectEqual":2407,"enCharsInRectEqual":2408,"Ġagreed":2409,"Ġaioclient":2410,"ĠWSGI":2411,"Ġwarranty":2412,"ĠAssertScreenCharsInRectEqual":2413,"'\"":2414,"23":2415,"ALI":2416,"DISTRIB":2417,"FREQ":2418,"OF":2419,"Password":2420,"RATI":2421,"Term":2422,"UTION":2423,"Usage":2424,"ake":2425,"bar":2426,"client":2427,"eger":2428,"gh":2429,"io":2430,"iTerm":2431,"math":2432,"node":2433,"ose":2434,"ties":2435,"ware":2436,"xA":2437,"Ġen":2438,"Ġright":2439,"Ġutf":2440,"Ġ<=":2441,"ina":2442,"section":2443,"segment":2444,"enari":2445,"Ġtail":2446,"Ġtyp":2447,"Ġseen":2448,"Ġcol":2449,"Ġcount":2450,"Ġfname":2451,"Ġ'__":2452,"Ġ'.'":2453,"Ġ\"%":2454,"hex":2455,"Ġ22":2456,"Ġwork":2457,"Ġrelativ":2458,"urned":2459,"mpPath":2460,"Ġsame":2461,"Ġ18":2462,"Ġent":2463,"Ġdone":2464,"Ġdns":2465,"Ġdynamic":2466,"ansible":2467,"Ġge":2468,"Ġgu":2469,"Ġgen":2470,"Ġglobal":2471,"Ġreturned":2472,"ĠTe":2473,"ĠTo":2474,"rie":2475,"ĠNOTE":2476,"ĠSub":2477,"ĠService":2478,"ĠPRO":2479,"ĠFrom":2480,"Ġnames":2481,"derr":2482,"pplication":2483,"Ġhass":2484,"Ġstamp":2485,"update":2486,"ists":2487,"Ġorg":2488,"thing":2489,"Ġ%(":2490,"ĠfileEx":2491,"Ġprofiles":2492,"Ġlength":2493,"six":2494,"teral":2495,"ĠEx":2496,"Ġalways":2497,"Ġrax":2498,"pute":2499,"gnu":2500,"ING":2501,"ĠGuidProtocolPpiXml":2502,"ĠassertEquals":2503,"Ġxml":2504,"ORDER":2505,"ĠQue":2506,"Ġhel":2507,"Ġrunning":2508,"ĠUse":2509,"Rege":2510,"Regist":2511,"ĠComment":2512,"Ġ127":2513,"128":2514,"example":2515,"Ġlocker":2516,"GET":2517,"TYPIC":2518,"Ġcalled":2519,"system":2520,"Ġfeed":2521,"Ġmathutil":2522,"TABLE":2523,"Ġinstead":2524,"Ġlocale":2525,"IsSele":2526,"Ġwrapper":2527,"ĠIntegrity":2528,"filer":2529,"filename":2530,"Format":2531,"arguments":2532,"cause":2533,"ĠconfigurationTab":2534,"\");":2535,"ForName":2536,"KEY":2537,"ĠAttributeList":2538,"Ġtraceback":2539,"Enc":2540,"tesIO":2541,"Ġproceed":2542,"PATH":2543,"Ġwhere":2544,"Ġmeasurement":2545,"FLAGS":2546,"layer":2547,"ĠgetTmpPath":2548,"ALID":2549,"DISTRIBUTION":2550,"RATIO":2551,"enario":2552,"Ġrelativize":2553,"ĠfileExists":2554,"TYPICAL":2555,"IsSelected":2556,"ĠIntegrityError":2557,"ĠconfigurationTabIsSelected":2558,"ĠgetTmpPathForName":2559,"([":2560,")\"":2561,")'":2562,"/$\"":2563,"13":2564,"16":2565,"48":2566,"CL":2567,"Class":2568,"Element":2569,"GES":2570,"Good":2571,"LD":2572,"Model":2573,"MENT":2574,"NE":2575,"NAME":2576,"Object":2577,"PP":2578,"RI":2579,"Tuple":2580,"VE":2581,"WOR":2582,"\\\\":2583,"aned":2584,"bb":2585,"dle":2586,"ding":2587,"for":2588,"filter":2589,"gb":2590,"lder":2591,"ms":2592,"model":2593,"pack":2594,"pay":2595,"public":2596,"package":2597,"rsrc":2598,"sse":2599,"tml":2600,"uil":2601,"xy":2602,"Ġmetadata":2603,"Ġerr":2604,"lines":2605,"dentials":2606,"Ġtw":2607,"Ġpredict":2608,"Ġact":2609,"Ġsection":2610,"Ġsepar":2611,"Ġcsv":2612,"Ġfp":2613,"Ġign":2614,"Ġrepo":2615,"Ġreset":2616,"Ġns":2617,"Ġdest":2618,"Ġemail":2619,"Ġdp":2620,"Ġdon":2621,"Ġdown":2622,"Ġ30":2623,"Ġkill":2624,"Ġmock":2625,"Ġmultip":2626,"Ġance":2627,"Ġuid":2628,"ĠCName":2629,"Ġforce":2630,"field":2631,"holder":2632,"iddle":2633,"xtx":2634,"ish":2635,"ĠPn":2636,"ĠPy":2637,"ĠField":2638,"ĠFInfo":2639,"Ġrv":2640,"load":2641,"mental":2642,"ĠRoot":2643,"ured":2644,"Ġhtml":2645,"licies":2646,"Ġthen":2647,"__'":2648,"Ġresource":2649,"active":2650,"power":2651,"abled":2652,"Ġzn":2653,"ending":2654,"email":2655,"Ġattempt":2656,"Ġcontrib":2657,"ĠBy":2658,"Ġpresent":2659,"Ġlogpy":2660,"Ġinto":2661,"ĠconfigId":2662,"prof":2663,"uffix":2664,"pression":2665,"ayer":2666,"wordcount":2667,"ĠInc":2668,"ĠInit":2669,"Reader":2670,"ĠlzP":2671,"Input":2672,"LIB":2673,"MACH":2674,"minTuple":2675,"Ġbased":2676,"setup":2677,"Ġhasattr":2678,"Ġ128":2679,"AdminTuple":2680,"atio":2681,"Ġsubscription":2682,"ĠDECSC":2683,"outine":2684,"ĠXMLReader":2685,"ĠPolicy":2686,"Username":2687,"ootstrap":2688,"Ġcleaned":2689,"ĠUnused":2690,"Ġlpz":2691,"Ġlpxn":2692,"192":2693,"ĠCharField":2694,"Ġfilters":2695,"Ġvariables":2696,"ĠManual":2697,"Ġdeny":2698,"Ġsaved":2699,"Ġhqxdata":2700,"Ġremove":2701,"digits":2702,"Ġestimate":2703,"ĠWSGIRequest":2704,"2312":2705,"ĠFromXml":2706,"Registered":2707,"payment":2708,"ĠDECSCA":2709,"03":2710,"11":2711,"Bloc":2712,"Con":2713,"Choice":2714,"EL":2715,"Lo":2716,"NOTE":2717,"OL":2718,"Plugin":2719,"Primary":2720,"Run":2721,"TW":2722,"TER":2723,"UB":2724,"UN":2725,"VER":2726,"\\\"":2727,"\\.":2728,"ait":2729,"auth":2730,"cog":2731,"feature":2732,"hn":2733,"ld":2734,"mer":2735,"match":2736,"non":2737,"nized":2738,"pl":2739,"prot":2740,"runc":2741,"somet":2742,"tin":2743,"tag":2744,"unt":2745,"uate":2746,"writ":2747,"Ã¼":2748,"ÃŃ":2749,"Ġ/":2750,"Ġqu":2751,"network":2752,"ling":2753,"literal":2754,"status":2755,"orator":2756,"Ġtags":2757,"Ġpprof":2758,"Ġcreds":2759,"Ġcustom":2760,"Ġfo":2761,"Ġfill":2762,"Ġ28":2763,"Ġwant":2764,"Ġrecord":2765,"ions":2766,"Ġdel":2767,"Ġopt":2768,"Ġsrc":2769,"Ġ100":2770,"Ġelement":2771,"Ġdifferent":2772,"Ġthey":2773,"ssu":2774,"Ġbad":2775,"Ġdefine":2776,"Ġmachine":2777,"rocess":2778,"ĠCont":2779,"rint":2780,"how":2781,"ptr":2782,"ĠGB":2783,"ĠSup":2784,"ĠString":2785,"Ġrle":2786,"Ġrstrip":2787,"Ġfiles":2788,"ĠLes":2789,"ĠImp":2790,"ĠRight":2791,"ithub":2792,"Ġexpected":2793,"Ġexec":2794,"Ġconditions":2795,"Ġreshape":2796,"ptions":2797,"Ġbecause":2798,"ĠOK":2799,"Ġprovide":2800,"extra":2801,"Ġcommon":2802,"Ġunicode":2803,"Ġzf":2804,"Ġparsing":2805,"ĠXXX":2806,"gnal":2807,"lyRegistered":2808,"Ġservers":2809,"ummy":2810,"Ġsize":2811,"process":2812,"profiler":2813,"Ġsymbol":2814,"Ġxenapi":2815,"ager":2816,"acheL":2817,"Ġaccording":2818,"ĠUS":2819,"rypted":2820,"ĠHash":2821,"Ġescio":2822,"KeyTest":2823,"Ġaddress":2824,"ĠnewlyRegistered":2825,"Ġroles":2826,"Ġroutine":2827,"Ġ2016":2828,"ugh":2829,"HelpText":2830,"book":2831,"ĠReserved":2832,"logp":2833,"ĠcommentBloc":2834,"Ġinternal":2835,"Ġctx":2836,"Ġbinhex":2837,"cret":2838,"docs":2839,"ĠJIS":2840,"SupM":2841,"Ġwarn":2842,"Ġindexes":2843,"default":2844,"FileName":2845,"Ġwritemath":2846,"TensorSignature":2847,"ĠInter":2848,"Ġclean":2849,"Ġreceive":2850,"DATE":2851,"locked":2852,"Ġperiod":2853,"Ġshut":2854,"address":2855,"ertificateFactory":2856,"video":2857,"ĠTensorSignature":2858,"Ġloads":2859,"EXTRA":2860,"System":2861,"NodeAdminTuple":2862,"ĠTODO":2863,"ĠParameters":2864,"nodes":2865,"Ġguide":2866,"ĠTemplate":2867,"rieve":2868,"Regexp":2869,"Ġkillwords":2870,"iddleware":2871,"ĠBytesIO":2872,"MACHINE":2873,"ĠManualPrimary":2874,"NOTEQ":2875,"cognized":2876,"ĠLesser":2877,"ĠRights":2878,"ĠHashable":2879,"Ġwritemathid":2880,"ĠManualPrimaryKeyTest":2881,"!\"":2882,"))":2883,"/\"":2884,":\"":2885,">\"":2886,"??":2887,"AUTH":2888,"Collection":2889,"Collectd":2890,"DS":2891,"EB":2892,"Flow":2893,"GIS":2894,"HER":2895,"Jo":2896,"KERN":2897,"Met":2898,"Message":2899,"NO":2900,"Parent":2901,"QName":2902,"Res":2903,"Ste":2904,"SRC":2905,"TD":2906,"TP":2907,"This":2908,"TTP":2909,"Up":2910,"_:":2911,"_{":2912,"aml":2913,"cred":2914,"cpu":2915,"dim":2916,"empty":2917,"ebook":2918,"gol":2919,"github":2920,"ializ":2921,"lg":2922,"lan":2923,"ma":2924,"max":2925,"nor":2926,"now":2927,"ool":2928,"rb":2929,"rong":2930,"rices":2931,"ratio":2932,"so":2933,"su":2934,"sparse":2935,"uild":2936,"wh":2937,"wap":2938,"ward":2939,"wire":2940,"xa":2941,"Ġ&":2942,"Ġ~":2943,"Ġut":2944,"Ġquest":2945,"nect":2946,"link":2947,"device":2948,"delete":2949,"semantics":2950,"reng":2951,"Ġtuple":2952,"Ġtask":2953,"Ġtrunc":2954,"Ġpa":2955,"Ġpack":2956,"Ġag":2957,"Ġauthority":2958,"Ġsecret":2959,"Ġcert":2960,"Ġim":2961,"stry":2962,"struct":2963,"lease":2964,"Ġ'>":2965,"Ġ\"{":2966,"Ġ\"__":2967,"header":2968,"Ġ21":2969,"Ġwait":2970,"Ġow":2971,"ameter":2972,"ctx":2973,"Ġsk":2974,"Ġsum":2975,"Ġsave":2976,"Ġsuffix":2977,"Ġdb":2978,"Ġthem":2979,"Ġbet":2980,"Ġblan":2981,"Ġgid":2982,"Ġus":2983,"Ġuuid":2984,"ateg":2985,"atex":2986,"routine":2987,"ĠCacheL":2988,"ĠTmp":2989,"ride":2990,"ries":2991,"rigin":2992,"ĠNow":2993,"ĠAuthority":2994,"Ġisfile":2995,"Ġasyn":2996,"Ġasync":2997,"ĠShould":2998,"ĠSOF":2999,"ĠgetL":3000,"ĠForm":3001,"ĠFilter":3002,"ĠIService":3003,"pper":3004,"ĠRet":3005,"Ġhand":3006,"lican":3007,"__\"":3008,"Ġexamples":3009,"Ġconversion":3010,"Ġconnection":3011,"ailure":3012,"Ġbegin":3013,"ĠData":3014,"Ġproper":3015,"Ġtests":3016,"lum":3017,"Ġart":3018,"ous":3019,"compute":3020,"Ġunpack":3021,"Ġdivision":3022,"Ġpolicies":3023,"Ġparameter":3024,"Ġattr":3025,"ĠGuidValue":3026,"ARE":3027,"Ġparticle":3028,"Ġsignal":3029,"000":3030,"Ġxs":3031,"Ġ50":3032,"ĠserviceName":3033,"abs":3034,"listener":3035,"antom":3036,"Ġacl":3037,"Ġweb":3038,"ĠInvalid":3039,"Ġmodules":3040,"ServiceParent":3041,"Ġanyone":3042,"MAX":3043,"ĠCommand":3044,"dient":3045,"distribution":3046,"Ġdefaults":3047,"Ġpats":3048,"Ġmatrix":3049,"Ġmatrices":3050,"Ġcallback":3051,"Ġtemp":3052,"groups":3053,"https":3054,"Ġcredentials":3055,"places":3056,"placeholder":3057,"ĠtagValue":3058,"220":3059,"ĠNotify":3060,"web":3061,"cio":3062,"ually":3063,"codereng":3064,"ĠDecimal":3065,"ĠDevelo":3066,"symbol":3067,"Ġgradient":3068,"IsChecked":3069,"Ġ1940":3070,"Ġoriginal":3071,"ified":3072,"GuidType":3073,"hostname":3074,"CKR":3075,"CTW":3076,"Start":3077,"oves":3078,"Org":3079,"THER":3080,"Ġcorrect":3081,"ĠTensorFlow":3082,"ĠEUCKR":3083,"ĠEUCTW":3084,"ĠLICENSE":3085,"Ġframework":3086,"Ġarguments":3087,"Ġattributename":3088,"/>.":3089,"Lennon":3090,"cpus":3091,"}-{":3092,"Ġrecursive":3093,"ProtobufMessage":3094,"Ġsimple":3095,"ghi":3096,"segmenter":3097,"Ġtypical":3098,"Ġgeom":3099,"ĠToXml":3100,"uiltin":3101,"Ġancestry":3102,"ĠInitial":3103,"TWARE":3104,"untime":3105,"ĠXXXX":3106,"Ġguideline":3107,"John":3108,"KERNEL":3109,"Step":3110,"gollum":3111,"Ġquestion":3112,"Ġblank":3113,"riginal":3114,"Ġasyncio":3115,"ĠSOFTWARE":3116,"Ġattrs":3117,"coderengine":3118,"%(":3119,"')":3120,"():":3121,")([":3122,"08":3123,"24":3124,"={":3125,"AM":3126,"Cert":3127,"From":3128,"Imp":3129,"LO":3130,"No":3131,"Options":3132,"PY":3133,"REC":3134,"SO":3135,"SON":3136,"aile":3137,"author":3138,"block":3139,"cl":3140,"cs":3141,"cipher":3142,"cores":3143,"culate":3144,"ds":3145,"ditor":3146,"ere":3147,"eep":3148,"fault":3149,"finder":3150,"gion":3151,"gover":3152,"gmail":3153,"ied":3154,"ibo":3155,"lation":3156,"lated":3157,"nlg":3158,"oy":3159,"obj":3160,"pred":3161,"rxtx":3162,"sh":3163,"sinstance":3164,"spect":3165,"shape":3166,"total":3167,"txn":3168,"warning":3169,"}'":3170,"Ġnt":3171,"Ġet":3172,"Ġ<<":3173,"deleted":3174,"ntic":3175,"ntax":3176,"input":3177,"self":3178,"ster":3179,"step":3180,"relativ":3181,"Ġpol":3182,"Ġpage":3183,"Ġpackage":3184,"Ġca":3185,"Ġcore":3186,"Ġcollector":3187,"omp":3188,"Ġfget":3189,"ery":3190,"lect":3191,"leep":3192,"medi":3193,"message":3194,"Ġ'-":3195,"Ġ'\\":3196,"hemer":3197,"hentic":3198,"Ġ27":3199,"Ġwrong":3200,"alculate":3201,"Ġnow":3202,"ite":3203,"itive":3204,"uring":3205,"Ġolines":3206,"Ġold":3207,"Ġsince":3208,"Ġsleep":3209,"Ġ13":3210,"Ġ17":3211,"Ġduring":3212,"Ġinvo":3213,"Ġinspect":3214,"uthentic":3215,"ans":3216,"any":3217,"Ġ33":3218,"Ġbit":3219,"ote":3220,"cept":3221,"Ġmocker":3222,"Ġmoves":3223,"edError":3224,"server":3225,"ĠCL":3226,"ĠClass":3227,"ĠCalculate":3228,"Ġretry":3229,"ĠNO":3230,"ĠNo":3231,"ĠNUL":3232,"ĠAPI":3233,"ĠAuthor":3234,"ĠGather":3235,"ĠSource":3236,"olver":3237,"ĠFor":3238,"ĠFailure":3239,"Ġrfile":3240,"Ġfix":3241,"ĠList":3242,"ĠIt":3243,"ĠRUN":3244,"Ġstill":3245,"Ġstatus":3246,"Ġstderr":3247,"Ġthread":3248,"Ġexit":3249,"ifact":3250,"Ġresort":3251,"asic":3252,"thread":3253,"meta":3254,"Ġbeen":3255,"ĠDjango":3256,"Ġlibrary":3257,"Ġclassify":3258,"Ġ{'":3259,"scores":3260,"sign":3261,"ĠEX":3262,"Ġjust":3263,"Ġcommit":3264,"compose":3265,"ends":3266,"Ġravel":3267,"ogger":3268,"ipy":3269,"Ġpool":3270,"Ġpower":3271,"Ġpossi":3272,"ĠGuidType":3273,"Ġcontrol":3274,"Ġprevi":3275,"owel":3276,"Ġits":3277,"respon":3278,"ĠGetCName":3279,"ĠGetSupArchList":3280,"Ġ\\\"":3281,"Ġadmin":3282,"abc":3283,"Ġversions":3284,"Ġhex":3285,"Ġunderscores":3286,"ĠUSE":3287,"ributes":3288,"Ġlistener":3289,"Ġ60":3290,"Ġfinally":3291,"ENDS":3292,"tests":3293,"Ġbytes":3294,"SSWOR":3295,"ToEnc":3296,"Ġbases":3297,"Ġstates":3298,"ĠAND":3299,"Ġscipy":3300,"123":3301,"counter":3302,"brand":3303,"ĠRequest":3304,"Ġhttps":3305,"dence":3306,"Ġsubmit":3307,"Ġdecdata":3308,"valuate":3309,"Ġsoap":3310,"based":3311,"Ġimplements":3312,"output":3313,"ween":3314,"ĠJCollectd":3315,"archive":3316,"ĠStomp":3317,"Ġparsed":3318,"Ġheaders":3319,"Ġwarning":3320,"defghi":3321,"gression":3322,"ĠINTER":3323,"local":3324,"timestamp":3325,"Ġbuffer":3326,"ĠSAXNot":3327,"Ġrules":3328,"POST":3329,"ĠnamedNodeAdminTuple":3330,"Ġrdlen":3331,"Ġfollowing":3332,"Order":3333,"Ġprotection":3334,"ĠProcess":3335,"Ġcorrespon":3336,"ĠCharDistributionAnalysis":3337,"Ġiteritems":3338,"Ġplt":3339,"Ġvalidation":3340,"Ġchoices":3341,"unknown":3342,"Ġstrokelist":3343,"Ġattributes":3344,"Ġprivate":3345,"Ġprivile":3346,"clude":3347,"Ġchoose":3348,"Ġabove":3349,"Ġcolor":3350,"ĠSubFactory":3351,"CLU":3352,"sses":3353,"Ġsections":3354,"Ġcsvrow":3355,"Ġmultiprocess":3356,"ootstrapHelper":3357,"ĠWSGIRequestHandler":3358,"writemath":3359,"Ġsrcpath":3360,"HelpTextList":3361,"Ġwarnings":3362,"ĠInterface":3363,"Ġshutting":3364,"subject":3365,"Ġowner":3366,"Ġbetween":3367,"ĠgetLogger":3368,"Ġbeginning":3369,"Ġproperties":3370,"ailed":3371,"governor":3372,"Ġntpath":3373,"relativity":3374,"mediate":3375,"hemeral":3376,"ĠRUNCHAR":3377,"ifacts":3378,"Ġpossible":3379,"SSWORD":3380,"ToEncrypted":3381,"Ġmultiprocessing":3382,"(?":3383,"98":3384,">>":3385,">}":3386,"Attribute":3387,"APP":3388,"CON":3389,"CLI":3390,"CTION":3391,"CIP":3392,"DB":3393,"Dict":3394,"FA":3395,"FE":3396,"Ge":3397,"IG":3398,"LR":3399,"Lin":3400,"MM":3401,"Map":3402,"Pre":3403,"Package":3404,"PRO":3405,"PDATE":3406,"QL":3407,"RIP":3408,"Th":3409,"TAR":3410,"TERN":3411,"Variable":3412,"VID":3413,"Yaml":3414,"]+":3415,"_%":3416,"`.":3417,"bort":3418,"bare":3419,"birthday":3420,"check":3421,"dst":3422,"dal":3423,"dic":3424,"dan":3425,"dis":3426,"exception":3427,"fg":3428,"flag":3429,"frame":3430,"ged":3431,"hers":3432,"iName":3433,"iali":3434,"imental":3435,"lnlg":3436,"mq":3437,"mt":3438,"mac":3439,"oz":3440,"ope":3441,"oog":3442,"ould":3443,"part":3444,"page":3445,"qnames":3446,"rtype":3447,"sor":3448,"save":3449,"space":3450,"sole":3451,"sina":3452,"ten":3453,"tmp":3454,"target":3455,"tags":3456,"xml":3457,"xenapi":3458,"Ãµ":3459,"Ġer":3460,"Ġens":3461,"Ġque":3462,"neyp":3463,"lint":3464,"defer":3465,"description":3466,"ntil":3467,"ntity":3468,"invo":3469,"stion":3470,"sted":3471,"start":3472,"stpath":3473,"ats":3474,"Ġpk":3475,"Ġput":3476,"Ġptr":3477,"Ġpublic":3478,"Ġpast":3479,"Ġavailable":3480,"Ġauto":3481,"Ġseri":3482,"Ġsend":3483,"Ġcmp":3484,"Ġcused":3485,"Ġcfg":3486,"Ġfla":3487,"Ġfframe":3488,"stroy":3489,"meas":3490,"memory":3491,"Ġ'.":3492,"Ġ'..":3493,"Ġ'_'":3494,"Ġ\"'":3495,"alman":3496,"iter":3497,"ities":3498,"etter":3499,"ctop":3500,"Ġshow":3501,"Ġep":3502,"Ġeof":3503,"Ġeps":3504,"Ġdummy":3505,"Ġdstpath":3506,"Ġinp":3507,"Ġinactive":3508,"Ġ31":3509,"Ġ36":3510,"Ġbirthday":3511,"Ġbuild":3512,"otation":3513,"Ġlstrip":3514,"Ġmk":3515,"Ġmlnlg":3516,"rase":3517,"raise":3518,"raph":3519,"pelican":3520,"ilva":3521,"Ġuntil":3522,"ortError":3523,"role":3524,"root":3525,"rough":3526,"ĠCF":3527,"ĠCOM":3528,"lab":3529,"Ġreturns":3530,"ĠName":3531,"ĠNOT":3532,"ĠAM":3533,"ĠAct":3534,"ĠASG":3535,"ĠApplication":3536,"ĠAbort":3537,"idden":3538,"ĠSy":3539,"ĠStr":3540,"isol":3541,"Ġvi":3542,"oded":3543,"Ġnamelist":3544,"Ġnotice":3545,"Ġnotebook":3546,"lob":3547,"login":3548,"ments":3549,"ĠID":3550,"pping":3551,"ĠRE":3552,"odList":3553,"uplic":3554,"ifference":3555,"Ġconf":3556,"Ġconn":3557,"Ġconnect":3558,"ell":3559,"asse":3560,"esca":3561,"ĠDen":3562,"ĠDIS":3563,"ulti":3564,"Ġmaze":3565,"ĠMessage":3566,"Ġproc":3567,"Ġproxy":3568,"getNetwork":3569,"scaling":3570,"ĠVALID":3571,"ĠEvaluate":3572,"Ġalso":3573,"ĠsetUp":3574,"Ġchain":3575,"Ġchunk":3576,"Ġstrip":3577,"Ġstrok":3578,"comman":3579,"Ġzmq":3580,"oduleList":3581,"Ġpoint":3582,"LEN":3583,"perimental":3584,"ĠBIG":3585,"umer":3586,"Ġside":3587,"Ġâĸģ'%":3588,"SET":3589,"Ġintere":3590,"ĠconfigAs":3591,"product":3592,"props":3593,"ITE":3594,"ifications":3595,"ĠGetHelpTextList":3596,"ĠQGIS":3597,"parator":3598,"Ġpylint":3599,"ĠstartService":3600,"Ġargspec":3601,"ĠrunCommand":3602,"Ġcannot":3603,"oken":3604,"Ġaccept":3605,"ĠUser":3606,"ĠUPDATE":3607,"ĠHTTP":3608,"Ġ64":3609,"Ġmemory":3610,"ĠTestA":3611,"DIATE":3612,"Ġ>>>":3613,"Ġargv":3614,"Ġ94":3615,"ToOrder":3616,"Ġhash":3617,"ĠArg":3618,"ĠSetCName":3619,"ĠSetSupArchList":3620,"ĠSetNotify":3621,"Add":3622,"Ġpatch":3623,"vertToEncrypted":3624,"URE":3625,"deditor":3626,"MEDIATE":3627,"phrase":3628,"Ġlevel":3629,"Ġcompatible":3630,"users":3631,"Ġdecorator":3632,"ĠKeyError":3633,"Ġsources":3634,"ternative":3635,"REGE":3636,"Ġbinary":3637,"Ġrequests":3638,"Ġdisable":3639,"TYPE":3640,"Ġcopi":3641,"ĠState":3642,"Expression":3643,"404":3644,"CKA":3645,"CTX":3646,"Stream":3647,"ometry":3648,"Ġidentity":3649,"Ġrdtype":3650,"Ġrdclass":3651,"Property":3652,"SION":3653,"ĠvarRegexp":3654,"Ġseek":3655,"ĠTypeError":3656,"ĠLIAB":3657,"2011":3658,"PEM":3659,"trajs":3660,"========":3661,"porter":3662,"return":3663,"ĠFuzzyText":3664,"ĠHelpTextXml":3665,"AsPEM":3666,"Ġsorted":3667,"PACKA":3668,"Ġptrue":3669,"Ġoverride":3670,"interval":3671,"Ġgenerate":3672,"Ġvideo":3673,"Ġvideos":3674,"ĠstopService":3675,"ĠQueue":3676,"Ġhelper":3677,"Ġactual":3678,"Ġignore":3679,"outines":3680,"ConvertToEncrypted":3681,"protobuf":3682,"something":3683,"literals":3684,"ĠSupArchList":3685,"ĠStringIO":3686,"ĠImportError":3687,"Ġprovided":3688,"SupModuleList":3689,"Metadata":3690,"links":3691,"Ġskip":3692,"ĠCacheLocker":3693,"ĠFilterExpression":3694,"ĠInvalidInput":3695,"ĠDeveloper":3696,"StartService":3697,"Ġpoll":3698,"Ġ'-'":3699,"ĠINTERMEDIATE":3700,"Ġcorresponding":3701,"Ġprivileged":3702,"CIPHER":3703,"Link":3704,"danms":3705,"oogle":3706,"Ġerase":3707,"Ġensure":3708,"Ġqueue":3709,"neypot":3710,"Ġserializ":3711,"ctoprint":3712,"isolated":3713,"escape":3714,"Ġstrokes":3715,"commandeditor":3716,"Ġinterested":3717,"ĠconfigAsYaml":3718,"ToOrderMap":3719,"REGEX":3720,"ĠprivilegedStartService":3721,"''":3722,"'re":3723,"()":3724,"+)":3725,",'":3726,".,":3727,"05":3728,"18":3729,"28":3730,"211":3731,"32":3732,"53":3733,"75":3734,"90":3735,"99":3736,":'":3737,"</":3738,"=%":3739,">\\":3740,"AMA":3741,"ASSWORD":3742,"Basic":3743,"COM":3744,"Down":3745,"DING":3746,"Empty":3747,"Editor":3748,"Filter":3749,"HIS":3750,"KG":3751,"Line":3752,"LUG":3753,"MQ":3754,"Mock":3755,"MIT":3756,"Mak":3757,"Middleware":3758,"OO":3759,"Open":3760,"PR":3761,"PLA":3762,"Pickle":3763,"Routines":3764,"Software":3765,"VALID":3766,"Yml":3767,"]*":3768,"aded":3769,"cb":3770,"cle":3771,"can":3772,"call":3773,"choice":3774,"down":3775,"duplic":3776,"ee":3777,"ffer":3778,"find":3779,"gid":3780,"gative":3781,"global":3782,"hg":3783,"ig":3784,"jo":3785,"nConvertToEncrypted":3786,"ored":3787,"ook":3788,"ply":3789,"particle":3790,"pends":3791,"rf":3792,"sk":3793,"txt":3794,"tnConvertToEncrypted":3795,"vn":3796,"wrapp":3797,"yle":3798,"yone":3799,"Ã£":3800,"Ã§":3801,"Ã©":3802,"Ãº":3803,"Ġlicense":3804,"del":3805,"nted":3806,"inst":3807,"sep":3808,"state":3809,"stats":3810,"request":3811,"revision":3812,"recording":3813,"attempt":3814,"Ġtt":3815,"Ġtrue":3816,"Ġtrim":3817,"Ġtvm":3818,"Ġph":3819,"Ġap":3820,"Ġauthor":3821,"Ġsequenc":3822,"Ġcast":3823,"erCom":3824,"strict":3825,"level":3826,"leTestCase":3827,"mem":3828,"Ġ'\"":3829,"Ġ'*":3830,"ars":3831,"arDown":3832,"Ġrelease":3833,"Ġregion":3834,"Ġrestrict":3835,"ence":3836,"icMock":3837,"Ġnb":3838,"Ġnw":3839,"ites":3840,"uran":3841,"urls":3842,"Ġdete":3843,"Ġdepen":3844,"Ġdeleted":3845,"Ġdevelo":3846,"Ġops":3847,"Ġoctoprint":3848,"ctr":3849,"Ġsg":3850,"Ġsomet":3851,"Ġsvn":3852,"Ġ14":3853,"Ġda":3854,"Ġdok":3855,"Ġdiff":3856,"uted":3857,"aniz":3858,"Ġthese":3859,"Ġ300":3860,"ĠbootstrapHelper":3861,"ĠbtnConvertToEncrypted":3862,"otes":3863,"Ġkind":3864,"Ġdefinit":3865,"Ġlow":3866,"Ġlayer":3867,"Ġlatex":3868,"ceback":3869,"Ġgis":3870,"Ġgdal":3871,"Ġglob":3872,"raw":3873,"rax":3874,"illa":3875,"Ġupper":3876,"atever":3877,"serializ":3878,"ĠCor":3879,"ĠCertificateFactory":3880,"Ġforward":3881,"lace":3882,"lasses":3883,"ĠTrans":3884,"ĠToken":3885,"ĠTHIS":3886,"riv":3887,"ĠAd":3888,"ĠAg":3889,"ĠAtt":3890,"ĠAffer":3891,"Ġ-=":3892,"ĠGe":3893,"ĠST":3894,"ĠSimp":3895,"ĠSilva":3896,"ĠSURE":3897,"ished":3898,"Ġgetattr":3899,"Ġtoo":3900,"Ġtop":3901,"ĠProt":3902,"ĠParser":3903,"ĠPending":3904,"ĠPASSWORD":3905,"estination":3906,"ĠFla":3907,"geom":3908,"Ġval":3909,"Ġnothing":3910,"Ġnotifications":3911,"loor":3912,"Ġ254":3913,"artbe":3914,"ĠIMP":3915,"ĠRem":3916,"ĠRaise":3917,"ĠRuntime":3918,"ĠRotation":3919,"unicode":3920,"Ġhapp":3921,"Ġexample":3922,"Ġcondition":3923,"ĠassertIn":3924,"assert":3925,"ĠDoc":3926,"ĠDAMA":3927,"ĠOn":3928,"ĠOTHER":3929,"Named":3930,"Ġmade":3931,"pile":3932,"ĠMA":3933,"ĠMag":3934,"ĠMark":3935,"acter":3936,"action":3937,"ĠtestWidget":3938,"scale":3939,"signatures":3940,"Ġarch":3941,"ĠElement":3942,"Ġjvm":3943,"Ġalternative":3944,"Ġsetattr":3945,"verse":3946,"veryone":3947,"Ġcome":3948,"Ġstrings":3949,"ryable":3950,"Ġapply":3951,"emon":3952,"ograph":3953,"ipue":3954,"Protection":3955,"methods":3956,"ĠBE":3957,"INF":3958,"tters":3959,"ofb":3960,"property":3961,"project":3962,"Ġsyllable":3963,"ources":3964,"resources":3965,"ĠGetFeatureFlag":3966,"ĠfailUnlessEqualContent":3967,"Ġ51":3968,"enerTh":3969,"Ġnever":3970,"ORY":3971,"reek":3972,"ivar":3973,"params":3974,"prefix":3975,"Ġpyparticle":3976,"rayField":3977,"Ġstarting":3978,"img":3979,"lementedError":3980,"iveMQ":3981,"anti":3982,"ants":3983,"ributor":3984,"Recognized":3985,"sonants":3986,"Ġmemb":3987,"Services":3988,"Ġoslo":3989,"Ġflavors":3990,"Index":3991,"LIC":3992,"LIED":3993,"Ġpassphrase":3994,"MAKE":3995,"ĠComp":3996,"Ġformatted":3997,"play":3998,"Ġ81":3999,"Ġ90":4000,"Ġspecify":4001,"Ġspecified":4002,"XmlElement":4003,"Ġready":4004,"Ġnodes":4005,"ToNOTEQ":4006,"ĠbaseName":4007,"Ġurllib":4008,"sets":4009,"Ġ2010":4010,"Ġcursor":4011,"ĠArrayField":4012,"Ġscenario":4013,"Ġ70":4014,"Ġcopyright":4015,"Ġletters":4016,"ready":4017,"Ġcomponent":4018,"llvm":4019,"ĠtearDown":4020,"Ġ'%(":4021,"Ġsubprocess":4022,"Ġdtypes":4023,"ConfigItem":4024,"Ġotherwise":4025,"byte":4026,"ĠtagKey":4027,"Ġloaded":4028,"ĠNote":4029,"ĠNotImp":4030,"ĠXmlNode":4031,"ĠXmlRoutines":4032,"document":4033,"weibo":4034,"ĠAny":4035,"ĠJSON":4036,"component":4037,"Security":4038,"Separator":4039,"Ġchildren":4040,"values":4041,"sessions":4042,"Ġsuch":4043,"Ġgranted":4044,"Ġexclu":4045,"Ġqname":4046,"Ġlocal":4047,"IPE":4048,"IsEn":4049,"locale":4050,"Ġendswith":4051,"ertificates":4052,"hedule":4053,"manager":4054,"Ġtranslation":4055,"GuidValue":4056,"ĠnamedServices":4057,"allowed":4058,"Ġmakefile":4059,"ĠmakeService":4060,"Ġcontents":4061,"DEP":4062,"ffect":4063,"Ġwordcount":4064,"poseYml":4065,"ERNAME":4066,"\")'":4067,"Syntax":4068,"traceback":4069,"Ġplan":4070,"ĠCreates":4071,"ĠCreateXmlElement":4072,"subscriptions":4073,"Ġ404":4074,"6666":4075,"Ġpts":4076,"ĠnctId":4077,"MPL":4078,"llableSeparator":4079,"Ġabout":4080,"ĠAllow":4081,"Ġtoken":4082,"ĠRunMetadata":4083,"ĠConvertNE":4084,"ĠQuestion":4085,"Ġhelp":4086,"systemcommandeditor":4087,"Ġtwisted":4088,"Ġdestination":4089,"fields":4090,"ĠPython":4091,"Ġ128000":4092,"paymentmethod":4093,"plot":4094,"ssume":4095,"ĠUSERNAME":4096,"ĠnewlyRegisteredUser":4097,"Ġroutines":4098,"ĠTemplateSyntax":4099,"Resolver":4100,"whatever":4101,"Ġtruncate":4102,"ategory":4103,"ĠRetrieve":4104,"CertAsPEM":4105,"Ġbitcode":4106,"ĠAuthors":4107,"defghij":4108,"ĠSAXNotRecognized":4109,"CLUDING":4110,"VariableName":4111,"ialize":4112,"ozilla":4113,"ntityResolver":4114,"Ġbuildmatch":4115,"label":4116,"ĠActiveMQ":4117,"ĠDeny":4118,"ĠTestApp":4119,"LUGIN":4120,"Maker":4121,"joe":4122,"wrapped":4123,"Ġsequences":4124,"erComposeYml":4125,"urano":4126,"ĠdokerComposeYml":4127,"ĠbtnConvertToEncryptedIsEn":4128,"Ġlower":4129,"ĠTokenParser":4130,"ĠAttributes":4131,"ĠAffero":4132,"ĠSimpleTestCase":4133,"ĠProtocol":4134,"artbeat":4135,"ĠIMPLIED":4136,"ĠRaised":4137,"ĠRuntimeError":4138,"ĠMagicMock":4139,"ĠfailUnlessEqualContents":4140,"enerThread":4141,"Ġpyparticleest":4142,"ĠNotImplementedError":4143,"ĠConvertNEToNOTEQ":4144,"ĠTemplateSyntaxError":4145,"ĠSAXNotRecognizedException":4146,"ĠdokerComposeYmlFileName":4147,"ĠbtnConvertToEncryptedIsEnabled":4148,"\",":4149,"\":":4150,"-{":4151,"/'":4152,"/{":4153,"/(?":4154,"02":4155,"64":4156,"81":4157,"89":4158,">'":4159,"BD":4160,"BAR":4161,"Better":4162,"Cre":4163,"Create":4164,"Cipher":4165,"Collector":4166,"CertificateFactory":4167,"Data":4168,"DES":4169,"Different":4170,"FAN":4171,"Found":4172,"Hqx":4173,"IF":4174,"IM":4175,"If":4176,"Int":4177,"IME":4178,"ITIES":4179,"Loc":4180,"Mat":4181,"OW":4182,"OOT":4183,"Original":4184,"PU":4185,"Po":4186,"Page":4187,"PEC":4188,"Public":4189,"PUB":4190,"PKG":4191,"QT":4192,"RL":4193,"Rle":4194,"Ret":4195,"Rage":4196,"RES":4197,"ROM":4198,"SD":4199,"Sc":4200,"Sync":4201,"TS":4202,"UM":4203,"US":4204,"Wee":4205,"](":4206,"_,":4207,"available":4208,"auto":4209,"bf":4210,"bad":4211,"bility":4212,"builtin":4213,"cy":4214,"cli":4215,"car":4216,"cert":4217,"certificate":4218,"csv":4219,"difference":4220,"ef":4221,"eader":4222,"earning":4223,"fs":4224,"fra":4225,"gis":4226,"gine":4227,"hat":4228,"jor":4229,"ker":4230,"lp":4231,"mo":4232,"mode":4233,"mun":4234,"mble":4235,"mary":4236,"mark":4237,"mmetric":4238,"multip":4239,"nr":4240,"pc":4241,"pha":4242,"platform":4243,"pickle":4244,"primary":4245,"rt":4246,"ring":4247,"ril":4248,"run":4249,"rpc":4250,"sa":4251,"spe":4252,"software":4253,"samples":4254,"swap":4255,"tho":4256,"true":4257,"tensor":4258,"tuple":4259,"task":4260,"uc":4261,"ud":4262,"vid":4263,"vince":4264,"vcpus":4265,"wb":4266,"wind":4267,"wisted":4268,"xB":4269,"xff":4270,"xnext":4271,"yml":4272,"{'":4273,"}]":4274,"}{":4275,"Ã¡":4276,"Ã³":4277,"âĢ":4278,"çĽ":4279,"Ġ|":4280,"dev":4281,"devices":4282,"desired":4283,"decoderengine":4284,"see":4285,"sect":4286,"stderr":4287,"Ġ0211":4288,"rection":4289,"requi":4290,"related":4291,"ories":4292,"atin":4293,"Ġts":4294,"Ġton":4295,"Ġtable":4296,"Ġtap":4297,"Ġpd":4298,"Ġps":4299,"Ġpid":4300,"Ġpay":4301,"Ġpus":4302,"Ġpickle":4303,"Ġplayer":4304,"Ġplace":4305,"Ġau":4306,"Ġavoid":4307,"Ġaster":4308,"Ġsemantics":4309,"Ġcpp":4310,"Ġcard":4311,"Ġcertificates":4312,"Ġcategory":4313,"ond":4314,"onal":4315,"onger":4316,"Ġfre":4317,"Ġfailed":4318,"Ġiv":4319,"Ġiss":4320,"ercur":4321,"strings":4322,"Ġ','":4323,"Ġ':'":4324,"Ġ\"<":4325,"Ġ[{'":4326,"heartbeat":4327,"help":4328,"Ġ26":4329,"Ġwra":4330,"Ġwfile":4331,"Ġway":4332,"Ġwire":4333,"Ġwould":4334,"Ġreq":4335,"Ġrev":4336,"Ġrecording":4337,"Ġrecognized":4338,"encoded":4339,"alt":4340,"itle":4341,"ural":4342,"Ġsw":4343,"Ġsure":4344,"Ġsome":4345,"Ġswap":4346,"Ġequ":4347,"Ġinsert":4348,"Ġinclude":4349,"Ġindic":4350,"utput":4351,"anit":4352,"anup":4353,"Ġtheir":4354,"Ġ34":4355,"Ġ35":4356,"Ġbuiltin":4357,"other":4358,"otstrap":4359,"Ġkeep":4360,"Ġkalman":4361,"Ġdefer":4362,"Ġlong":4363,"Ġlonger":4364,"ceil":4365,"Ġmb":4366,"Ġgpu":4367,"Ġanother":4368,"pear":4369,"round":4370,"roll":4371,"services":4372,"ĠCre":4373,"ĠCode":4374,"ĠContent":4375,"ĠCPU":4376,"ĠTime":4377,"ĠThing":4378,"first":4379,"fidence":4380,"hobb":4381,"honeypot":4382,"ĠApp":4383,"ĠApi":4384,"ĠALI":4385,"ĠAUTH":4386,"xture":4387,"xtick":4388,"ptured":4389,"ĠGD":4390,"ĠSc":4391,"ĠSu":4392,"ĠSer":4393,"ĠSAN":4394,"ĠSick":4395,"ĠSUB":4396,"ĠSQL":4397,"isc":4398,"isk":4399,"isProtobufMessage":4400,"ĠgetUser":4401,"ĠgetQName":4402,"ĠPY":4403,"ĠPs":4404,"ĠPpi":4405,"ĠPIN":4406,"ĠPID":4407,"ĠPredict":4408,"ĠPLUGIN":4409,"olved":4410,"ĠFbal":4411,"ĠFcal":4412,"ĠFuncal":4413,"ĠFOO":4414,"Ġvir":4415,"Ġview":4416,"Ġvery":4417,"Ġnotification":4418,"named":4419,"ationError":4420,"ĠLoc":4421,"ĠLearning":4422,"ĠRole":4423,"ĠRcho":4424,"ected":4425,"changed":4426,"Ġhi":4427,"Ġhome":4428,"ithm":4429,"Ġstd":4430,"Ġstat":4431,"Ġstyle":4432,"Ġstars":4433,"Ġthrough":4434,"Ġexpect":4435,"Ġconstruct":4436,"Ġconsonants":4437,"Ġresolved":4438,"ptional":4439,"amond":4440,"htm":4441,"ĠDo":4442,"ĠDTD":4443,"ĠDestination":4444,"ĠOE":4445,"ĠOr":4446,"ĠOUT":4447,"ĠOther":4448,"ĠOriginal":4449,"found":4450,"ĠMz":4451,"ĠMake":4452,"Ġproject":4453,"Ġclassification":4454,"scenario":4455,"ĠVM":4456,"ĠValid":4457,"lug":4458,"lush":4459,"sider":4460,"ĠEn":4461,"ĠEnd":4462,"Ġalready":4463,"Ġsets":4464,"ĠsetName":4465,"ĠsetConfig":4466,"ĠsetSt":4467,"Ġpartial":4468,"andt":4469,"andro":4470,"open":4471,"Ġcompose":4472,"coming":4473,"Ġlinelen":4474,"Ġlineno":4475,"ĠuserName":4476,"Ġzip":4477,"Ġdatabase":4478,"ERP":4479,"Ġdirection":4480,"Ġdiamond":4481,"ipin":4482,"iphers":4483,"Ġpos":4484,"grade":4485,"keep":4486,"Ġatom":4487,"period":4488,"ĠBe":4489,"ĠBost":4490,"ĠBLO":4491,"ĠBSD":4492,"Ġpretxn":4493,"TIAL":4494,"lessandro":4495,"Ġfails":4496,"trans":4497,"uman":4498,"alidate":4499,"alibr":4500,"Ġsig":4501,"Ġinteger":4502,"format":4503,"prod":4504,"profiles":4505,"ĠGetGuid":4506,"ĠGetUsage":4507,"initial":4508,"Ġcases":4509,"ORS":4510,"ORT":4511,"two":4512,"twisted":4513,"ĠQcho":4514,"prec":4515,"prece":4516,"Ġpytest":4517,"ined":4518,"Ġruns":4519,"Ġrunner":4520,"environ":4521,"ownServiceParent":4522,"ĠUN":4523,"ĠURL":4524,"Ġnoise":4525,"Ġlists":4526,"ĠHttp":4527,"ĠHidden":4528,"Ġ65":4529,"Ġmem":4530,"Ġmean":4531,"Ġpaths":4532,"ATOM":4533,"cursive":4534,"worker":4535,"Ġfinished":4536,"ariance":4537,"bcdefghij":4538,"ĠCommun":4539,"ĠTests":4540,"herit":4541,"ephemeral":4542,"Ġargtypes":4543,"Decimal":4544,"Ġ80":4545,"Ġcontextlib":4546,"ĠnodeName":4547,"ALTERN":4548,"ToNE":4549,"ĠGenerate":4550,"Ġstatement":4551,"Ġrole":4552,"Ġdistribution":4553,"Ġ120":4554,"Ġ123":4555,"ĠSetFeatureFlag":4556,"Additions":4557,"Ġmater":4558,"URI":4559,"1253":4560,"Ġchanges":4561,"application":4562,"bootstrap":4563,"phantom":4564,"Ġlef":4565,"readable":4566,"ĠCopyFrom":4567,"ĠRead":4568,"Ġcompati":4569,"Ġcomplete":4570,"HOST":4571,"HOLD":4572,"Ġbranches":4573,"Ġdecode":4574,"Ġsob":4575,"Ġhostname":4576,"bytes":4577,"Ġloop":4578,"Ġimplementation":4579,"ĠDECLR":4580,"Ġallows":4581,"chemy":4582,"Ġrequested":4583,"ĠNotification":4584,"ĠXmlElement":4585,"ĠXmlAttribute":4586,"cremental":4587,"docweb":4588,"weish":4589,"Ġchecks":4590,"Ġopenrsrc":4591,"configured":4592,"Ġcoef":4593,"Ġrequire":4594,"Ġdims":4595,"ĠStub":4596,"ULT":4597,"ĠDefault":4598,"Ġdocumentation":4599,"pkg":4600,"defn":4601,"Ġsuds":4602,"Ġgiving":4603,"greg":4604,"Ġqgis":4605,"Ġinstanti":4606,"Sets":4607,"Directory":4608,"ILD":4609,"Ġtransform":4610,"Ġclear":4611,"changeset":4612,"changegroup":4613,"Ġprepared":4614,"OfProtobufMessage":4615,"``)":4616,"lisk":4617,"ĠConditions":4618,"Ġprocessing":4619,"Ġperform":4620,"Ġshort":4621,"CharToOrderMap":4622,"OrCreate":4623,"writecrc":4624,"writeProtobuf":4625,"Ġprotobuf":4626,"Ġprotected":4627,"Ġconverted":4628,"ĠmessageList":4629,"THRES":4630,"belisk":4631,"Ġcoroutine":4632,"Ġreplaced":4633,"Ġreplaces":4634,"ĠVariableName":4635,"ATIVE":4636,"STRIPE":4637,"Ġfilename":4638,"Ġiterator":4639,"Ġdumps":4640,"ĠdumpRun":4641,"Ġlazy":4642,"ĠCOPY":4643,"2012":4644,"SCRIP":4645,"TRIBUT":4646,"Ġinterfaces":4647,"retries":4648,"ĠFeatureFlag":4649,"ĠFuzzyChoice":4650,"Ġexists":4651,"Ġexisting":4652,"Ġcontains":4653,"IServiceCollection":4654,"olean":4655,"Ġdenied":4656,"Ġsafe":4657,"Ġevents":4658,"ĠlinkText":4659,"Ġattributevalues":4660,"CommandEditor":4661,"ByQName":4662,"Ġrecurse":4663,"ĠstorePassword":4664,"ĠstoreUsername":4665,"Ġexpr":4666,"ĠOGRGe":4667,"Ġdirname":4668,"ĠdirPickle":4669,"Ġsupports":4670,"Ġdomains":4671,"Ġgeneral":4672,"Ġhooktype":4673,"ATEG":4674,"ĠConvertNOTEQ":4675,"FILES":4676,"Ġenabled":4677,"Ġrights":4678,"Ġ188":4679,"ĠorgName":4680,"ĠExample":4681,"Ġxmlrpc":4682,"Encoding":4683,"168":4684,"Ġtwo":4685,"Ġseparate":4686,"Ġnsname":4687,"LIBC":4688,"Loader":4689,"Runner":4690,"VERSION":4691,"Ġfoo":4692,"Ġdefined":4693,"Ġrledata":4694,"Ġexecute":4695,"Ġexecuted":4696,"ĠUSA":4697,"ĠnewlyRegisteredOrg":4698,"Ġpaid":4699,"Ġimmediate":4700,"ĠFormat":4701,"Ġartifacts":4702,"Ġtempest":4703,"Ġtempfile":4704,"ĠDecimalField":4705,"symbolnr":4706,"Ġgradients":4707,"GuidTypeList":4708,"StepAdvice":4709,"Ġetree":4710,"Ġcaptured":4711,"uthentication":4712,"Ġprevious":4713,"owels":4714,"Ġhexbin":4715,"ĠJCollectdCollector":4716,"governors":4717,"FAULT":4718,"FEED":4719,"Prefix":4720,"TARGET":4721,"checkcrc":4722,"exceptions":4723,"invoice":4724,"Ġmkparam":4725,"ĠCOMMENT":4726,"Ġvia":4727,"ĠDISPLA":4728,"ultiService":4729,"getNetworkFor":4730,"Ġpointlist":4731,"umerate":4732,"Ġcopies":4733,"PACKAGES":4734,"285":4735,"]*)([":4736,"cleanup":4737,"install":4738,"Ġappear":4739,"anization":4740,"Ġdefinition":4741,"serialized":4742,"ĠCorp":4743,"ĠRotationPo":4744,"Ġhappen":4745,"ĠDAMAGES":4746,"ĠOnly":4747,"ography":4748,"INFO":4749,"imgur":4750,"Ġmembers":4751,"SecurityForm":4752,"DEPENDS":4753,"ssumes":4754,"FANITIES":4755,"PUBLIC":4756,"Week":4757,"models":4758,"multiple":4759,"Ġtonic":4760,"Ġtapname":4761,"Ġpayload":4762,"Ġasterisk":4763,"ercurial":4764,"Ġwraps":4765,"Ġequiv":4766,"hobbit":4767,"ĠALIVE":4768,"ĠSickRage":4769,"ĠPINAX":4770,"ĠPIDFILE":4771,"Ġvirt":4772,"ĠOtherwise":4773,"ĠValidationError":4774,"ĠEndpoint":4775,"ĠsetStore":4776,"ĠBoston":4777,"ĠBLOCK":4778,"translate":4779,"ĠHiddenInput":4780,"ĠCommunic":4781,"DecimalField":4782,"ALTERNATIVE":4783,"Ġcompatibility":4784,"ĠDECLRMM":4785,"weishipin":4786,"OfProtobufMessages":4787,"THRESHOLD":4788,"ĠdumpRunCommand":4789,"ĠstorePasswordIsChecked":4790,"ĠstoreUsernameIsChecked":4791,"ĠdirPickleFileName":4792,"ĠConvertNOTEQToNE":4793,"ĠDISPLAY":4794,"ĠRotationPolicy":4795,"\".":4796,"'.":4797,"'},":4798,"(\\":4799,"**":4800,"._":4801,".%(":4802,"/.":4803,"/**":4804,"07":4805,"20":4806,"49":4807,"50":4808,"58":4809,"67":4810,"::":4811,"?\"":4812,"@'":4813,"AG":4814,"AP":4815,"An":4816,"ASE":4817,"ATION":4818,"AGE":4819,"AGS":4820,"Application":4821,"Cont":4822,"COR":4823,"Certificate":4824,"CFLAGS":4825,"CPP":4826,"CTYPE":4827,"Det":4828,"Date":4829,"DON":4830,"EMPL":4831,"FLO":4832,"GH":4833,"Get":4834,"GIN":4835,"Gyp":4836,"GTH":4837,"Hex":4838,"HALL":4839,"Header":4840,"ISE":4841,"IAL":4842,"IREC":4843,"JP":4844,"LL":4845,"LW":4846,"LY":4847,"Lang":4848,"LAN":4849,"MAN":4850,"MESS":4851,"MENDS":4852,"ModList":4853,"On":4854,"Obj":4855,"OUT":4856,"ODE":4857,"PL":4858,"PUT":4859,"PTION":4860,"Pos":4861,"PRI":4862,"QMAKE":4863,"RR":4864,"RIS":4865,"RAX":4866,"RREC":4867,"RDEPENDS":4868,"SP":4869,"Sm":4870,"Spec":4871,"SID":4872,"TV":4873,"The":4874,"Tag":4875,"Tipue":4876,"UMA":4877,"UCH":4878,"UID":4879,"UiName":4880,"UITE":4881,"Var":4882,"Version":4883,"VIC":4884,"Writ":4885,"Write":4886,"YN":4887,"YES":4888,"]?":4889,"bi":4890,"bod":4891,"batch":4892,"bits":4893,"co":4894,"cu":4895,"cor":4896,"cmp":4897,"came":4898,"clo":4899,"ccess":4900,"coin":4901,"cron":4902,"categ":4903,"ciphers":4904,"calibr":4905,"db":4906,"df":4907,"dar":4908,"dit":4909,"done":4910,"dail":4911,"div":4912,"dings":4913,"dated":4914,"dtd":4915,"effect":4916,"fss":4917,"free":4918,"fails":4919,"flush":4920,"gr":4921,"gor":4922,"gge":4923,"gres":4924,"grc":4925,"gÃ¼":4926,"hw":4927,"ign":4928,"istribution":4929,"issu":4930,"ience":4931,"ka":4932,"kli":4933,"lli":4934,"ldefn":4935,"mi":4936,"mic":4937,"mart":4938,"mont":4939,"mount":4940,"nan":4941,"none":4942,"nfss":4943,"oo":4944,"ox":4945,"oolean":4946,"pat":4947,"pment":4948,"pass":4949,"pdate":4950,"predict":4951,"pending":4952,"pdf":4953,"qÃ¼":4954,"rm":4955,"rs":4956,"sion":4957,"sla":4958,"sum":4959,"solve":4960,"snow":4961,"slug":4962,"ts":4963,"top":4964,"tcp":4965,"tifacts":4966,"uation":4967,"upper":4968,"vend":4969,"variance":4970,"wtd":4971,"xE":4972,"yy":4973,"yz":4974,"yes":4975,"zone":4976,"zip":4977,"}).":4978,"®é":4979,"Ãª":4980,"å°":4981,"æĸ":4982,"Ġ;":4983,"ĠZ":4984,"Ġless":4985,"Ġatex":4986,"ĮĦ":4987,"net":4988,"negative":4989,"lier":4990,"library":4991,"linear":4992,"des":4993,"det":4994,"defi":4995,"decimal":4996,"depends":4997,"deriv":4998,"ins":4999,"insert":5000,"inations":5001,"invalid":5002,"include":5003,"inHex":5004,"Ġ..":5005,"search":5006,"stor":5007,"stop":5008,"stack":5009,"rel":5010,"record":5011,"reporter":5012,"ora":5013,"oration":5014,"orgroups":5015,"enge":5016,"enserver":5017,"Ġtri":5018,"Ġtho":5019,"Ġtake":5020,"Ġtabs":5021,"Ġtell":5022,"Ġpor":5023,"Ġpip":5024,"Ġpdef":5025,"Ġperson":5026,"Ġpasse":5027,"Ġab":5028,"Ġass":5029,"Ġalo":5030,"Ġable":5031,"Ġapi":5032,"Ġack":5033,"Ġsess":5034,"Ġsegment":5035,"Ġcap":5036,"Ġclasses":5037,"ompe":5038,"Ġfalse":5039,"Ġfew":5040,"Ġfake":5041,"Ġfmt":5042,"Ġir":5043,"ernal":5044,"erations":5045,"erarch":5046,"stroke":5047,"let":5048,"memb":5049,"Ġ'_":5050,"Ġ'\"'":5051,"Ġ'\\\\":5052,"Ġ'@'":5053,"Ġ\"!":5054,"Ġ\"/":5055,"Ġ\"_":5056,"Ġ\".\"":5057,"arri":5058,"hes":5059,"hell":5060,"Ġwho":5061,"Ġwas":5062,"Ġwsg":5063,"Ġways":5064,"Ġwell":5065,"Ġreal":5066,"Ġrepe":5067,"Ġregra":5068,"Ġrepos":5069,"Ġrevision":5070,"Ġreject":5071,"Ġreserved":5072,"Ġreporter":5073,"Ġreply":5074,"encoding":5075,"aland":5076,"alog":5077,"alker":5078,"alpha":5079,"Ġnc":5080,"Ġnl":5081,"Ġnor":5082,"Ġnumb":5083,"iters":5084,"itory":5085,"Ġdeter":5086,"Ġdescri":5087,"Ġdevices":5088,"Ġdelete":5089,"Ġdestroy":5090,"Ġdeprec":5091,"Ġour":5092,"Ġones":5093,"Ġovers":5094,"Ġobelisk":5095,"Ġsax":5096,"Ġslog":5097,"Ġsolve":5098,"Ġsparse":5099,"Ġsina":5100,"Ġsanit":5101,"Ġshell":5102,"Ġele":5103,"Ġeuc":5104,"Ġdri":5105,"Ġdas":5106,"Ġdocker":5107,"Ġincoming":5108,"Ġinherit":5109,"utor":5110,"anForm":5111,"Ġ39":5112,"ssreporter":5113,"Ġbest":5114,"Ġbig":5115,"Ġboolean":5116,"oth":5117,"Ġknow":5118,"Ġlparams":5119,"Ġlyz":5120,"Ġmac":5121,"Ġmight":5122,"Ġmiddleware":5123,"Ġmany":5124,"Ġmurano":5125,"Ġmercurial":5126,"edded":5127,"edistribution":5128,"Ġgo":5129,"Ġgot":5130,"Ġgfile":5131,"Ġgby":5132,"Ġgood":5133,"rap":5134,"raxp":5135,"pem":5136,"ilog":5137,"Ġum":5138,"Ġusage":5139,"ros":5140,"serve":5141,"ĠCA":5142,"ĠCertificate":5143,"ĠCollectd":5144,"ĠCustom":5145,"ĠTh":5146,"ĠText":5147,"ĠTag":5148,"ĠTIME":5149,"ĠTwisted":5150,"ĠNUMA":5151,"ĠACTION":5152,"ĠAssumes":5153,"ĠARIS":5154,"oci":5155,"pto":5156,"Ġoften":5157,"ĠGroup":5158,"ĠGoogle":5159,"ĠGreek":5160,"ĠSO":5161,"ĠSingle":5162,"ĠSpace":5163,"ĠSRC":5164,"ĠSHALL":5165,"ĠgetB":5166,"ĠgetName":5167,"Ġgetfile":5168,"ĠgetService":5169,"ĠgetValue":5170,"Ġgetvalue":5171,"Ġtoday":5172,"Ġtodo":5173,"ĠPX":5174,"ĠPh":5175,"ĠPOM":5176,"ĠFif":5177,"ĠFran":5178,"ĠFile":5179,"ĠFunction":5180,"ĠFix":5181,"ĠFloor":5182,"gent":5183,"Ġver":5184,"Ġvect":5185,"Ġvcpus":5186,"Ġvmem":5187,"Ġvalidate":5188,"Ġrxtx":5189,"Ġrmt":5190,"Ġrts":5191,"Ġfixture":5192,"derman":5193,"aclass":5194,"teStream":5195,"ĠLINE":5196,"ĠLayer":5197,"ĠLatin":5198,"ĠLTV":5199,"ppose":5200,"ĠRedistribution":5201,"unct":5202,"chron":5203,"ures":5204,"Ġhandl":5205,"Ġhgrc":5206,"lications":5207,"Ġstored":5208,"Ġstompe":5209,"Ġthan":5210,"Ġexperimental":5211,"Ġconsole":5212,"Ġconfidence":5213,"istant":5214,"Ġrespected":5215,"metaclass":5216,"Ġbelow":5217,"ĠDE":5218,"ĠDi":5219,"ĠDummy":5220,"ĠDEB":5221,"ĠDIREC":5222,"ĠON":5223,"ĠObject":5224,"ĠOptional":5225,"Ġmak":5226,"Ġmaster":5227,"Ġâĸģ\"!\"":5228,"Ġlike":5229,"ĠMa":5230,"ĠMs":5231,"ĠMIN":5232,"ĠMEN":5233,"ĠMultiService":5234,"Ġfilecrc":5235,"Ġprogre":5236,"gether":5237,"gettext":5238,"getusers":5239,"getLink":5240,"Ġtested":5241,"Ġtestlist":5242,"ĠVER":5243,"side":5244,"signature":5245,"ĠEC":5246,"ĠEmpty":5247,"ĠEOF":5248,"ĠEveryone":5249,"ĠEntityResolver":5250,"ando":5251,"andles":5252,"opulate":5253,"operations":5254,"Ġcompute":5255,"Ġcompile":5256,"commit":5257,"common":5258,"Ġlinear":5259,"Ġunion":5260,"Ġzs":5261,"endpoint":5262,"emory":5263,"Ġyt":5264,"ĠdataTo":5265,"Ġdiag":5266,"ĠWHE":5267,"Ġpointer":5268,"Ġparam":5269,"Ġbyref":5270,"ARD":5271,"ARCH":5272,"ourVar":5273,"ĠBUT":5274,"ĠBind":5275,"ĠBook":5276,"ĠBinHex":5277,"gnConfigItem":5278,"Ġserve":5279,"Ġexternal":5280,"Ġprevent":5281,"assistant":5282,"ows":5283,"INIT":5284,"INST":5285,"tty":5286,"Ġitself":5287,"Ġâĸģ'\\\\":5288,"SEN":5289,"Ġlogar":5290,"Ġraised":5291,"Ġinteg":5292,"Ġuses":5293,"ĠconfigNetwork":5294,"ĠconfigItem":5295,"propto":5296,"ains":5297,"Ġsyn":5298,"Ġsymmetric":5299,"ĠGetNotify":5300,"ĠGetSupModuleList":5301,"ĠGetOrCreate":5302,"ĠGetGuidTypeList":5303,"Ġ42":5304,"Ġ45":5305,"Ġxi":5306,"Ġxenserver":5307,"aped":5308,"allenge":5309,"Ġ56":5310,"Ġ59":5311,"Ġ512":5312,"Ġ\\'":5313,"Ġ1024":5314,"Ġnet":5315,"ORITY":5316,"Ġtimezone":5317,"parsing":5318,"pretxn":5319,"Ġpyrax":5320,"Ġversionutils":5321,"errors":5322,"UTF":5323,"mitter":5324,"Ġhow":5325,"lementation":5326,"charfile":5327,"ives":5328,"Ġwhat":5329,"Ġwhom":5330,"Ġwhites":5331,"oks":5332,"okan":5333,"oked":5334,"ĠUsage":5335,"ĠUiName":5336,"ĠUpdate":5337,"Ġwere":5338,"ĠIncremental":5339,"ECT":5340,"usually":5341,"ĠHAS":5342,"ĠHandles":5343,"Register":5344,"Revision":5345,"Ġ67":5346,"feat":5347,"ENCE":5348,"Ġanything":5349,"MAGE":5350,"ĠTestGyp":5351,"Ġformatter":5352,"ĠSession":5353,"ĠSelect":5354,"directory":5355,"ĠenvAdditions":5356,"Ġgroups":5357,"ĠgroupId":5358,"ĠaddService":5359,"ĠaddEmpty":5360,"bufsize":5361,"Ġnewdata":5362,"ĠnewCertAsPEM":5363,"Device":5364,"Default":5365,"Ġ82":5366,"Ġ86":5367,"Ġ98":5368,"Ġcontextmanager":5369,"Ġreadline":5370,"Ġdocstrings":5371,"Ġbasename":5372,"Ġroute":5373,"Ġ2012":5374,"Ġ2014":5375,"xcept":5376,"ĠSetGuid":5377,"ĠSetUsage":5378,"ĠSetSupModuleList":5379,"Ġsche":5380,"Ġscra":5381,"Ġschedule":5382,"Ġ72":5383,"Ġ77":5384,"URCE":5385,"implementation":5386,"Ġencode":5387,"Ġupdated":5388,"Ġsystems":5389,"condition":5390,"connection":5391,"Ġchangesets":5392,"NotFound":5393,"ainer":5394,"php":5395,"Ġlead":5396,"Ġleave":5397,"ĠRegression":5398,"ĠRecursive":5399,"ĠORD":5400,"denied":5401,"Ġsubdir":5402,"ĠCONTRA":5403,"logprod":5404,"Ġintersect":5405,"ĠcurrentStep":5406,"Ġidx":5407,"Ġsoon":5408,"...\"":5409,"osh":5410,"RESET":5411,"byname":5412,"exp":5413,"mbedded":5414,"Ġtagname":5415,"Ġallowbranches":5416,"ched":5417,"flavorid":5418,"Ġdisasse":5419,"ĠdisownServiceParent":5420,"Artifacts":5421,"created":5422,"ilities":5423,"Ġcalls":5424,"Ġcalling":5425,"Ġchecking":5426,"Ġoptional":5427,"Ġopenrf":5428,"ĠPlanForm":5429,"configuration":5430,"specific":5431,"Ġcovariance":5432,"Ġinitialize":5433,"compare":5434,"ĠWITH":5435,"OMMENDS":5436,"Search":5437,"alent":5438,"coder":5439,"ypart":5440,"Ġdocuments":5441,"Ġfeat":5442,"ĠCommonObject":5443,"Composition":5444,"Ġqnames":5445,"Ġlocation":5446,"ĠINCLUDING":5447,"Ġenvironment":5448,"Ġcpuinfo":5449,"Ġwritten":5450,"quency":5451,"Ġprefixes":5452,"Ġcodecs":5453,"Ġfolder":5454,"ĠISO":5455,"ĠInteger":5456,"ĠBaseArtifacts":5457,"opts":5458,"ĠKeep":5459,"Ġauthm":5460,"Ġparsers":5461,"Ġprocessuid":5462,"Ġprocessgid":5463,"Ġpercent":5464,"Ġidentical":5465,"ĠregisterComposition":5466,"Ġshutil":5467,"Ġnamedtuple":5468,"ĠnamedAn":5469,"addLink":5470,"Ġusersorgroups":5471,"Character":5472,"Process":5473,"nova":5474,"Ġbodypart":5475,"Ġbreaks":5476,"ĠProfile":5477,"Ġmessages":5478,"DEB":5479,"beam":5480,"Ġwords":5481,"InfoFor":5482,"FIG":5483,"FIX":5484,"Ġclients":5485,"Ġmarker":5486,"Ġuglier":5487,"ĠVariables":5488,"ĠWeave":5489,"ĠAnsibleFilter":5490,"SyllableSeparator":5491,"Ġabspath":5492,"Ġfilled":5493,"ĠdumpFile":5494,"ĠLIMIT":5495,"2017":5496,"ĠEVENT":5497,"Ġfuncname":5498,"ĠFuzzyDate":5499,"Ġcontaining":5500,"ĠHelpTextObj":5501,"DIRECT":5502,"vider":5503,"Ġtotalwtd":5504,"Ġlinks":5505,"ByName":5506,"ByteStream":5507,"Length":5508,"inderCont":5509,"hooks":5510,"Ġexpandt":5511,"ĠOGRIndex":5512,"ALLOW":5513,"DOUT":5514,"ICODE":5515,"Ġrestype":5516,"ĠCheckin":5517,"ĠParse":5518,"HEADERS":5519,"Ġenumerate":5520,"Ġworker":5521,"ĠServices":5522,"ĠPROVID":5523,"Ġstamps":5524,"Ġorganization":5525,"ĠExamples":5526,"ĠCommentSecurityForm":5527,"Formatter":5528,"1301":5529,"RIGH":5530,"ssed":5531,"Ġerrno":5532,"Ġactive":5533,"Ġseparator":5534,"Ġdestinations":5535,"Ġmultiple":5536,"ĠPydocweb":5537,"Ġattempts":5538,"Ġdenybranches":5539,"ĠremoveService":5540,"OLDER":5541,"\\\"\"":5542,"proto":5543,"sometag":5544,"Ġquotes":5545,"ĠControl":5546,"ĠContributor":5547,"ĠSupModList":5548,"ĠImplement":5549,"SupModList":5550,"SystemId":5551,"EBAR":5552,"Ġ~/.":5553,"deviceA":5554,"Ġagain":5555,"Ġaggr":5556,"Ġimg":5557,"Ġusr":5558,"Ġusually":5559,"ĠAuthorityFactory":5560,"ĠIServiceCollection":5561,"Ġhandle":5562,"Ġwebhook":5563,"Ġwebserver":5564,"webhook":5565,"PYRAX":5566,"SOURCE":5567,"clang":5568,"cipherbyname":5569,"Ġoldline":5570,"Ġinvoke":5571,"Ġinvoices":5572,"ĠClassify":5573,"Ġfixer":5574,"ĠListenerThread":5575,"ĠEXPR":5576,"ĠGuidTypes":5577,"ĠpreviourVar":5578,"ĠRequestFactory":5579,"ĠStompSpec":5580,"CONFIG":5581,"CLIENT":5582,"]+)'":5583,"Ġpaste":5584,"Ġautoscale":5585,"Ġflags":5586,"Ġephemeral":5587,"Ġepilog":5588,"ĠSystem":5589,"ĠMessageMiddleware":5590,"ĠsetUpClass":5591,"Ġchunks":5592,"LENGTH":5593,"ĠLIABLE":5594,"ĠLIABILITY":5595,"Ġserializer":5596,"callback":5597,"duplicate":5598,"requested":5599,"revisions":5600,"attempts":5601,"Ġphantom":5602,"Ġauthorities":5603,"Ġ'*'":5604,"Ġdetected":5605,"Ġdeveloping":5606,"Ġsometag":5607,"Ġdaemon":5608,"ĠTransaction":5609,"ĠSTDOUT":5610,"ĠPendingCertificate":5611,"ĠFlags":5612,"ĠRemove":5613,"ĠDocument":5614,"ryableError":5615,"ĠComponent":5616,"Ġcomponents":5617,"ĠtearDownClass":5618,"bytefile":5619,"PublicId":5620,"autoescape":5621,"safe":5622,"speed":5623,"çĽ®é":5624,"Ġ02110":5625,"required":5626,"Ġpsutil":5627,"Ġpush":5628,"Ġfrequency":5629,"Ġisspace":5630,"Ġindicates":5631,"ĠCreator":5632,"ĠApiKey":5633,"ĠAUTHOR":5634,"ĠgetUserName":5635,"Ġhierarch":5636,"Ġhomeassistant":5637,"Ġstdout":5638,"Ġzipfile":5639,"Ġsigned":5640,"ĠUNICODE":5641,"Ġleft":5642,"ĠCOPYRIGH":5643,"SCRIPT":5644,"Ġxmlrpclib":5645,"2851":5646,"ĠCorporation":5647,"Ġequivalent":5648,"CORE":5649,"CPPFLAGS":5650,"FLOAT":5651,"LangModel":5652,"PRIORITY":5653,"RRECOMMENDS":5654,"SIDEBAR":5655,"TagValue":5656,"body":5657,"correct":5658,"camelli":5659,"categories":5660,"daily":5661,"ggered":5662,"issuer":5663,"klin":5664,"micros":5665,"month":5666,"nfssync":5667,"slave":5668,"Ġatexit":5669,"derivative":5670,"inserted":5671,"Ġtriggered":5672,"Ġassoci":5673,"Ġalone":5674,"Ġsegmentation":5675,"Ġ'\\\\'":5676,"Ġwsgi":5677,"Ġrepository":5678,"alandora":5679,"Ġnumbers":5680,"Ġdescrib":5681,"Ġdeprecated":5682,"Ġoversize":5683,"Ġslogdet":5684,"Ġdriver":5685,"Ġdashes":5686,"raxpub":5687,"ĠARISING":5688,"ĠGreekLangModel":5689,"Ġgetfileinfo":5690,"ĠFifth":5691,"ĠFranklin":5692,"Ġvector":5693,"Ġrmtree":5694,"ĠLINELEN":5695,"Ġhandlers":5696,"Ġhgrcusers":5697,"Ġstompest":5698,"ĠDEBUG":5699,"ĠDIRECT":5700,"Ġprogressreporter":5701,"getLinkInfoFor":5702,"ĠdataToWrite":5703,"Ġdiagonal":5704,"ĠWHETHER":5705,"ĠBinding":5706,"INITSCRIPT":5707,"Ġintegers":5708,"Ġwhitespace":5709,"ĠIncrementalParser":5710,"ĠaddEmptyLine":5711,"ĠCONTRACT":5712,"Ġdisassemble":5713,"ĠIntegerField":5714,"ĠBaseArtifactsTest":5715,"ĠnamedAny":5716,"CharacterStream":5717,"ĠAnsibleFilterError":5718,"ĠLIMITED":5719,"inderContainers":5720,"Ġexpandtabs":5721,"ĠOGRIndexError":5722,"ĠPROVIDED":5723,"ĠEXPRESS":5724,"ĠpreviourVarPrefix":5725,"ĠTransactionTestCase":5726,"çĽ®éĮĦ":5727,"Ġhierarchy":5728,"ĠCOPYRIGHT":5729,"camellia":5730,"getLinkInfoForFile":5731,"!'":5732,"!</":5733,"\"\\":5734,"\"|":5735,"\"\\\\":5736,"${":5737,"';":5738,"'<":5739,"'^":5740,"'|":5741,"'}":5742,"'),":5743,"(\"":5744,"(*":5745,"+\"":5746,"+'":5747,"+.":5748,",\"":5749,"-\"":5750,".)":5751,".{":5752,"/?":5753,"/__":5754,"/..":5755,"/%(":5756,"09":5757,"10":5758,"100":5759,"149":5760,"21":5761,"34":5762,"340":5763,"43":5764,"59":5765,"65":5766,"92":5767,"956":5768,"=\"":5769,">).":5770,"?)":5771,"?\\":5772,"?://":5773,"AD":5774,"ALE":5775,"AUT":5776,"Authority":5777,"ATIONS":5778,"Agent":5779,"BJ":5780,"BO":5781,"BR":5782,"BU":5783,"Be":5784,"Bin":5785,"Bad":5786,"Base":5787,"BLE":5788,"BSi":5789,"BASE":5790,"CA":5791,"CM":5792,"CP":5793,"CU":5794,"Can":5795,"Call":5796,"CLA":5797,"CXX":5798,"COL":5799,"CRIP":5800,"Could":5801,"CATEG":5802,"CLIBC":5803,"CJP":5804,"CARD":5805,"DRI":5806,"DTD":5807,"EG":5808,"ET":5809,"EV":5810,"Ext":5811,"Eng":5812,"EVER":5813,"EntityResolver":5814,"Embedded":5815,"FC":5816,"FS":5817,"Fal":5818,"Flavor":5819,"FIT":5820,"FLI":5821,"FSS":5822,"FAL":5823,"Failed":5824,"FROM":5825,"Foo":5826,"FFIX":5827,"FBSi":5828,"Got":5829,"Group":5830,"GNO":5831,"Greek":5832,"GLIBC":5833,"GENCE":5834,"HH":5835,"Host":5836,"HTTP":5837,"Harri":5838,"Ign":5839,"IES":5840,"IRE":5841,"IMAGE":5842,"JIS":5843,"JOR":5844,"Json":5845,"KS":5846,"KDIR":5847,"Le":5848,"LAR":5849,"LIS":5850,"LINE":5851,"Layer":5852,"Letter":5853,"MS":5854,"Man":5855,"Module":5856,"MUT":5857,"Many":5858,"Mozilla":5859,"Memory":5860,"ND":5861,"NG":5862,"NEC":5863,"Number":5864,"NOT":5865,"NSI":5866,"NRevision":5867,"NFSS":5868,"OE":5869,"Oct":5870,"OIC":5871,"PF":5872,"Per":5873,"Pem":5874,"PAR":5875,"PRE":5876,"Pream":5877,"Person":5878,"PATI":5879,"Print":5880,"Pool":5881,"QU":5882,"Que":5883,"QLA":5884,"QGIS":5885,"QPF":5886,"Rot":5887,"Rule":5888,"Ratio":5889,"RSRC":5890,"Runtime":5891,"SF":5892,"SH":5893,"SR":5894,"SU":5895,"Su":5896,"Ser":5897,"Sub":5898,"SLA":5899,"Sina":5900,"SLR":5901,"SQL":5902,"Salandora":5903,"Tom":5904,"Toc":5905,"Time":5906,"TRU":5907,"TML":5908,"Typ":5909,"Title":5910,"TTRIBUT":5911,"TAGS":5912,"Ur":5913,"UAL":5914,"UCLIBC":5915,"UIRE":5916,"VIN":5917,"VNRevision":5918,"WN":5919,"WS":5920,"Watch":5921,"WEB":5922,"What":5923,"WISE":5924,"[\\":5925,"[^":5926,"\\'":5927,"\\-":5928,"].":5929,"_*":5930,"_\\":5931,"`,":5932,"au":5933,"aw":5934,"aut":5935,"ape":5936,"authority":5937,"aware":5938,"authentic":5939,"ained":5940,"bv":5941,"bli":5942,"bit":5943,"build":5944,"cn":5945,"cv":5946,"cat":5947,"css":5948,"cla":5949,"cri":5950,"crypt":5951,"core":5952,"ccur":5953,"cast":5954,"collection":5955,"collectd":5956,"collector":5957,"corator":5958,"cnow":5959,"classes":5960,"dat":5961,"dtype":5962,"dlen":5963,"dump":5964,"django":5965,"dtemp":5966,"docker":5967,"dRot":5968,"emp":5969,"elican":5970,"except":5971,"ffi":5972,"fol":5973,"fill":5974,"finfo":5975,"finit":5976,"fall":5977,"fdir":5978,"floor":5979,"got":5980,"gend":5981,"gpu":5982,"gners":5983,"gyp":5984,"grim":5985,"good":5986,"ground":5987,"hz":5988,"hen":5989,"hge":5990,"hip":5991,"hind":5992,"href":5993,"hmac":5994,"hidden":5995,"hLetter":5996,"ii":5997,"istr":5998,"ian":5999,"iss":6000,"ione":6001,"ipo":6002,"ipping":6003,"jinja":6004,"junk":6005,"ken":6006,"kit":6007,"known":6008,"lv":6009,"lot":6010,"lue":6011,"long":6012,"lchemy":6013,"mature":6014,"map":6015,"msg":6016,"mFile":6017,"moot":6018,"mwise":6019,"mix":6020,"mined":6021,"mTyp":6022,"nh":6023,"nm":6024,"nho":6025,"num":6026,"nisc":6027,"oD":6028,"outh":6029,"oPrint":6030,"pri":6031,"pError":6032,"pus":6033,"parent":6034,"pical":6035,"populate":6036,"ql":6037,"rand":6038,"rum":6039,"rlen":6040,"rÃŃ":6041,"sw":6042,"sort":6043,"sable":6044,"sity":6045,"syn":6046,"some":6047,"suffix":6048,"site":6049,"salt":6050,"ta":6051,"tf":6052,"tree":6053,"tab":6054,"tributes":6055,"uch":6056,"vp":6057,"ving":6058,"viron":6059,"vowel":6060,"voked":6061,"ws":6062,"wrt":6063,"wrap":6064,"xC":6065,"xb":6066,"ylabel":6067,"yril":6068,"ySQL":6069,"zA":6070,"zQ":6071,"zgu":6072,"}|":6073,"¨çĽ®éĮĦ":6074,"Ã¢":6075,"Ã´":6076,"Ãł":6077,"åľ":6078,"æī":6079,"æľ":6080,"èª":6081,"Ġ^":6082,"Ġnewline":6083,"Ġur":6084,"Ġmet":6085,"Ġ//":6086,"Ģåľ":6087,"limit":6088,"lius":6089,"libcrypto":6090,"linemark":6091,"dest":6092,"dere":6093,"dele":6094,"dered":6095,"desi":6096,"decode":6097,"demo":6098,"nto":6099,"ntool":6100,"Ġ('":6101,"Ġ((":6102,"Ġ(<":6103,"Ġ(@":6104,"ini":6105,"inx":6106,"inner":6107,"information":6108,"infilename":6109,"sen":6110,"dentation":6111,"Ġ00":6112,"reen":6113,"reable":6114,"register":6115,"report":6116,"release":6117,"reply":6118,"revoked":6119,"Ġ=>":6120,"orge":6121,"atom":6122,"attributes":6123,"engine":6124,"endele":6125,"Ġtf":6126,"Ġtak":6127,"Ġpur":6128,"Ġping":6129,"Ġpull":6130,"Ġptra":6131,"Ġao":6132,"Ġast":6133,"Ġaut":6134,"Ġapache":6135,"Ġassi":6136,"Ġaround":6137,"Ġauthentication":6138,"Ġamount":6139,"Ġaffi":6140,"Ġseed":6141,"Ġsever":6142,"Ġselect":6143,"Ġ::":6144,"Ġcm":6145,"Ġcas":6146,"Ġcare":6147,"Ġcache":6148,"Ġcrypto":6149,"Ġcollect":6150,"Ġcollectd":6151,"onfdir":6152,"oma":6153,"omain":6154,"omType":6155,"Ġfh":6156,"Ġfid":6157,"Ġfunct":6158,"Ġio":6159,"erRuntime":6160,"lfer":6161,"Ġ'{":6162,"Ġ'),":6163,"Ġ'??":6164,"Ġ\"$":6165,"Ġ\":":6166,"Ġ\"--":6167,"Ġ\"========":6168,"Ġ\",\"":6169,"arrow":6170,"hether":6171,"Ġ29":6172,"Ġwin":6173,"Ġwon":6174,"Ġwalker":6175,"Ġrename":6176,"Ġreache":6177,"Ġreader":6178,"Ġremin":6179,"Ġremain":6180,"Ġrelation":6181,"Ġrelated":6182,"Ġreverse":6183,"Ġrecv":6184,"ency":6185,"alen":6186,"alted":6187,"allable":6188,"ionando":6189,"ici":6190,"icmethod":6191,"Ġnorm":6192,"Ġnick":6193,"Ġnull":6194,"Ġndim":6195,"Ġnntool":6196,"itect":6197,"itel":6198,"uri":6199,"uratom":6200,"Ġdesc":6201,"Ġdesi":6202,"Ġdepends":6203,"etch":6204,"etsc":6205,"Ġoth":6206,"Ġoccur":6207,"ctor":6208,"Ġsli":6209,"Ġsha":6210,"Ġsites":6211,"Ġsalted":6212,"Ġsitel":6213,"Ġ112":6214,"Ġec":6215,"Ġem":6216,"Ġeas":6217,"Ġeveryone":6218,"Ġeffect":6219,"Ġdue":6220,"Ġdsize":6221,"Ġdifference":6222,"Ġinvalid":6223,"Ġinclu":6224,"Ġinverse":6225,"Ġindiv":6226,"Ġinside":6227,"andom":6228,"anage":6229,"anumber":6230,"anumer":6231,"Ġtheory":6232,"Ġ37":6233,"Ġ38":6234,"ssl":6235,"ssue":6236,"Ġbb":6237,"Ġbro":6238,"Ġbel":6239,"Ġbool":6240,"Ġbasic":6241,"Ġbook":6242,"Ġboth":6243,"Ġbrand":6244,"others":6245,"Ġkw":6246,"Ġlate":6247,"Ġlname":6248,"cessed":6249,"Ġmy":6250,"Ġmis":6251,"Ġmbe":6252,"Ġmost":6253,"Ġmobj":6254,"Ġmulti":6255,"Ġmouth":6256,"Ġmuch":6257,"Ġmanage":6258,"editor":6259,"edsettings":6260,"edException":6261,"Ġgoogle":6262,"Ġgzip":6263,"raper":6264,"ragment":6265,"ractor":6266,"Ġanc":6267,"Ġanal":6268,"iler":6269,"ilgrim":6270,"ortions":6271,"ross":6272,"rocar":6273,"ĠCh":6274,"ĠCit":6275,"ĠCan":6276,"ĠClo":6277,"ĠCall":6278,"ĠChoice":6279,"ĠCATEG":6280,"ĠCSR":6281,"Ġretrieve":6282,"last":6283,"lake":6284,"lazy":6285,"ĠTable":6286,"ĠTORT":6287,"Ġreturning":6288,"rian":6289,"fire":6290,"figs":6291,"Ġimporting":6292,"ĠNe":6293,"ĠNOM":6294,"ĠNAME":6295,"ĠNEG":6296,"ĠNetsc":6297,"ĠAt":6298,"ĠAls":6299,"ĠACK":6300,"ĠAvailable":6301,"ĠAuto":6302,"ĠACL":6303,"ĠAlessandro":6304,"ĠALL":6305,"ĠAccess":6306,"ĠATTRIBUT":6307,"oca":6308,"ocial":6309,"idn":6310,"idual":6311,"Ġisn":6312,"Ġisclass":6313,"Ġisnot":6314,"Ġisbits":6315,"romain":6316,"Ġoff":6317,"Ġofname":6318,"ĠGID":6319,"ĠGFile":6320,"ĠGUID":6321,"Ġasm":6322,"Ġasp":6323,"Ġascii":6324,"ĠSA":6325,"ĠSR":6326,"ĠSum":6327,"ĠSTD":6328,"ĠSITE":6329,"ĠSPEC":6330,"ĠSUITE":6331,"ĠSched":6332,"ĠSJIS":6333,"ĠSQLA":6334,"ĠSVNRevision":6335,"isList":6336,"isgression":6337,"isDict":6338,"Ġgets":6339,"ĠgetConfig":6340,"Ġgetsource":6341,"Ġgethostname":6342,"ĠgetCertAsPEM":6343,"ĠgetDirectory":6344,"ĠgetEncoding":6345,"Ġgetpass":6346,"ĠgetByteStream":6347,"ĠgetSystemId":6348,"ĠgetPublicId":6349,"ĠgetCharacterStream":6350,"ĠPO":6351,"ĠPath":6352,"ĠPlugin":6353,"ĠPerm":6354,"ĠPAT":6355,"ĠParticle":6356,"ĠPBD":6357,"ĠPIF":6358,"ĠPilgrim":6359,"ĠPortions":6360,"ols":6361,"ĠFName":6362,"ĠFir":6363,"ĠFore":6364,"ĠFSS":6365,"ĠFUL":6366,"ĠFind":6367,"ĠFROM":6368,"ĠFinderContainers":6369,"ĠFFBSi":6370,"Ġvs":6371,"Ġvotes":6372,"Ġvowels":6373,"ypes":6374,"ulation":6375,"ulerRuntime":6376,"Ġrdata":6377,"ĠrmFile":6378,"Ġrnm":6379,"Ġrandom":6380,"ationField":6381,"Ġfig":6382,"lopen":6383,"ersist":6384,"acur":6385,"acing":6386,"access":6387,"acher":6388,"veox":6389,"ĠLine":6390,"ĠLms":6391,"quid":6392,"quote":6393,"Ġ250":6394,"ĠIPlugin":6395,"ĠIProcess":6396,"ĠIssue":6397,"pply":6398,"ĠRes":6399,"ĠRLE":6400,"ĠRack":6401,"ĠRep":6402,"ĠROOT":6403,"ĠRFC":6404,"ĠRomain":6405,"unit":6406,"unha":6407,"unused":6408,"unix":6409,"unpack":6410,"unwrap":6411,"ado":6412,"ador":6413,"adim":6414,"adows":6415,"Ġhor":6416,"Ġhuman":6417,"Ġhwrt":6418,"licit":6419,"__.":6420,"Ġexact":6421,"ifp":6422,"Ġconclu":6423,"Ġcondit":6424,"istd":6425,"istics":6426,"Ġord":6427,"Ġresp":6428,"Ġresolver":6429,"asp":6430,"thoma":6431,"escri":6432,"Ġbehind":6433,"ĠDa":6434,"ĠDate":6435,"ĠDAT":6436,"ĠDisgression":6437,"ĠDescri":6438,"ĠOS":6439,"ĠOver":6440,"ĠOutput":6441,"ĠOpError":6442,"foExt":6443,"ginner":6444,"Ġ%}{":6445,"figures":6446,"nerp":6447,"Ġmapping":6448,"Ġmajor":6449,"Ġâĸģ\"/":6450,"Ġlib":6451,"Ġliteral":6452,"ĠMac":6453,"ĠMIT":6454,"ĠMapp":6455,"ĠMachine":6456,"ĠMozilla":6457,"Ġfileinput":6458,"Ġprobab":6459,"Ġprovid":6460,"Ġclassifier":6461,"getitem":6462,"getpelican":6463,"Ġ{(":6464,"Ġ{{":6465,"Ġ{}":6466,"Ġ{}\"":6467,"Ġtesting":6468,"schedule":6469,"science":6470,"scaped":6471,"sconfdir":6472,"ĠVDI":6473,"ĠVIC":6474,"ĠVBD":6475,"ĠVIF":6476,"ĠVLAN":6477,"Ġarange":6478,"Ġarrow":6479,"ĠEden":6480,"ĠEvent":6481,"ĠExp":6482,"ĠENO":6483,"ĠEditor":6484,"ĠERR":6485,"ĠEcu":6486,"ĠEND":6487,"ĠEscaped":6488,"ouble":6489,"ough":6490,"Ġalgor":6491,"Ġsetter":6492,"Ġsetters":6493,"ĠsetPassword":6494,"ĠsetUsername":6495,"ĠsetServiceParent":6496,"Ġsetlocale":6497,"ĠsetEncoding":6498,"ĠsetLe":6499,"Ġparty":6500,"ands":6501,"Ġchr":6502,"Ġwithin":6503,"verify":6504,"Ġcomput":6505,"Ġcompression":6506,"Ġstrutils":6507,"rying":6508,"composition":6509,"compile":6510,"pow":6511,"pool":6512,"policies":6513,"Ġapps":6514,"Ġapplied":6515,"ĠuserSet":6516,"Ġ}}":6517,"Ġ}}{":6518,"Ġunnamed":6519,"Ġundefi":6520,"Ġungettext":6521,"Ġunknown":6522,"ages":6523,"Ġzipo":6524,"endian":6525,"Ġyaml":6526,"Ġdirect":6527,"ogr":6528,"ĠWarning":6529,"ĠWork":6530,"ĠWILD":6531,"ĠWhen":6532,"ĠWhether":6533,"ipulate":6534,"argspec":6535,"Unicode":6536,"Ġpow":6537,"ocks":6538,"ockedError":6539,"hodConfig":6540,"ĠGuidObject":6541,"Ġprior":6542,"Ġprimary":6543,"Ġcontributor":6544,"Ġcontained":6545,"Ġbychoice":6546,"ARM":6547,"ARY":6548,"LEY":6549,"irs":6550,"ONE":6551,"ONAB":6552,"intations":6553,"integrity":6554,"integer":6555,"intainer":6556,"intosh":6557,"Listener":6558,"ListenerThread":6559,"ĠBi":6560,"ĠBran":6561,"ĠBootstrap":6562,"ĠBig":6563,"ĠBokan":6564,"ĠBrian":6565,"Ġexceed":6566,"gnments":6567,"Ġextend":6568,"Ġextends":6569,"Ġpref":6570,"assim":6571,"INCLUDING":6572,"INUM":6573,"ĠfailIf":6574,"umn":6575,"ality":6576,"ErrorHandler":6577,"Ġâĸģ'/":6578,"Ġâĸģ'\\":6579,"Ġâĸģ'('":6580,"Ġâĸģ')'":6581,"Ġâĸģ'?\\":6582,"SED":6583,"SEQU":6584,"Ġlogp":6585,"Ġlogic":6586,"0000":6587,"typical":6588,"Ġintegrity":6589,"Ġintbv":6590,"program":6591,"provider":6592,"ificial":6593,"Ġextract":6594,"Ġsyntax":6595,"ESSEN":6596,"dataset":6597,"Ġ41":6598,"Ġ43":6599,"Ġ44":6600,"Ġ46":6601,"Ġ47":6602,"Ġ48":6603,"Ġ49":6604,"Ġ401":6605,"Ġxvp":6606,"allback":6607,"ISO":6608,"Ġ52":6609,"Ġ53":6610,"Ġ54":6611,"Ġ55":6612,"Ġ57":6613,"Ġ58":6614,"Ġ589":6615,"Ġ101":6616,"Ġ102":6617,"Ġ103":6618,"Ġ104":6619,"Ġ105":6620,"Ġ106":6621,"Ġ107":6622,"Ġ108":6623,"Ġ109":6624,"Ġ1048":6625,"Ġnecess":6626,"Ġnegative":6627,"Ġcreatelinemark":6628,"opyright":6629,"ORIES":6630,"Ġtimes":6631,"Ġtimeout":6632,"Ġtimedel":6633,"Ġadded":6634,"twistd":6635,"parser":6636,"Ġpyutil":6637,"contains":6638,"Ġ!@":6639,"Ġstarted":6640,"Ġresulting":6641,"imer":6642,"urlencoded":6643,"Ġhowe":6644,"Ġhoneypot":6645,"charset":6646,"charToOrderMap":6647,"quested":6648,"antini":6649,"Ġaccount":6650,"Ġaccomp":6651,"ĠUID":6652,"ĠURI":6653,"ĠIndex":6654,"ĠInfoExt":6655,"usage":6656,"usands":6657,"ĠHex":6658,"ĠHOLDER":6659,"ĠHTML":6660,"Ġoutfilename":6661,"Read":6662,"Report":6663,"Region":6664,"Ġ61":6665,"Ġ63":6666,"Ġ66":6667,"Ġ68":6668,"Ġ69":6669,"Ġdicts":6670,"Ġranges":6671,"==\"":6672,"ServiceName":6673,"Ġfinal":6674,"Ġfinish":6675,"undle":6676,"Init":6677,"Invalid":6678,"Incorrect":6679,"LIGENCE":6680,"ENTIAL":6681,"KeyAs":6682,"Ġplugins":6683,"Ġanyhow":6684,"modules":6685,"Ġ```":6686,"ĠenvPream":6687,"Ġaddr":6688,"CHOIC":6689,"Ġerrorgeom":6690,"arying":6691,"ĠmsgLength":6692,"Ġtextfile":6693,"Ġbytefile":6694,"Ġarglen":6695,"Ġargparse":6696,"Decode":6697,"TRAS":6698,"Ġ83":6699,"Ġ84":6700,"Ġ85":6701,"Ġ87":6702,"Ġ88":6703,"Ġ89":6704,"Ġ91":6705,"Ġ92":6706,"Ġ93":6707,"Ġ95":6708,"Ġ96":6709,"Ġ97":6710,"Ġ99":6711,"Ġspacing":6712,"Ġspecial":6713,"Ġfeaturetype":6714,"Ġreadlines":6715,"Ġdocs":6716,"Ġcharfile":6717,"ALBase":6718,"Ġ16340":6719,"Ġoutputfilename":6720,"ToFile":6721,"minor":6722,"ministr":6723,"Ġurlparse":6724,"setServiceParent":6725,"Ġ2011":6726,"Ġ2015":6727,"Ġdistribute":6728,"Ġ121":6729,"Ġ124":6730,"ĠArrum":6731,"ĠSets":6732,"Ġscope":6733,"Ġ71":6734,"Ġ73":6735,"Ġ74":6736,"Ġ75":6737,"Ġ76":6738,"Ġ78":6739,"Ġ79":6740,"Ġencrypted":6741,"Ġencoded":6742,"dedOn":6743,"Ġupload":6744,"Ġupgrade":6745,"127":6746,"ASONAB":6747,"bindir":6748,"bindings":6749,"conv":6750,"connect":6751,"construct":6752,"console":6753,"configs":6754,"Ġchangeset":6755,"phinx":6756,"phanumer":6757,"Ġlegend":6758,"readheader":6759,"ĠRegra":6760,"ĠReader":6761,"ĠRequi":6762,"ĠRefs":6763,"Ġcompat":6764,"Ġpostfix":6765,"Ġpostgres":6766,"HOME":6767,"aster":6768,"usermatch":6769,"Ġsubplot":6770,"ĠCONTRIBUT":6771,"ĠCONNEC":6772,"ĠCONSEQU":6773,"Ġcomments":6774,"Ġinterpre":6775,"Ġinterval":6776,"Ġinteractive":6777,"Ġinternet":6778,"Ġdecipher":6779,"Ġdecdat":6780,"Ġcurrently":6781,"grouping":6782,"groupname":6783,"Ġdatalen":6784,"ĠOpenERP":6785,"ĠOpenEmbedded":6786,"Ġspecification":6787,"Configuration":6788,"baseName":6789,"baseError":6790,"ĠKeys":6791,"Ġcreator":6792,"Ġcreating":6793,"ĠfileNameToc":6794,"RET":6795,"exc":6796,"examples":6797,"experimental":6798,"Ġlogin":6799,"Ġimplementations":6800,"ĠDECSET":6801,"ĠDECRESET":6802,"ĠDECSLR":6803,"flavors":6804,"Ġdisk":6805,"Ġdisplay":6806,"Ġdiscla":6807,"Ġdisconnect":6808,"ĠXmlList":6809,"credentials":6810,"iling":6811,"Ġchecked":6812,"ĠAnd":6813,"ailsForm":6814,"posn":6815,"positive":6816,"DERR":6817,"keys":6818,"cia":6819,"ĠStart":6820,"ĠStop":6821,"ĠStates":6822,"compat":6823,"complete":6824,"Session":6825,"ĠDecode":6826,"ĠDecorator":6827,"sym":6828,"sys":6829,"sysconfdir":6830,"defs":6831,"Ġsuppose":6832,"generate":6833,"generator":6834,"ĠCommonXml":6835,"Comment":6836,"together":6837,"Ġinstances":6838,"Ġloca":6839,"Ġlocaliz":6840,"ĠINVALID":6841,"ĠINDIRECT":6842,"FileHandler":6843,"IProcess":6844,"classify":6845,"location":6846,"Ġends":6847,"Ġ'/'":6848,"Ġ\"./{":6849,"Ġ110":6850,"Ġ111":6851,"Ġ113":6852,"Ġ114":6853,"Ġ115":6854,"Ġ116":6855,"Ġ117":6856,"Ġ118":6857,"Ġ119":6858,"Ġ1998":6859,"Ġ1943":6860,"UserAdvice":6861,"notification":6862,"timeout":6863,"ysical":6864,"Ġcodes":6865,"tempest":6866,"SignConfigItem":6867,"many":6868,"itemap":6869,"Ġinputs":6870,"Ġbufsize":6871,"ĠSAXException":6872,"changeme":6873,"changePer":6874,"Ġrespects":6875,"ĠprepareParser":6876,"Expected":6877,"Exec":6878,"``.":6879,"lishLetter":6880,"ĠConsider":6881,"Ġorders":6882,"ĠprocessName":6883,"Ġhereby":6884,"CTS":6885,"Stack":6886,"gui":6887,"ĠUnicode":6888,"ĠUnique":6889,"ĠUnix":6890,"ĠUnclo":6891,"Ġpermit":6892,"ĠregisterOrg":6893,"ĠregisterNamed":6894,"ĠregisterUserAdvice":6895,"Ġshare":6896,"Ġshadows":6897,"Ġrdr":6898,"Ġsteps":6899,"contents":6900,"ĠCommonDefinesXml":6901,"Profile":6902,"Province":6903,"writeinfo":6904,"writeNetwork":6905,"Ġproto":6906,"Ġreasons":6907,"ĠAsync":6908,"ĠProject":6909,"ĠErrorHandler":6910,"ĠErrorDict":6911,"Ġserverlist":6912,"ĠQgsApplication":6913,"DEFAULT":6914,"DELEY":6915,"STDIR":6916,"THIS":6917,"ĠLOSS":6918,"ĠDOCU":6919,"ĠcompositionCall":6920,"poses":6921,"ĠdirectoryNetwork":6922,"\"),":6923,"oresSc":6924,"ĠfullNetwork":6925,"icalPos":6926,"Ġlatter":6927,"ĠEUCJP":6928,"Ġrawreply":6929,"ĠWeibo":6930,"ĠQgsAuthMet":6931,"EXCLU":6932,"EXTRAS":6933,"Ġshapes":6934,"Ġ157":6935,"ĠCOc":6936,"articles":6937,"2013":6938,"GRAM":6939,"TOOL":6940,"TOUCH":6941,"setting":6942,"Ġplural":6943,"Ġ247":6944,"pportedException":6945,"ĠLOGFILE":6946,"Ġ...}.":6947,"retrieve":6948,"retryable":6949,"ĠafterSc":6950,"ĠafterStepAdvice":6951,"ĠFuzzyInt":6952,"ĠbeforeStepAdvice":6953,"ĠManager":6954,"ĠManipulate":6955,"Ġprocesses":6956,"IServiceMaker":6957,"ĠHelpTextItem":6958,"Ġfindall":6959,"Ġdoesn":6960,"Ġterminate":6961,"Ġpublish":6962,"('\\":6963,"ContentHandler":6964,"callable":6965,"Ġnonlinear":6966,"Ġeventlet":6967,"Ġhqxer":6968,"Ġhqxifp":6969,"Ġresolves":6970,"ĠlinkTitle":6971,"Ġcommands":6972,"Ġcontinuation":6973,"REQUIRE":6974,"Ġreceiving":6975,"Ġfrozen":6976,"/>,":6977,"BytesIO":6978,"CEPTION":6979,"LenFeature":6980,"PASSWORD":6981,"UGH":6982,"does":6983,"Ġwhether":6984,"Ġreflect":6985,"Ġremote":6986,"Ġevalu":6987,"Ġevaluate":6988,"hookedsettings":6989,"ĠFlavorList":6990,"ĠFlavorNotFound":6991,"Ġexpl":6992,"ĠassertRaisesRege":6993,"Select":6994,"indexes":6995,"atingFileHandler":6996,"Ġ2020":6997,"Ġ233":6998,"Ġ2001":6999,"Ġ2006":7000,"Ġ2009":7001,"ssian":7002,"Ġbackup":7003,"Ġbackend":7004,"Ġbackground":7005,"Ġminor":7006,"rollius":7007,"ĠAlways":7008,"Ġtokens":7009,"ĠRunOptions":7010,"Ġstopall":7011,"Ġsimply":7012,"digest":7013,"Ġestimates":7014,"PasswordChecked":7015,"Ġengine":7016,"segmented":7017,"Ġtyping":7018,"Ġcolon":7019,"Ġ187":7020,"Ġenter":7021,"Ġentry":7022,"Ġentities":7023,"ĠSubmit":7024,"ĠSubclasses":7025,"ĠPROFANITIES":7026,"ĠPROFIT":7027,"ĠPROVIN":7028,"Ġnamespace":7029,"ĠorgCert":7030,"ĠCommentModel":7031,"ĠCommentDet":7032,"Ġlocaleconv":7033,"enarioAdvice":7034,"ĠIntegrityErrors":7035,"ClassProperty":7036,"LDFLAGS":7037,"ModelFactory":7038,"MENTATION":7039,"WORKDIR":7040,"forward":7041,"packages":7042,"Ġseparation":7043,"Ġcsvfile":7044,"Ġignores":7045,"Ġignored":7046,"Ġdestintations":7047,"Ġdowngrade":7048,"Ġancestor":7049,"ĠInitializ":7050,"LIBS":7051,"Ġsubscriptions":7052,"ĠPolicyFactory":7053,"UsernameChecked":7054,"Connection":7055,"Login":7056,"Looks":7057,"\\.\\-":7058,"writer":7059,"Ġquery":7060,"Ġrlecode":7061,"Ġrledecode":7062,"ĠroutineRegexp":7063,"SystemCommandEditor":7064,"SystemLoader":7065,"NodeAdminTupleAdvice":7066,"??'":7067,"AUTHOR":7068,"Response":7069,"SRCDATE":7070,"Update":7071,"ools":7072,"Ġutilities":7073,"Ġutcnow":7074,"Ġtruncated":7075,"Ġcertain":7076,"headers":7077,"Ġ214":7078,"Ġskipping":7079,"Ġsavefig":7080,"ĠCacheLockedError":7081,"ĠFormError":7082,"ĠIServiceMaker":7083,"Ġhandles":7084,"ĠDatapoint":7085,"ĠDatabaseError":7086,"Ġwebapp":7087,"ĠoriginalLine":7088,"Ġcorrectly":7089,"ĠEUCKRDistributionAnalysis":7090,"ĠEUCTWDistributionAnalysis":7091,"AMD":7092,"Impl":7093,"SOME":7094,"blocks":7095,"clc":7096,"Ġetc":7097,"inputfilename":7098,"itiveRatio":7099,"answer":7100,"Ġretrying":7101,"ĠSourceFactory":7102,"Ġfixed":7103,"Ġthreading":7104,"ĠDjangoItem":7105,"ĠDjangoUnicode":7106,"abcd":7107,"abcdefghi":7108,"Ġhexdigest":7109,"denceMat":7110,"archives":7111,"ĠStompConfig":7112,"ĠSAXNotSu":7113,"ĠprivateKeyAs":7114,"ootstrapHelperAdvice":7115,"982851":7116,"AttributeValue":7117,"APPWEB":7118,"CLIAdvice":7119,"FAKE":7120,"George":7121,"Premature":7122,"PROVID":7123,"PROFANITIES":7124,"openerp":7125,"pages":7126,"invoices":7127,"Ġpkg":7128,"Ġautoescape":7129,"Ġflask":7130,"Ġ'./":7131,"Ġ'..'":7132,"Ġ'...'":7133,"Ġmkdtemp":7134,"ĠCFc":7135,"ĠCOMMA":7136,"ĠApplicationRunner":7137,"ĠApplicationSession":7138,"ĠSyllableSeparator":7139,"Ġviews":7140,"ĠREASONAB":7141,"ĠDISCLA":7142,"getNetworkGroup":7143,"Ġzmqcontext":7144,"ĠArgument":7145,"Ġcopied":7146,"==========\"":7147,"PACKAGE":7148,"ĠskipTest":7149,"ĠskipException":7150,"+)/$\"":7151,"+)/\"":7152,"9092":7153,"BasicTests":7154,"COMPATI":7155,"Filtering":7156,"OpenSSL":7157,"OpenERP":7158,"cannot":7159,"download":7160,"duplicates":7161,"statement":7162,"Ġphysical":7163,"Ġcasts":7164,"Ġrestrictions":7165,"Ġdetection":7166,"ĠdependedOn":7167,"Ġdevelopment":7168,"Ġsomething":7169,"ĠbootstrapHelperSignConfigItem":7170,"rivate":7171,"ĠAdd":7172,"ĠAdministr":7173,"ĠAggreg":7174,"ĠGeometry":7175,"ĠGeoD":7176,"ĠSTDERR":7177,"Ġtopic":7178,"ĠFlask":7179,"ĠReminder":7180,"assertRaises":7181,"ĠOTHERWISE":7182,"ĠMarkup":7183,"ĠtestWidgetUsername":7184,"Ġarchive":7185,"Ġarchitect":7186,"ĠBEGIN":7187,"Ġsyllables":7188,"Ġexcluded":7189,"Ġexclusive":7190,"66666666":7191,"plotlib":7192,"ĠRetrieves":7193,"labels":7194,"ĠAttributesImpl":7195,"ĠProtocolObject":7196,"Created":7197,"CipherInit":7198,"CipherUpdate":7199,"DESCRIP":7200,"Hqxcoderengine":7201,"Hqxdecoderengine":7202,"IMUM":7203,"Locale":7204,"Rlecoderengine":7205,"Rledecoderengine":7206,"RetryableError":7207,"_,}":7208,"builtins":7209,"cyril":7210,"frac":7211,"fragment":7212,"runner":7213,"running":7214,"though":7215,"thousands":7216,"vinces":7217,"xffff":7218,"âĢĿ":7219,"Ġpidfile":7220,"Ġplaceholder":7221,"helpers":7222,"Ġbuiltins":7223,"rollRegion":7224,"ĠContentType":7225,"ĠContentHandler":7226,"ĠTimedRot":7227,"ĠApplications":7228,"xticks":7229,"xticklabels":7230,"ĠGDALE":7231,"ĠGDALBase":7232,"ĠScaling":7233,"ĠServer":7234,"ĠSerialize":7235,"ĠgetQNames":7236,"ĠgetQNameByName":7237,"ĠPpiObject":7238,"ĠLocator":7239,"Ġstaticmethod":7240,"Ġstatistics":7241,"ĠOrdered":7242,"ĠprojectName":7243,"ĠEnviron":7244,"ĠsetConfigId":7245,"openssl":7246,"Ġposition":7247,"Ġpositive":7248,"keeping":7249,"keepEng":7250,"periods":7251,"ĠBeam":7252,"ĠBecause":7253,"Ġpretxnchangegroup":7254,"Ġpretxncommit":7255,"precedes":7256,"precedenceMat":7257,"ĠURLField":7258,"ĠHttpRequest":7259,"ĠHttpResponse":7260,"Ġmaterial":7261,"Ġmaterials":7262,"ĠDefaultPerson":7263,"Ġinstantiated":7264,"CommandEditorPlugin":7265,"ĠOGRGeometry":7266,"ĠOGRGeomType":7267,"ĠCOMMENTS":7268,"getNetworkForConfig":7269,"getNetworkForDirectory":7270,"ĠsetStorePasswordChecked":7271,"ĠsetStoreUsernameChecked":7272,"ĠCommunicator":7273,"ĠCommunications":7274,"ĠRotationPolicyFactory":7275,"DONT":7276,"MESSAGE":7277,"PLv":7278,"Smith":7279,"Writing":7280,"YNC":7281,"biderman":7282,"cooldown":7283,"calibration":7284,"ignKey":7285,"martin":7286,"pattern":7287,"snowfall":7288,"toplevel":7289,"vendor":7290,"å°į":7291,"Ġthose":7292,"Ġpassed":7293,"member":7294,"Ġwhole":7295,"Ġrealm":7296,"Ġrepeated":7297,"Ġdetermined":7298,"Ġsaxutils":7299,"Ġsanitize":7300,"Ġelemwise":7301,"Ġgoing":7302,"ĠCACertificateFactory":7303,"ĠCustomFormatter":7304,"ĠTIMEOUT":7305,"ĠSingleLayer":7306,"ĠgetBootstrapHelperAdvice":7307,"ĠgetNameByQName":7308,"ĠgetServiceNamed":7309,"ĠgetValueByQName":7310,"ĠPhD":7311,"ĠFileSystemLoader":7312,"Ġverbo":7313,"ĠRedistributions":7314,"chronized":7315,"ĠDEFAULT":7316,"Ġmakes":7317,"ĠMINIMUM":7318,"ĠMENDELEY":7319,"ĠVERSION":7320,"ĠECProvince":7321,"INSTALL":7322,"Ġlogarithm":7323,"Ġnetloc":7324,"pretxnchangegroup":7325,"mitterBasicTests":7326,"DeviceInfo":7327,"Ġscheme":7328,"Ġscraping":7329,"conditional":7330,"Ġleading":7331,"ĠRecursiveMiddleware":7332,"Ġpercentage":7333,"ĠregisterCompositionAdvice":7334,"addLinkToFile":7335,"DEBUG":7336,"ĠSystemCommandEditorPlugin":7337,"ĠsignedConfigItem":7338,"TagValueAdvice":7339,"dailyprogram":7340,"monthly":7341,"Ġassociated":7342,"Ġdescribing":7343,"${}-":7344,"'^([":7345,"AuthorityFactory":7346,"BJAM":7347,"BUILD":7348,"Beginner":7349,"Cannot":7350,"CXXFLAGS":7351,"DRIVER":7352,"DTDHandler":7353,"EVP":7354,"FLICTS":7355,"FALSE":7356,"GNOME":7357,"GreekModel":7358,"Harrison":7359,"IgnoresSc":7360,"LARGE":7361,"LIST":7362,"Manager":7363,"MUTEX":7364,"MemoryPool":7365,"NFSSYNC":7366,"OctoPrint":7367,"SUFFIX":7368,"SubmitterBasicTests":7369,"TRUE":7370,"Url":7371,"aussian":7372,"authenticate":7373,"bliography":7374,"bitcoin":7375,"catalog":7376,"cryptography":7377,"emplo":7378,"folder":7379,"finite":7380,"hgext":7381,"issing":7382,"ioned":7383,"lots":7384,"lchemyModelFactory":7385,"mooth":7386,"mTypicalPos":7387,"numa":7388,"niscale":7389,"swf":7390,"sableBytesIO":7391,"zguide":7392,"æīĢåľ":7393,"Ġurlopen":7394,"destination":7395,"derer":7396,"designers":7397,"endeley":7398,"Ġtaken":7399,"Ġptraj":7400,"Ġassignments":7401,"Ġaffine":7402,"Ġseveral":7403,"Ġcaso":7404,"Ġfunctools":7405,"Ġ'????'":7406,"Ġ\"==================\"":7407,"Ġreached":7408,"Ġremind":7409,"Ġndims":7410,"Ġnntoolkit":7411,"uratomi":7412,"Ġdesireable":7413,"Ġothers":7414,"Ġeasy":7415,"Ġinversepower":7416,"Ġindividual":7417,"Ġbroken":7418,"Ġmbean":7419,"Ġmultiline":7420,"editorcollection":7421,"ĠCloud":7422,"ĠNOMINUM":7423,"ĠNEGLIGENCE":7424,"ĠNetscape":7425,"ĠAlso":7426,"ĠAutoscale":7427,"ĠATTRIBUTES":7428,"Ġisnotanumber":7429,"ĠSTDIN":7430,"ĠSPECIAL":7431,"ĠSchedulerRuntime":7432,"ĠSJISDistributionAnalysis":7433,"ĠSQLAlchemyModelFactory":7434,"isListOfProtobufMessages":7435,"isDictOfProtobufMessages":7436,"Ġgetsourcefile":7437,"ĠPermission":7438,"ĠParticleFiltering":7439,"ĠFirst":7440,"ĠForeignKey":7441,"ĠFSSpec":7442,"ĠFULL":7443,"ĠLinear":7444,"ĠLmsSync":7445,"ĠIssueSubmitterBasicTests":7446,"ĠResort":7447,"ĠRackspace":7448,"ĠReport":7449,"ĠROOTCA":7450,"Ġconclusion":7451,"Ġconditioned":7452,"ĠDATA":7453,"ĠDescription":7454,"ĠOverride":7455,"Ġ%}{{":7456,"ĠMapping":7457,"Ġprobably":7458,"Ġproviding":7459,"ĠENOUGH":7460,"ĠERROR":7461,"ĠEcuador":7462,"Ġalgorithm":7463,"ĠsetLevel":7464,"ĠuserSetTagValueAdvice":7465,"Ġ}}{%":7466,"Ġundefined":7467,"Ġzipoutput":7468,"ĠWILDCARD":7469,"ĠBranch":7470,"assimo":7471,"typically":7472,"ESSENTIAL":7473,"Ġcreatelinemarker":7474,"Ġtimedelta":7475,"Ġhowever":7476,"charsetName":7477,"ĠInfoExtractor":7478,"ĠHexBin":7479,"ĠHOLDERS":7480,"ĠenvPreamble":7481,"CHOICES":7482,"DecodeError":7483,"constructor":7484,"Ġsubplots":7485,"ĠCONTRIBUTORS":7486,"ĠCONNECTION":7487,"ĠCONSEQUENTIAL":7488,"Ġdecdatacur":7489,"ĠfileNameTocheck":7490,"ĠDECSLRM":7491,"Ġdisclaimer":7492,"Ġsupposed":7493,"changePercent":7494,"ĠUniqueAttributeValue":7495,"ĠUnclosableBytesIO":7496,"ĠregisterOrgAdvice":7497,"ĠregisterNamedNodeAdminTupleAdvice":7498,"Ġshadowsocks":7499,"writeNetworkJson":7500,"ĠDOCUMENTATION":7501,"ĠcompositionCallCLIAdvice":7502,"ĠEUCJPDistributionAnalysis":7503,"ĠQgsAuthMethodConfig":7504,"EXCLUDE":7505,"EXTRASPEC":7506,"ĠafterScenarioAdvice":7507,"ĠFuzzyInteger":7508,"REQUIRED":7509,"ĠassertRaisesRegex":7510,"ĠPROFITS":7511,"ĠPROVINCE":7512,"ĠCommentDetailsForm":7513,"ĠInitializes":7514,"ĠDjangoUnicodeDecodeError":7515,"ĠSAXNotSupportedException":7516,"ĠprivateKeyAsPem":7517,"PROVIDES":7518,"ĠREASONABLY":7519,"COMPATIBLE":7520,"ĠdependedOnServiceName":7521,"ĠbootstrapHelperSignConfigItemAdvice":7522,"ĠAggregate":7523,"Ġarchitecture":7524,"DESCRIPTION":7525,"ĠTimedRotatingFileHandler":7526,"ĠGDALException":7527,"ĠOrderedDict":7528,"ĠEnvironment":7529,"keepEnglishLetter":7530,"precedenceMatrix":7531,"ĠSingleLayerRule":7532,"ĠECProvinceSelect":7533,"dailyprogrammer":7534,"IgnoresScrollRegion":7535,"mTypicalPositiveRatio":7536,"æīĢåľ¨çĽ®éĮĦ":7537},"merges":["Ġ â","ĸ ģ","Ġâ ĸģ","n e","Ġ <","Ġ ,","l i","li ne","ne w","new line","d e","n t","Ġ (","Ġ )","i n","Ġ .","s e","s t","de nt","Ġ 0","r e","Ġ =","o r","a t","e n","Ġ t","Ġ p","Ġ a","Ġ se","Ġ :","Ġ c","o n","o m","Ġ f","Ġ i","e r","st r","in dent","de dent","l f","Ġse lf","l e","m e","Ġ '","str newline","Ġ \"","Ġ #","a r","Ġ [","Ġ ]","h e","Ġ 2","Ġ w","Ġ re","en c","a l","d om","i on","enc dom","i c","Ġ n","i t","u r","Ġ de","e t","m p","Ġ o","a me","c t","Ġ s","Ġ 1","Ġ e","Ġ d","Ġ in","u t","a n","Ġt he","Ġ 3","s s","Ġ b","o t","Ġ k","Ġde f","Ġ l","c e","Ġ m","e d","in g","Ġ g","r a","Ġa n","Ġi f","p e","Ġ\" \"","i l","Ġ _","Ġ\"\" \"","Ġ u","at e","ur n","or t","r o","se r","Ġ C","Ġf or","Ġi mp","Ġre t","l a","Ġ T","u e","Ġ +","Ġret urn","r i","f i","h o","Ġimp ort","Ġan d","Ġ N","Ġ A","o c","i d","x t","Ġi s","Ġ -","r om","p t","Ġo f","Ġ G","Ġa s","Ġ S","i s","Ġg et","Ġt o","Ġ P","Ġf rom","e st","o l","Ġ F","g e","Ġ v","y pe","o de","u l","Ġn ame","Ġn ot","Ġ r","n ame","at ion","ic e","Ġf i","l o","er s","de r","a c","t e","me nt","v e","Ġ L","o ne","q u","Ġ2 5","ar t","Ġ I","p p","at a","g s","Ġ R","e ct","u n","o d","b j","c h","a d","u re","b le","Ġ h","it h","v ice","li c","Ġ st","ser t","Ġt h","_ _","u le","Ġe x","u p","a se","o nt","Ġ= =","i f","Ġc on","la ss","i st","Ġ or","ĠN one","en se","e l","Ġas sert","Ġre s","Ġ_ _","m l","bj ect","a s","a il","t h","at h","me t","pt ion","a m","e s","qu al","r or","E qual","h t","t ype","Ġ *","Ġb e","Ġ D","Ġ O","ul t","f o","al ue","le s","g in","Ġ %","e y","N ame","fi g","u id","ne r","Ġm a","r it","Ġâĸģ \"","Ġ li","p i","Ġ M","Ġfi le","a ct","Ġp ro","e xt","Ġc lass","g et","Ġ {","a re","u b","Ġt est","s c","Ġ V","ic ense","b ut","r ot","re d","at ure","Ġl en","l u","s i","t er","Ġa r","ers ion","Ġ E","o u","Ġ j","re ate","Ġa l","Ġse t","Ġp art","an d","Ġc h","i me","o p","Ġw ith","v er","Ġc om","Ġo bject","Ġ str","en s","ĠL icense","r y","c om","p o","Ġ line","Ġa pp","Ġu ser","i se","a ble","Ġ }","Ġu n","a ge","r ue","Ġ @","Ġ z","or y","en d","e m","Ġ y","V t","Ġp Vt","Ġd ata","E R","Ġ ra","Ġd i","od ule","o g","w or","Ġ W","an ge","Ġ25 5","i p","ic t","p ut","ar gs","U n","ss ion","P rot","Ġp o","Ġe l","oc k","g ra","Ġp ar","k e","Ġ on","Ġ at","ho d","ĠG uid","lu gin","or m","Ġp ri","Ġc ont","Ġb y","A R","L E","met hod","rit e","i r","e nt","lo w","Ġel se","O N","r ror","Ġ X","i nt","l s","p er","fi le","str i","Ġth is","Ġpart ic","L ist","o ur","Ġ B","oc ol","Ġ25 3","Ġex ce","g n","l y","Ġse r","Ġe xt","ut il","v or","Ġp re","la vor","T I","a ss","le ss","el d","P pi","w args","Prot ocol","o w","Ġpartic les","I N","Ġf ail","t r","Ġfor m","ĠGuid Protocol","ĠGuidProtocol Ppi","u m","an g","ens or","Ġpri nt","a li","ĠT rue","Ġv alue","Un less","t t","ct ion","ac k","o f","Ġs i","Ġi t","it y","ct ed","E rror","Ġth at","e ature","Ġâĸģ '","al se","Ġk wargs","pe c","ro up","S E","q ue","Ġ' '","ut h","ce ss","Ġl og","Ġra ise","gra d","0 0","a mp","r an","t y","Ġi nt","Ġu se","Ġcon fig","f orm","p ro","I T","an ce","stri but","a in","u f","er vice","if ic","Ġassert Equal","Ġext ra","Ġfail Unless",") :","Ġs y","our ce","E S","Ġk ey","il l","d ata","in fo","re s","ĠG et","Ġ 4","Ġ x","in it","Ġt ype","act ory","ĠfailUnless Equal","a p","al l","I S","Ġ 5","Ġ \\","Ġ1 0","e ner","p en","Ġ ne","Ġc reate","op y","Ġ method","Ġc ase","et urn","l en","li f","O R","h is","re e","Ġt ime","Ġa d","on fig","Ġe lif","Ġm ode","Ġser vice","l ate","r st","t w","Ġw rite","ht ml","a b","i v","z e","Ġ Q","te m","- -","p ar","u ment","0 1","a g","a ve","p re","Ġp y","ing s","Ġv ersion","Ġal l","i ne","ra y","ul d","Ġfi rst","R U","c ont","Ġ !","Ġ he","li st","er ror","ac he","Ġst art","c k","o in","u mp","Ġres ult","Ġar gs","U T","a y","i m","r c","st ance","ur l","ĠT his","ĠF alse","util s","/ /","g ht","m d","m it","w w","Ġ ho","le ment","Ġr un","ch ar","lic y","i al","i ve","v ersion","at ed","Ġa re","Ġc an","Ġw h","wor d","que st","RU LE",": //","a nt","o k","en v","Ġa c","ĠT he","Ġapp end","Ġun der","ow n","Ġextra cted","i le","Ġ U","Ġw e","Ġn o","ri but","ho uld","ĠI n","Ġli st","ry pt","A N","E C","o re","u s","Ġ H","he ck","Ġo ut","Ġm odule","Ġj oin","Ġexce pt","of tw","oftw are","R e","s on","y n","Ġ 6","Ġ me","st em","Ġp ath","er m","Ġd ict","Ġr ange",". \"","A T","c ur","Ġc ls","sc ri","wor k","gn ature","= =","S ervice","Ġf in","Ġo s","Ġl z","Ġ* *","ub lic","Ġobject s","a der","f er","i eld","Ġf lavor","ĠR eturn","un d","if y","and l","I n","L I","a ult","f e","mp late","Ġe sc","ol le","th on","E N","K ey","t est","li ke","Ġp ass","Ġse ssion","ar i","scri ption","s g","Ġp lugin","Ġan y","andl er","M A","b c","m odule","Ġt ry","it ion","Ġs hould","ĠC om","ĠT est","ou nt","Ġform at","j ang","Ġt ensor","Ġw ill","jang o","a ce","h er","Ġ `","ĠS e","rypt o","D I","d i","n ing","p la","Ġ >","Ġ env","or d","Ġg roup","od ing","Ġad d","C H","b uf","c reate","e p","e w","p lugin","Ġ new","Ġ error","ar y","Ġm sg","F actory","re nt","Ġt ext","ar ray","ri ght","Ġby te","S S","d ate","u ct","Ġar g","Ġy ou","D e","T R","Ġ 8","Ġn ump","po int","i de","l at","u st","Ġ 9","at tr","Ġs p","Ġs pec","are nt","Ġcont ext","Ġnump y","X ml","n g","o und","p y","de x","Ġf eature","Ġre ad","Ġn ode","Ġd oc","fi x","ac l","ad ata","Ġma y","Ġch ar","Ġ! =","A L","c md","n al","Ġ1 6","Ġma p","Ġout put","Ġesc cmd","T o","T est","a x","m in","p on","Ġd jango","Ġb ase","ĠG ener","Ġst ate","Ġat t","Ġ ro","Ġ url","se t","er t","Ġ2 01","Ġk f","Ġh as","th er","Ġdi stribut","Ġexce ption","N U","h a","w ith","x ce","Ġc ur","ar get","Ġo bj","Ġ1 2","Ġdef ault","ĠA N","ĠA r","ĠS et","si ble","tt p","A d","m on","r ule","re ct","Ġp at","Ġs c","Ġm at","te xt","ĠI f","Ġpo licy","TI ON","g er","p ath","u g","Ġ 7","li ent","in stance","Ġc lo","Ġd o","ss age","met adata","am s","ver t","ari able","P I","U R","i mp","j son","Ġ enc","de d","Ġc opy","Ġ3 2","Ġu p","ĠG NU","ĠP ublic","Ġli mit","um b","Ġsy stem","ĠReturn s","ĠGener al","1 2","A S","a pi","b in","c on","c ount","p u","at or","Ġt mp","ut ure","il ter","ode l","Ġch ange","ali d","uth or","gnature s","xce ption","Ġclo se","H el","M E","N ot","a i","a pp","b o","b r","h ar","m and","p h","t ers","Ġ le","re ad","Ġp arent","Ġc all","ĠC opy","qu i","ĠR e","un c","Ġh ttp","ĠO R","Ġcom p","Ġpo st","ribut e","Ġdistribut ed","H O","a st","d ir","g ist","l l","u se","u ser","de n","at i","Ġt e","Ġt arget","Ġ' %","Ġs ub","Ġd type","Ġb ran","Ġif p","il d","ĠC ON","id get","Ġof p","ation s","Ġfi eld","lo g","ner s","Ġcom ment","Ġstr ing","ip her","Ġint er","F ield","i es","t p","t ings","se nt","ic s","ur ation","Ġde c","pe ct","Ġpar ams","Ġmode ls","pon se","Ġcur rent","umb er","A B","T ext","g roup","v al","re n","Ġc t","Ġi d","Ġi tem","Ġs o","Ġd at","Ġ- -","Ġh ave","ht tp","ĠO pen","red s","ens ion","Ġho st","Ġac cess","Ġjoin point","cur ity","Ġspec ific",". .","C onfig","M L","b ase","d a","o s","Ġ Key","Ġc re","Ġo ther","Ġs ource","ate s","lic ense","as h","Ġfile Name","ter n","Ġsi gnatures","amp le","Ġpy thon","ww w","pla ce","Ġchar act","ha pe","ai ners","O T","R E","Y ou","b y","e x","m b","v a","} \"","Ġ utils","Ġt ag","et ime","Ġs oftware","Ġb in","Ġl o","Ġl ock","Ġimp lement","ith er","ĠD EC","si ze","Ġal low","yn am","ĠAN Y","ĠCopy right","Ġbran ch","Ġdat etime",") .","2 2","R AN","b da","c he","f lavor","g th","o ut","q x","or g","Ġt erm","Ġre quest","Ġe ither","Ġd ate","Ġd is","Ġl am","Ġ+ =","ĠN ot","lic ation","ĠW AR","ir on","ĠX ml","ĠX ML","olle ct","Ġlam bda","A X","A r","G E","H E","T Y","V alue","b ack","c re","d oc","i li","o bject","w e","Ġc al","Ġc heck","Ġo ption","Ġo pen","ra pp","ho ice","ĠA n","ĠP l","ail s","ĠO F","po s","Ġon ly","cont ainers","Ġfin der","ew s","SS L","Ġenc oding","ĠWAR RAN","D ER","a k","c onfig","c ache","c ord","k ey","s pec","t work","v ed","Ġ J","Ġ You","Ġc o","on g","ar ch","Ġre qui","it ho","Ġd ot","Ġin it","Ġb ut","Ġdi m","per ty","stribut ion","Ġresult s","ĠSe e","imp ort","itho ut","S up","b al","c i","u al","Ġw ithout","mp ty","Ġis instance","ĠS t","un ction","com p","ĠW IT","Ġpar se","ass word","tr ing","ran s","res ult","Ġmode l","Ġhe ader","im al","lat form","Ġsp li","Hel per","ĠOpen SSL","C rypto","I d","O M","S e","U L","a le","c ode","d ition","v o","y p","ne d","li b","Ġw ar","Ġin dex","ac h","ĠR ule","ĠD e","Ġch ild","Ġz l","Ġdoc ument","Ġspli t","ĠOpenSSL Crypto","I D","c f","f uture","p k","s y","v alue","de f","in ax","se ssion","Ġf e","ar k","ic k","Ġde scription","Ġs u","Ġin fo","Ġm ath","Ġg ra","Ġg iv","ri b","ge ner","te mplate","Ġex c","Ġform s","ĠCom mon","ĠAr gs","rect ory","Ar ch","cf b","' :","C om","C ase","T AB","a es","c reds","g re","n der","t o","Ġ q","li ed","om e","ar g","Ġre nder","Ġde t","Ġin st","Ġin stance","Ġl oc","Ġm ust","fi les","ul l","lo at","ĠI N","fo o","ali ng","Ġuse d","par am","olle ction","Ġenv iron","buf fer","Ġpat tern","HO UT","gist er","Ġct xt","ili ty","Ġrequi red","ĠWIT HOUT","Arch List","\" '","F ile","I P","I s","L A","c lass","i gin","l oc","n own","p inax","s with","Ġ end","in d","re am","en ame","Ġc pu","Ġ' /","Ġ\" .","Ġw rit","Ġw rapp","Ġ1 1","Ġ1 9","Ġm ore","la g","Ġ- --","ĠP o","ers on","qu enc","ĠI tem","if f","Ġor igin","Ġpre fix","SE L","ert ific","license s","Ġdet ails","4 00","S et","T ype","T ensor","U ser","f low","i fi","n ot","o ot","p are","p Text","s ing","t ing","t ime","y s","ne s","re f","Ġt ree","Ġp latform","Ġc ode","Ġc ipher","Ġf n","Ġf ol","er r","he d","Ġu i","Ġimp lied","te mp","ĠI S","ĠI nt","vice s","stri pe","ĠB ase","tt ribute","ack age","pre sent","br ary","ren ce","che s","pos ition","8 22","D i","H andler","I L","S i","W idget","b ab","f il","f ace","h ash","m an","o pt","o ver","o buf","r ame","t ed","Ġ K","Ġt ra","Ġt rans","Ġa uth","Ġc le","Ġre ce","it em","ame ters","Ġin put","Ġb uf","ĠS AX","ol d","ch ange","up le","Ġres pect","ath er","Ġpar ser","Ġpre pare","Ġsy s","ES S","fe rence","Ġte mplate","Ġgiv en","gener ation","Ġ--- --","' t",". '","D AT","E x","F eature","G uid","O f","` `","d uct","f rom","i z","n k","p s","r ic","z y","li s","st amp","re q","or der","Ġc md","Ġf ound","ic h","ut e","Ġb ar","ot al","ing le","ĠC on","ho st","ĠS oftware","ol ve","Ġr ule","ve l","Ġor der","Ġpro file","Ġpro cess","TI ES","form ation","IT Y","ĠQ gs","Ġhe re","Ġno va","us r","Ġme as","bc rypto","Ġfeature s","Ġmap x","Ad vice","Ġup date","ati ble","4 0","C K","C T","C Name","C EN","F orm","F alse","P O","R O","S t","T rue","a ise","d ict","d ynam","f req","g u","l ock","o ve","Ġ Un","Ġp er","om et","Ġi dent","str ing","Ġre gister","Ġn um","Ġs h","Ġs up","ce nt","fi nes","id th","Ġname d","Ġr d","Ġ25 2","ad d","Ġst ep","Ġassert False","as on","Ġma in","Ġuser s","gra m","pro bab","Ġne twork","cont ent","Ġwh ile","Ġwh ich","Ġtensor flow","De fines","Ġcontext Helper","Ġcre ated","Ġinit ial","Ġdim ension","ĠCommon Defines","arg ument","Ġfol low","CEN SE","Ġsup er","probab ility","* -","A ME","C har","O r","P ro","S I","S tring","b s","d iff","i ze","m ain","n o","s rc","t d","v is","w er","w rite","re ak","Ġp rot","Ġw idth","Ġre ason","al low","ut f","Ġb od","Ġb reak","Ġl p","Ġl ast","ri m","ĠA s","Ġ- *-","ĠP ro","ĠP erson","ĠF ound","Ġv ar","name s","Ġh andler","Ġcon form","Ġcon vert","met ric","Ġma ke","Ġâĸģ\" %","Ġli bcrypto","ĠV alue","ĠE rror","Ġline s","Ġun it","Ġy our","Ġcont ent","Ġser ver","res ponse","Ġstart swith","yn c","Ġme ssage","Ġ` `","uthor ity","use d","OT E","Sup ArchList","ertific ate","ys is","ĠQgs A","dynam ics","A nal","D E","E D","I B","R eturn","S T","T H","X X","b e","b ran","c a","d ay","e g","f f","g ing","h ing","j a","m ail","n umber","o ke","p b","r on","t able","u age","v ide","Ġc or","le te","Ġw ord","Ġre present","Ġs ock","Ġs ingle","Ġin formation","Ġm od","ĠA ll","ve nt","ĠL O","Ġassert True","ĠD O","ĠM odel","Ġpro perty","si red","ĠE xception","Ġcom position","po se","ER N","Ġdi rectory","ĠX en","Ġlog ger","Ġconfig uration","par se","Ġ! /","In fo","Ġtensor s","attr s","py thon","Ġ201 7","Ġmat ch","stribution Anal","dition s","Di stributionAnal","IL ITY","vis ion","ĠFound ation","Ġsock et","DistributionAnal ysis","\" )","1 9","A PI","F I","F or","F lag","K E","S G","b ug","g ment","i ew","o res","p assword","v ar","v alid","in ja","re ss","Ġse e","Ġc lient","Ġf ull","ar d","ar ser","Ġre place","ic al","ic ode","Ġde vice","Ġde bug","et work","Ġthe re","Ġl at","Ġm ark","Ġu g","ĠC har","ĠT ensor","ĠA ttribute","ĠF actory","ĠF OR","Ġr len","ont ent","Ġpro gram","ĠV ariable","ĠE U","Ġstr uct","com ment","Ġra w","ĠW e","ĠW rite","ock er","ang ed","ang uage","Ġlog ging","amp les","ĠGet String","len gth","Ġservice s","ay s","EN T","CH AR","lat iv","Ġro ot","Ġsc aling","con d","Ġlo ad","Ġimplement ed","Ġallow ed","ĠAn sible","ĠWARRAN TIES","cord ing","Set tings","Si gnature","Ġtra ce","item s","Of List","ĠQgsA uth","bran ches","ĠGetString OfList","' ,","A TI","E X","E n","I O","N etwork","S y","S TR","c rc","f ter","i ssion","i que","n s","p ace","s ub","s age","t he","v en","w ise","x n","Ġ util","st ates","at ive","Ġp ub","Ġp erm","Ġa x","Ġa bs","Ġse cond","Ġf il","Ġi ter","Ġs hape","Ġ1 5","Ġd ump","ut ine","Ġl a","Ġl param","Ġl anguage","ĠC O","la ble","ĠT ype","ĠF ree","lo bal","ĠL I","art ic","red ict","Ġset tings","op s","Ġapp lication","Ġuser name","ali z","Ġvalue s","Ġsi x","ĠIn put","MA IN","DI D","Ġerror s","Ġcharact er","Ġcharact ers","mb ol","quenc e","Ġbod y","Ġrepresent ation","Ġmod ify","ĠDO MAIN","Settings Widget","2 01","G R","P E","S C","T O","c ap","f n","j ect","p ache","t ra","u z","v m","} ,","se tt","st ant","at ch","at us","Ġp l","Ġc rc","Ġf info","Ġf ilter","str ip","le d","Ġ2 4","dom ain","it or","Ġo p","Ġe ach","Ġd len","Ġk nown","Ġl ab","ĠC N","ĠC reate","ĠT HE","ĠN ode","ĠN ews","Ġv ariable","Ġv alid","ac ity","te s","pp ort","ad min","Ġst ream","type s","fo re","ĠM et","ĠE V","em ath","AR TI","per cent","ific ation","Ġne ed","Ġwh en","== ==","Ġflavor id","Ġ> =","plugin s","TR IB","Ġatt rib","user name","ĠCON F","Ġinter face","Ġitem s","Ġterm s","ci i","result s","old own","aise s","ĠAs sert","Ġconform To","ĠValue Error","ĠLO G","ĠXen API","Ġlat er","ĠQgsAuth SettingsWidget","uz zy","Ġlab el",") ,","5 6","G S","I tem","N ode","N ESS","R aises","a gs","c imal","e ded","i ght","o od","p ort","s v","s ource","u uid","x p","} .","ne xt","Ġ. ..","se curity","re t","en api","Ġa fter","Ġse curity","Ġc oding","Ġc hoice","Ġc ollection","Ġf ro","Ġf unc","Ġf rame","er os","it s","Ġde sired","Ġe ven","Ġg ather","ĠT O","ĠF eature","ĠF IT","ĠF uzzy","ĠL i","one nt","un k","Ġex ist","el pText","Ġbe fore","ĠD ict","rit y","ĠM an","ĠM ode","ĠM ER","Ġpro ce","si ve","Ġj inja","Ġal ong","Ġstr oke","Ġcont ain","Ġpre ference","IN E","Ġkey s","IS ervice","AN TAB","ĠH elpText","Ġfin d","fer red","ĠSe quence","DI R","CH ANTAB","Ġarg ument","Ġatt ribut","Ġdo es","den y","Ġterm in","ollect d","comp atible","vo id","temp t","eg rity","sub scription","Ġpub lis","Ġperm ission","artic le","ĠNode List","ARTI C","ĠFIT NESS","ĠMER CHANTAB","ĠMERCHANTAB ILITY","( '","A s","C ER","C ontent","S ource","S ome","_ '","c al","e ssage","f act","h andler","h qx","m y","o le","v i","ne ction","Ġt otal","Ġf ree","Ġf unction","str ap","ar ning","Ġw idget","Ġw td","Ġn on","Ġde n","Ġs a","Ġs ort","Ġe vent","Ġg over","pe cted","ĠA pache","ĠP UR","ĠP ARTIC","Ġh qx","if fe","Ġcon stant","ist ed","Ġres ponse","Ġres olve","as k","as cii","ult ip","Ġma x","Ġli nk","Ġpro duct","Ġclass method","Ġar ray","Ġj son","Ġcom mand","Ġun ique","Ġz eros","Ġy ield","Ġpar ameters","Ġpri v","Ġcont in","Ġext ension","IN D","Ġ4 0","Ġmethod s","char s","ĠTest Case","Ġatt ribute","TION S","RE Q","ollect or","Ġco oldown","UL AR","ick le","Ġgra ph","Com mand","Ġwrapp ed","ifi er","ĠK IND","Ġrece iv","Feature Flag","iz ed","PO SE","Return s","cap acity","ĠMet a","Ġcollection s","Ġfro z","CER T","ĠPUR POSE","ĠPARTIC ULAR","iffe rent","$ \"","' s","/ >","6 6","A DER","B y","B ug","C E","C heck","D EC","L en","N ews","P A","P AT","P arser","R C","U G","b t","c p","c lu","d o","e c","f ul","f loat","i re","i od","v ers","v ail","w ays","} -","Ġ metric","in der","or k","Ġp t","Ġp w","Ġc li","Ġc ho","Ġc ron","Ġf actory","Ġf loat","le ted","Ġw he","Ġre f","Ġre m","Ġre cur","Ġre di","Ġn ct","Ġo ne","Ġo ver","Ġo bt","Ġe st","Ġe val","ra nt","Ġan sible","ro w","ĠC onfig","ho ok","Ġ- >","ĠF lavor","ice s","ve lo","ect ion","Ġst ore","Ġex p","Ġ== ==","Ġassert Raises","ĠO GR","Ġli nal","ĠV iew","Ġpart s","Ġch anged","ĠLicense d","Ġdi r","Prot obuf","int er","ĠB AS","stribut e","Ġne xt","Ġne eded","Ġad vices","pre ss","cont ext","word s","Ġwe ave","LI CENSE","Ġpass word","ace s","pla in","De ferred","TR A","Ġsp aces","AL L","PI C","Not ify","Ġfield s","Ġdec imal","Ġbin ascii","ĠDEC SEL","Ġcal c","Ġoption s","ĠWARRAN TY","Se le","Ġsu pport","ĠPo int","ĠBase Factory","DAT A","Ġmeas ure","rim ary","var s","sett ings","Ġknown Bug","ĠLi brary","Ġpublis hed","fact or","vail able","Ġredi stribute","Ġobt ain","Ġ==== =","Ġlinal g","ĠView Config","ĠBAS IS","\" ^","2 00","2 56","D O","E xception","F LA","I C","L icense","M P","N one","P ath","R ect","S cre","T ab","U P","Z E","c ho","e ad","e red","f unction","g en","i x","i oc","j s","k wargs","l lable","m ur","m ory","m ock","m ant","n d","o st","p ing","s In","x fe","Ġ Unless","Ġ domain","li ance","in ce","in ation","in dex","at ing","en Char","Ġp ort","Ġa bo","Ġa gre","Ġa ioc","Ġse arch","Ġc api","Ġf uture","Ġ2 0","Ġ2 3","Ġ2 00","Ġre st","al ly","Ġn p","Ġn umber","Ġs ample","Ġe mpty","ut o","ss i","Ġb ack","Ġl d","Ġm in","Ġg ener","Ġu sing","ro l","ser ved","ĠC heck","ĠC UP","la y","ri x","ĠA l","Ġget T","Ġto k","ĠP ar","ol ute","Ġv ide","ul ate","ĠL C","ĠR ect","ĠR un","lic able","Ġst op","Ġex press","ense t","th day","Ġbe am","ĠV ersion","Ġset up","Ġset ting","po licy","Ġapp licable","ĠW SG","ir thday","Ġsi mp","Ġ'' '","Ġuse ful","ap ache","IS TRIB","Ġtime stamp","UT H","Ġho pe","Ġho ok","ial s","Re quest","AT E","DI TIONS","di g","ust om","Test s","Test Case","UR L","Ġlimit ations","Ġle mur","unc al","Ġcomp liance","ĠCON DITIONS","base s","ynam ic","HE ADER","object s","spec s","Ġwar rant","ach ine","Ġwrit ing","Ġtrans late","ĠCon vert","Ġident ifier","SI ZE","Ġunit test","FI LE","Ġabs olute","Ġla w","ĠInput Source","ĠEV P","ĠAssert Scre","Ġtermin al","Ġpermission s","Ġgover ning","Ġcontin ue","Ġreceiv ed","Ġfroz enset","Check ed","DEC SEL","Ġest im","ĠConfig uration","Rect Equal","mant ics","sIn RectEqual","enChar sInRectEqual","Ġagre ed","Ġaioc lient","ĠWSG I","Ġwarrant y","ĠAssertScre enCharsInRectEqual","' \"","2 3","A LI","D ISTRIB","F REQ","O F","P assword","R ATI","T erm","U TION","U sage","a ke","b ar","c lient","e ger","g h","i o","i Term","m ath","n ode","o se","t ies","w are","x A","Ġ en","Ġ right","Ġ utf","Ġ< =","in a","se ction","se gment","en ari","Ġt ail","Ġt yp","Ġse en","Ġc ol","Ġc ount","Ġf name","Ġ' __","Ġ' .'","Ġ\" %","he x","Ġ2 2","Ġw ork","Ġre lativ","ur ned","mp Path","Ġs ame","Ġ1 8","Ġe nt","Ġd one","Ġd ns","Ġd ynamic","an sible","Ġg e","Ġg u","Ġg en","Ġg lobal","Ġret urned","ĠT e","ĠT o","ri e","ĠN OTE","ĠS ub","ĠS ervice","ĠP RO","ĠF rom","Ġname s","der r","pp lication","Ġh ass","Ġst amp","up date","ist s","Ġor g","th ing","Ġ% (","Ġfile Ex","Ġpro files","Ġlen gth","si x","ter al","ĠE x","Ġal ways","Ġra x","put e","gn u","IN G","ĠGuidProtocolPpi Xml","ĠassertEqual s","Ġx ml","OR DER","ĠQ ue","Ġhe l","Ġrun ning","ĠU se","Re ge","Re gist","ĠCom ment","Ġ12 7","12 8","ex ample","Ġlock er","GE T","TY PIC","Ġcal led","sy stem","Ġfe ed","Ġmath util","TAB LE","Ġinst ead","Ġloc ale","Is Sele","Ġwrapp er","ĠInt egrity","fil er","fil ename","Form at","argument s","ca use","Ġconfiguration Tab","\") ;","For Name","KE Y","ĠAttribute List","Ġtrace back","En c","tes IO","Ġproce ed","PAT H","Ġwhe re","Ġmeasure ment","FLA GS","lay er","ĠgetT mpPath","ALI D","DISTRIB UTION","RATI O","enari o","Ġrelativ ize","ĠfileEx ists","TYPIC AL","IsSele cted","ĠIntegrity Error","ĠconfigurationTab IsSelected","ĠgetTmpPath ForName","( [",") \"",") '","/ $\"","1 3","1 6","4 8","C L","C lass","E lement","G ES","G ood","L D","M odel","M ENT","N E","N AME","O bject","P P","R I","T uple","V E","W OR","\\ \\","a ned","b b","d le","d ing","f or","f ilter","g b","l der","m s","m odel","p ack","p ay","p ublic","p ackage","r src","s se","t ml","u il","x y","Ġ metadata","Ġ err","line s","dent ials","Ġt w","Ġp redict","Ġa ct","Ġse ction","Ġse par","Ġc sv","Ġf p","Ġi gn","Ġre po","Ġre set","Ġn s","Ġde st","Ġe mail","Ġd p","Ġd on","Ġd own","Ġ3 0","Ġk ill","Ġm ock","Ġm ultip","Ġan ce","Ġu id","ĠC Name","Ġfor ce","fi eld","ho lder","id dle","xt x","is h","ĠP n","ĠP y","ĠF ield","ĠF Info","Ġr v","lo ad","ment al","ĠR oot","ure d","Ġh tml","lic ies","Ġth en","__ '","Ġres ource","act ive","po wer","able d","Ġz n","end ing","em ail","Ġat tempt","Ġcont rib","ĠB y","Ġpre sent","Ġlog py","Ġint o","Ġconfig Id","pro f","uf fix","pre ssion","ay er","word count","ĠIn c","ĠIn it","Re ader","Ġlz P","In put","LI B","MA CH","min Tuple","Ġbase d","set up","Ġhas attr","Ġ12 8","Ad minTuple","ati o","Ġsub scription","ĠDEC SC","out ine","ĠXML Reader","ĠPo licy","User name","oot strap","Ġcle aned","ĠUn used","Ġlp z","Ġlp xn","19 2","ĠChar Field","Ġfil ters","Ġvariable s","ĠMan ual","Ġden y","Ġsa ved","Ġhqx data","Ġrem ove","dig its","Ġestim ate","ĠWSGI Request","23 12","ĠFrom Xml","Regist ered","pay ment","ĠDECSC A","0 3","1 1","B loc","C on","C hoice","E L","L o","N OTE","O L","P lugin","P rimary","R un","T W","T ER","U B","U N","V ER","\\ \"","\\ .","a it","a uth","c og","f eature","h n","l d","m er","m atch","n on","n ized","p l","p rot","r unc","s omet","t in","t ag","u nt","u ate","w rit","Ã ¼","Ã Ń","Ġ /","Ġ qu","ne twork","li ng","li teral","st atus","or ator","Ġt ags","Ġp prof","Ġc reds","Ġc ustom","Ġf o","Ġf ill","Ġ2 8","Ġw ant","Ġre cord","ion s","Ġde l","Ġo pt","Ġs rc","Ġ1 00","Ġe lement","Ġd ifferent","Ġthe y","ss u","Ġb ad","Ġdef ine","Ġm achine","ro cess","ĠC ont","ri nt","ho w","pt r","ĠG B","ĠS up","ĠS tring","Ġr le","Ġr strip","Ġfi les","ĠL es","ĠI mp","ĠR ight","ith ub","Ġex pected","Ġex ec","Ġcon ditions","Ġres hape","ption s","Ġbe cause","ĠO K","Ġpro vide","ext ra","Ġcom mon","Ġun icode","Ġz f","Ġpar sing","ĠX XX","gn al","ly Registered","Ġser vers","um my","Ġsi ze","pro cess","pro filer","Ġsy mbol","Ġx enapi","ag er","ache L","Ġac cording","ĠU S","rypt ed","ĠH ash","Ġesc io","Key Test","Ġadd ress","Ġnew lyRegistered","Ġro les","Ġro utine","Ġ201 6","ug h","Hel pText","bo ok","ĠRe served","log p","Ġcomment Bloc","Ġinter nal","Ġct x","Ġbin hex","cre t","doc s","ĠJ IS","Sup M","Ġwar n","Ġindex es","def ault","File Name","Ġwrit emath","Tensor Signature","ĠInt er","Ġcle an","Ġrece ive","DAT E","lock ed","Ġper iod","Ġsh ut","add ress","ertificate Factory","vide o","ĠTensor Signature","Ġload s","EX TRA","Sy stem","Node AdminTuple","ĠTO DO","ĠPar ameters","node s","Ġgu ide","ĠTe mplate","rie ve","Rege xp","Ġkill words","iddle ware","ĠBy tesIO","MACH INE","ĠManual Primary","NOTE Q","cog nized","ĠLes ser","ĠRight s","ĠHash able","Ġwritemath id","ĠManualPrimary KeyTest","! \"",") )","/ \"",": \"","> \"","? ?","A UTH","C ollection","C ollectd","D S","E B","F low","G IS","H ER","J o","K ERN","M et","M essage","N O","P arent","Q Name","R es","S te","S RC","T D","T P","T his","T TP","U p","_ :","_ {","a ml","c red","c pu","d im","e mpty","e book","g ol","g ithub","i aliz","l g","l an","m a","m ax","n or","n ow","o ol","r b","r ong","r ices","r atio","s o","s u","s parse","u ild","w h","w ap","w ard","w ire","x a","Ġ &","Ġ ~","Ġ ut","Ġ quest","ne ct","li nk","de vice","de lete","se mantics","re ng","Ġt uple","Ġt ask","Ġt runc","Ġp a","Ġp ack","Ġa g","Ġa uthority","Ġse cret","Ġc ert","Ġi m","str y","str uct","le ase","Ġ' >","Ġ\" {","Ġ\" __","he ader","Ġ2 1","Ġw ait","Ġo w","ame ter","ct x","Ġs k","Ġs um","Ġs ave","Ġs uffix","Ġd b","Ġthe m","Ġb et","Ġb lan","Ġg id","Ġu s","Ġu uid","ate g","ate x","ro utine","ĠC acheL","ĠT mp","ri de","ri es","ri gin","ĠN ow","ĠA uthority","Ġis file","Ġas yn","Ġas ync","ĠS hould","ĠS OF","Ġget L","ĠF orm","ĠF ilter","ĠI Service","pp er","ĠR et","Ġh and","lic an","__ \"","Ġex amples","Ġcon version","Ġcon nection","ail ure","Ġbe gin","ĠD ata","Ġpro per","Ġtest s","lu m","Ġar t","ou s","com pute","Ġun pack","Ġdi vision","Ġpo licies","Ġpar ameter","Ġat tr","ĠGuid Value","AR E","Ġpartic le","Ġsi gnal","00 0","Ġx s","Ġ5 0","Ġservice Name","ab s","list ener","ant om","Ġac l","Ġwe b","ĠIn valid","Ġmodule s","Service Parent","Ġany one","MA X","ĠCom mand","di ent","di stribution","Ġdefault s","Ġpat s","Ġmat rix","Ġmat rices","Ġcall back","Ġte mp","group s","http s","Ġcre dentials","place s","place holder","Ġtag Value","22 0","ĠNot ify","we b","ci o","ual ly","code reng","ĠDe cimal","ĠDe velo","sy mbol","Ġgra dient","Is Checked","Ġ19 40","Ġorigin al","ifi ed","Guid Type","host name","CK R","CT W","St art","ove s","Or g","TH ER","Ġcor rect","ĠTensor Flow","ĠEU CKR","ĠEU CTW","ĠLI CENSE","Ġframe work","Ġargument s","Ġattribut ename","/> .","Len non","cp us","}- {","Ġrecur sive","Protobuf Message","Ġsimp le","gh i","segment er","Ġtyp ical","Ġge om","ĠTo Xml","uil tin","Ġance stry","ĠInit ial","TW ARE","unt ime","ĠXXX X","Ġguide line","Jo hn","KERN EL","Ste p","gol lum","Ġquest ion","Ġblan k","rigin al","Ġasyn cio","ĠSOF TWARE","Ġattr s","codereng ine","% (","' )","( ):",") ([","0 8","2 4","= {","A M","C ert","F rom","I mp","L O","N o","O ptions","P Y","R EC","S O","S ON","a ile","a uthor","b lock","c l","c s","c ipher","c ores","c ulate","d s","d itor","e re","e ep","f ault","f inder","g ion","g over","g mail","i ed","i bo","l ation","l ated","n lg","o y","o bj","p red","r xtx","s h","s instance","s pect","s hape","t otal","t xn","w arning","} '","Ġ nt","Ġ et","Ġ< <","de leted","nt ic","nt ax","in put","se lf","st er","st ep","re lativ","Ġp ol","Ġp age","Ġp ackage","Ġc a","Ġc ore","Ġc ollector","om p","Ġf get","er y","le ct","le ep","me di","me ssage","Ġ' -","Ġ' \\","he mer","he ntic","Ġ2 7","Ġw rong","al culate","Ġn ow","it e","it ive","ur ing","Ġo lines","Ġo ld","Ġs ince","Ġs leep","Ġ1 3","Ġ1 7","Ġd uring","Ġin vo","Ġin spect","ut hentic","an s","an y","Ġ3 3","Ġb it","ot e","ce pt","Ġm ocker","Ġm oves","ed Error","ser ver","ĠC L","ĠC lass","ĠC alculate","Ġret ry","ĠN O","ĠN o","ĠN UL","ĠA PI","ĠA uthor","ĠG ather","ĠS ource","ol ver","ĠF or","ĠF ailure","Ġr file","Ġfi x","ĠL ist","ĠI t","ĠR UN","Ġst ill","Ġst atus","Ġst derr","Ġth read","Ġex it","if act","Ġres ort","as ic","th read","met a","Ġbe en","ĠD jango","Ġli brary","Ġclass ify","Ġ{ '","sc ores","si gn","ĠE X","Ġj ust","Ġcom mit","com pose","end s","Ġra vel","og ger","ip y","Ġpo ol","Ġpo wer","Ġpo ssi","ĠGuid Type","Ġcont rol","Ġpre vi","ow el","Ġit s","res pon","ĠGet CName","ĠGet SupArchList","Ġ\\ \"","Ġad min","ab c","Ġversion s","Ġhe x","Ġunder scores","ĠU SE","ribut es","Ġlist ener","Ġ6 0","Ġfin ally","EN DS","test s","Ġbyte s","SS WOR","To Enc","Ġbase s","Ġstate s","ĠAN D","Ġsc ipy","12 3","count er","br and","ĠRe quest","Ġhttp s","den ce","Ġsub mit","Ġdec data","val uate","Ġso ap","base d","Ġimplement s","out put","we en","ĠJ Collectd","arch ive","ĠSt omp","Ġparse d","Ġheader s","Ġwar ning","def ghi","gre ssion","ĠIN TER","loc al","time stamp","Ġbuf fer","ĠSAX Not","Ġrule s","PO ST","Ġnamed NodeAdminTuple","Ġrd len","Ġfollow ing","Or der","Ġprot ection","ĠPro cess","Ġcor respon","ĠChar DistributionAnalysis","Ġiter items","Ġpl t","Ġvalid ation","Ġchoice s","unk nown","Ġstroke list","Ġattribut es","Ġpriv ate","Ġpriv ile","clu de","Ġcho ose","Ġabo ve","Ġcol or","ĠSub Factory","CL U","sse s","Ġsection s","Ġcsv row","Ġmultip rocess","ootstrap Helper","ĠWSGIRequest Handler","writ emath","Ġsrc path","HelpText List","Ġwarn ings","ĠInter face","Ġshut ting","su bject","Ġow ner","Ġbet ween","ĠgetL ogger","Ġbegin ning","Ġproper ties","aile d","gover nor","Ġnt path","relativ ity","medi ate","hemer al","ĠRUN CHAR","ifact s","Ġpossi ble","SSWOR D","ToEnc rypted","Ġmultiprocess ing","( ?","9 8","> >","> }","A ttribute","A PP","C ON","C LI","C TION","C IP","D B","D ict","F A","F E","G e","I G","L R","L in","M M","M ap","P re","P ackage","P RO","P DATE","Q L","R IP","T h","T AR","T ERN","V ariable","V ID","Y aml","] +","_ %","` .","b ort","b are","b irthday","c heck","d st","d al","d ic","d an","d is","e xception","f g","f lag","f rame","g ed","h ers","i Name","i ali","i mental","l nlg","m q","m t","m ac","o z","o pe","o og","o uld","p art","p age","q names","r type","s or","s ave","s pace","s ole","s ina","t en","t mp","t arget","t ags","x ml","x enapi","Ã µ","Ġ er","Ġ ens","Ġ que","ne yp","li nt","de fer","de scription","nt il","nt ity","in vo","st ion","st ed","st art","st path","at s","Ġp k","Ġp ut","Ġp tr","Ġp ublic","Ġp ast","Ġa vailable","Ġa uto","Ġse ri","Ġse nd","Ġc mp","Ġc used","Ġc fg","Ġf la","Ġf frame","str oy","me as","me mory","Ġ' .","Ġ' ..","Ġ' _'","Ġ\" '","al man","it er","it ies","et ter","ct op","Ġs how","Ġe p","Ġe of","Ġe ps","Ġd ummy","Ġd stpath","Ġin p","Ġin active","Ġ3 1","Ġ3 6","Ġb irthday","Ġb uild","ot ation","Ġl strip","Ġm k","Ġm lnlg","ra se","ra ise","ra ph","pe lican","il va","Ġu ntil","ort Error","ro le","ro ot","ro ugh","ĠC F","ĠC OM","la b","Ġreturn s","ĠN ame","ĠN OT","ĠA M","ĠA ct","ĠA SG","ĠA pplication","ĠA bort","id den","ĠS y","ĠS tr","is ol","Ġv i","ode d","Ġname list","Ġnot ice","Ġnot ebook","lo b","lo gin","ment s","ĠI D","pp ing","ĠR E","od List","up lic","if ference","Ġcon f","Ġcon n","Ġcon nect","el l","as se","es ca","ĠD en","ĠD IS","ult i","Ġma ze","ĠM essage","Ġpro c","Ġpro xy","get Network","sc aling","ĠV ALID","ĠE valuate","Ġal so","Ġset Up","Ġch ain","Ġch unk","Ġstr ip","Ġstr ok","com man","Ġz mq","odule List","Ġpo int","LE N","per imental","ĠB IG","um er","Ġsi de","Ġâĸģ' %","SE T","Ġint ere","Ġconfig As","pro duct","pro ps","IT E","ific ations","ĠGet HelpTextList","ĠQ GIS","par ator","Ġpy lint","Ġstart Service","Ġargs pec","Ġrun Command","Ġcan not","ok en","Ġac cept","ĠU ser","ĠU PDATE","ĠH TTP","Ġ6 4","Ġme mory","ĠTest A","DI ATE","Ġ> >>","Ġarg v","Ġ9 4","To Order","Ġhas h","ĠAr g","ĠSet CName","ĠSet SupArchList","ĠSet Notify","Ad d","Ġpat ch","vert ToEncrypted","UR E","ded itor","ME DIATE","ph rase","Ġle vel","Ġcomp atible","user s","Ġdec orator","ĠKey Error","Ġsource s","tern ative","RE GE","Ġbin ary","Ġrequest s","Ġdis able","TY PE","Ġco pi","ĠSt ate","Ex pression","40 4","CK A","CT X","St ream","omet ry","Ġident ity","Ġrd type","Ġrd class","Pro perty","SI ON","Ġvar Regexp","Ġsee k","ĠType Error","ĠLI AB","201 1","PE M","tra js","==== ====","port er","ret urn","ĠFuzzy Text","ĠHelpText Xml","As PEM","Ġsort ed","PA CKA","Ġpt rue","Ġover ride","inter val","Ġgener ate","Ġvide o","Ġvide os","Ġstop Service","ĠQue ue","Ġhel per","Ġact ual","Ġign ore","outine s","Con vertToEncrypted","prot obuf","somet hing","literal s","ĠSup ArchList","ĠString IO","ĠImp ortError","Ġprovide d","SupM oduleList","Met adata","link s","Ġsk ip","ĠCacheL ocker","ĠFilter Expression","ĠInvalid Input","ĠDevelo per","Start Service","Ġpol l","Ġ'- '","ĠINTER MEDIATE","Ġcorrespon ding","Ġprivile ged","CIP HER","Lin k","dan ms","oog le","Ġer ase","Ġens ure","Ġque ue","neyp ot","Ġseri aliz","ctop rint","isol ated","esca pe","Ġstrok es","comman deditor","Ġintere sted","ĠconfigAs Yaml","ToOrder Map","REGE X","Ġprivileged StartService","' '","' re","( )","+ )",", '",". ,","0 5","1 8","2 8","2 11","3 2","5 3","7 5","9 0","9 9",": '","< /","= %","> \\","A MA","A SSWORD","B asic","C OM","D own","D ING","E mpty","E ditor","F ilter","H IS","K G","L ine","L UG","M Q","M ock","M IT","M ak","M iddleware","O O","O pen","P R","P LA","P ickle","R outines","S oftware","V ALID","Y ml","] *","a ded","c b","c le","c an","c all","c hoice","d own","d uplic","e e","f fer","f ind","g id","g ative","g lobal","h g","i g","j o","n ConvertToEncrypted","o red","o ok","p ly","p article","p ends","r f","s k","t xt","t nConvertToEncrypted","v n","w rapp","y le","y one","Ã £","Ã §","Ã ©","Ã º","Ġ license","de l","nt ed","in st","se p","st ate","st ats","re quest","re vision","re cording","at tempt","Ġt t","Ġt rue","Ġt rim","Ġt vm","Ġp h","Ġa p","Ġa uthor","Ġse quenc","Ġc ast","er Com","str ict","le vel","le TestCase","me m","Ġ' \"","Ġ' *","ar s","ar Down","Ġre lease","Ġre gion","Ġre strict","enc e","ic Mock","Ġn b","Ġn w","it es","ur an","ur ls","Ġde te","Ġde pen","Ġde leted","Ġde velo","Ġo ps","Ġo ctoprint","ct r","Ġs g","Ġs omet","Ġs vn","Ġ1 4","Ġd a","Ġd ok","Ġd iff","ut ed","an iz","Ġthe se","Ġ3 00","Ġb ootstrapHelper","Ġb tnConvertToEncrypted","ot es","Ġk ind","Ġdef init","Ġl ow","Ġl ayer","Ġl atex","ce back","Ġg is","Ġg dal","Ġg lob","ra w","ra x","il la","Ġu pper","ate ver","ser ializ","ĠC or","ĠC ertificateFactory","Ġfor ward","la ce","la sses","ĠT rans","ĠT oken","ĠT HIS","ri v","ĠA d","ĠA g","ĠA tt","ĠA ffer","Ġ- =","ĠG e","ĠS T","ĠS imp","ĠS ilva","ĠS URE","is hed","Ġget attr","Ġto o","Ġto p","ĠP rot","ĠP arser","ĠP ending","ĠP ASSWORD","est ination","ĠF la","ge om","Ġv al","Ġnot hing","Ġnot ifications","lo or","Ġ25 4","art be","ĠI MP","ĠR em","ĠR aise","ĠR untime","ĠR otation","un icode","Ġh app","Ġex ample","Ġcon dition","Ġassert In","as sert","ĠD oc","ĠD AMA","ĠO n","ĠO THER","Name d","Ġma de","pi le","ĠM A","ĠM ag","ĠM ark","act er","act ion","Ġtest Widget","sc ale","si gnatures","Ġar ch","ĠE lement","Ġj vm","Ġal ternative","Ġset attr","ver se","ver yone","Ġcom e","Ġstr ings","ry able","Ġapp ly","em on","og raph","ip ue","Prot ection","method s","ĠB E","IN F","tt ers","of b","pro perty","pro ject","Ġsy llable","ource s","res ources","ĠGet FeatureFlag","ĠfailUnlessEqual Content","Ġ5 1","ener Th","Ġne ver","OR Y","ree k","iv ar","par ams","pre fix","Ġpy particle","ray Field","Ġstart ing","im g","lement edError","ive MQ","ant i","ant s","ribut or","Re cognized","son ants","Ġme mb","Service s","Ġos lo","Ġflavor s","In dex","LI C","LI ED","Ġpass phrase","MA KE","ĠCom p","Ġformat ted","pla y","Ġ8 1","Ġ9 0","Ġspec ify","Ġspec ified","Xml Element","Ġread y","Ġnode s","To NOTEQ","Ġbase Name","Ġurl lib","set s","Ġ201 0","Ġcur sor","ĠAr rayField","Ġsc enario","Ġ7 0","Ġcopy right","Ġle tters","read y","Ġcomp onent","ll vm","Ġte arDown","Ġ'% (","Ġsub process","Ġdtype s","Config Item","Ġother wise","by te","Ġtag Key","Ġlo aded","ĠNot e","ĠNot Imp","ĠXml Node","ĠXml Routines","doc ument","we ibo","ĠAn y","ĠJ SON","comp onent","Se curity","Se parator","Ġchild ren","value s","session s","Ġsu ch","Ġgra nted","Ġexc lu","Ġq name","Ġloc al","IP E","Is En","loc ale","Ġend swith","ertific ates","hed ule","man ager","Ġtrans lation","Guid Value","Ġnamed Services","allow ed","Ġmake file","Ġmake Service","Ġcontent s","DE P","ff ect","Ġword count","pose Yml","ERN AME","\") '","Sy ntax","tra ceback","Ġpl an","ĠCreate s","ĠCreate XmlElement","subscription s","Ġ40 4","66 66","Ġpt s","Ġnct Id","MP L","llable Separator","Ġabo ut","ĠAl low","Ġtok en","ĠRun Metadata","ĠConvert NE","ĠQue stion","Ġhel p","system commandeditor","Ġtw isted","Ġdest ination","field s","ĠPy thon","Ġ128 000","payment method","pl ot","ssu me","ĠUS ERNAME","ĠnewlyRegistered User","Ġroutine s","ĠTemplate Syntax","Res olver","wh atever","Ġtrunc ate","ateg ory","ĠRet rieve","Cert AsPEM","Ġbit code","ĠAuthor s","defghi j","ĠSAXNot Recognized","CLU DING","Variable Name","iali ze","oz illa","ntity Resolver","Ġbuild match","lab el","ĠAct iveMQ","ĠDen y","ĠTestA pp","LUG IN","Mak er","jo e","wrapp ed","Ġsequenc es","erCom poseYml","uran o","Ġdok erComposeYml","ĠbtnConvertToEncrypted IsEn","Ġlow er","ĠToken Parser","ĠAtt ributes","ĠAffer o","ĠSimp leTestCase","ĠProt ocol","artbe at","ĠIMP LIED","ĠRaise d","ĠRuntime Error","ĠMag icMock","ĠfailUnlessEqualContent s","enerTh read","Ġpyparticle est","ĠNotImp lementedError","ĠConvertNE ToNOTEQ","ĠTemplateSyntax Error","ĠSAXNotRecognized Exception","ĠdokerComposeYml FileName","ĠbtnConvertToEncryptedIsEn abled","\" ,","\" :","- {","/ '","/ {","/ (?","0 2","6 4","8 1","8 9","> '","B D","B AR","B etter","C re","C reate","C ipher","C ollector","C ertificateFactory","D ata","D ES","D ifferent","F AN","F ound","H qx","I F","I M","I f","I nt","I ME","I TIES","L oc","M at","O W","O OT","O riginal","P U","P o","P age","P EC","P ublic","P UB","P KG","Q T","R L","R le","R et","R age","R ES","R OM","S D","S c","S ync","T S","U M","U S","W ee","] (","_ ,","a vailable","a uto","b f","b ad","b ility","b uiltin","c y","c li","c ar","c ert","c ertificate","c sv","d ifference","e f","e ader","e arning","f s","f ra","g is","g ine","h at","j or","k er","l p","m o","m ode","m un","m ble","m ary","m ark","m metric","m ultip","n r","p c","p ha","p latform","p ickle","p rimary","r t","r ing","r il","r un","r pc","s a","s pe","s oftware","s amples","s wap","t ho","t rue","t ensor","t uple","t ask","u c","u d","v id","v ince","v cpus","w b","w ind","w isted","x B","x ff","x next","y ml","{ '","} ]","} {","Ã ¡","Ã ³","â Ģ","ç Ľ","Ġ |","de v","de vices","de sired","de coderengine","se e","se ct","st derr","Ġ0 211","re ction","re qui","re lated","or ies","at in","Ġt s","Ġt on","Ġt able","Ġt ap","Ġp d","Ġp s","Ġp id","Ġp ay","Ġp us","Ġp ickle","Ġp layer","Ġp lace","Ġa u","Ġa void","Ġa ster","Ġse mantics","Ġc pp","Ġc ard","Ġc ertificates","Ġc ategory","on d","on al","on ger","Ġf re","Ġf ailed","Ġi v","Ġi ss","er cur","str ings","Ġ' ,'","Ġ' :'","Ġ\" <","Ġ[ {'","he artbeat","he lp","Ġ2 6","Ġw ra","Ġw file","Ġw ay","Ġw ire","Ġw ould","Ġre q","Ġre v","Ġre cording","Ġre cognized","enc oded","al t","it le","ur al","Ġs w","Ġs ure","Ġs ome","Ġs wap","Ġe qu","Ġin sert","Ġin clude","Ġin dic","ut put","an it","an up","Ġthe ir","Ġ3 4","Ġ3 5","Ġb uiltin","ot her","ot strap","Ġk eep","Ġk alman","Ġdef er","Ġl ong","Ġl onger","ce il","Ġm b","Ġg pu","Ġan other","pe ar","ro und","ro ll","ser vices","ĠC re","ĠC ode","ĠC ontent","ĠC PU","ĠT ime","ĠT hing","fi rst","fi dence","ho bb","ho neypot","ĠA pp","ĠA pi","ĠA LI","ĠA UTH","xt ure","xt ick","pt ured","ĠG D","ĠS c","ĠS u","ĠS er","ĠS AN","ĠS ick","ĠS UB","ĠS QL","is c","is k","is ProtobufMessage","Ġget User","Ġget QName","ĠP Y","ĠP s","ĠP pi","ĠP IN","ĠP ID","ĠP redict","ĠP LUGIN","ol ved","ĠF bal","ĠF cal","ĠF uncal","ĠF OO","Ġv ir","Ġv iew","Ġv ery","Ġnot ification","name d","ation Error","ĠL oc","ĠL earning","ĠR ole","ĠR cho","ect ed","ch anged","Ġh i","Ġh ome","ith m","Ġst d","Ġst at","Ġst yle","Ġst ars","Ġth rough","Ġex pect","Ġcon struct","Ġcon sonants","Ġres olved","ption al","am ond","ht m","ĠD o","ĠD TD","ĠD estination","ĠO E","ĠO r","ĠO UT","ĠO ther","ĠO riginal","fo und","ĠM z","ĠM ake","Ġpro ject","Ġclass ification","sc enario","ĠV M","ĠV alid","lu g","lu sh","si der","ĠE n","ĠE nd","Ġal ready","Ġset s","Ġset Name","Ġset Config","Ġset St","Ġpart ial","and t","and ro","op en","Ġcom pose","com ing","Ġline len","Ġline no","Ġuser Name","Ġz ip","Ġdata base","ER P","Ġdi rection","Ġdi amond","ip in","ip hers","Ġpo s","gra de","ke ep","Ġat om","per iod","ĠB e","ĠB ost","ĠB LO","ĠB SD","Ġpre txn","TI AL","less andro","Ġfail s","tr ans","um an","ali date","ali br","Ġsi g","Ġint eger","form at","pro d","pro files","ĠGet Guid","ĠGet Usage","init ial","Ġcase s","OR S","OR T","tw o","tw isted","ĠQ cho","pre c","pre ce","Ġpy test","ine d","Ġrun s","Ġrun ner","env iron","own ServiceParent","ĠU N","ĠU RL","Ġno ise","Ġlist s","ĠH ttp","ĠH idden","Ġ6 5","Ġme m","Ġme an","Ġpath s","AT OM","cur sive","work er","Ġfin ished","ari ance","bc defghij","ĠCom mun","ĠTest s","her it","ep hemeral","Ġarg types","De cimal","Ġ8 0","Ġcontext lib","Ġnode Name","AL TERN","To NE","ĠGener ate","Ġstate ment","Ġro le","Ġdistribut ion","Ġ12 0","Ġ12 3","ĠSet FeatureFlag","Ad ditions","Ġmat er","UR I","12 53","Ġchange s","app lication","bo otstrap","ph antom","Ġle f","read able","ĠCopy From","ĠRe ad","Ġcomp ati","Ġcomp lete","HO ST","HO LD","Ġbran ches","Ġdec ode","Ġso b","Ġhost name","by tes","Ġlo op","Ġimplement ation","ĠDEC LR","Ġallow s","che my","Ġrequest ed","ĠNot ification","ĠXml Element","ĠXml Attribute","cre mental","doc web","we ish","Ġcheck s","Ġopen rsrc","config ured","Ġco ef","Ġrequi re","Ġdim s","ĠSt ub","UL T","ĠDe fault","Ġdocument ation","pk g","def n","Ġsu ds","Ġgiv ing","gre g","Ġq gis","Ġinst anti","Set s","Di rectory","IL D","Ġtrans form","Ġcle ar","change set","change group","Ġprepare d","Of ProtobufMessage","`` )","lis k","ĠCon ditions","Ġprocess ing","Ġper form","Ġsh ort","Char ToOrderMap","Or Create","write crc","write Protobuf","Ġprot obuf","Ġprot ected","Ġconvert ed","Ġmessage List","TH RES","be lisk","Ġcor outine","Ġreplace d","Ġreplace s","ĠVariable Name","ATI VE","STR IPE","Ġfil ename","Ġiter ator","Ġdump s","Ġdump Run","Ġla zy","ĠCO PY","201 2","SC RIP","TRIB UT","Ġinterface s","ret ries","ĠFeature Flag","ĠFuzzy Choice","Ġexist s","Ġexist ing","Ġcontain s","IService Collection","ole an","Ġden ied","Ġsa fe","Ġevent s","Ġlink Text","Ġattribute values","Command Editor","By QName","Ġrecur se","Ġstore Password","Ġstore Username","Ġexp r","ĠOGR Ge","Ġdir name","Ġdir Pickle","Ġsupport s","Ġdomain s","Ġgener al","Ġhook type","ATE G","ĠConvert NOTEQ","FILE S","Ġen abled","Ġright s","Ġ18 8","Ġorg Name","ĠEx ample","Ġxml rpc","Enc oding","16 8","Ġtw o","Ġsepar ate","Ġns name","LIB C","Lo ader","Run ner","VER SION","Ġfo o","Ġdefine d","Ġrle data","Ġexec ute","Ġexec uted","ĠUS A","ĠnewlyRegistered Org","Ġpa id","Ġim mediate","ĠForm at","Ġart ifacts","Ġtemp est","Ġtemp file","ĠDecimal Field","symbol nr","Ġgradient s","GuidType List","Step Advice","Ġet ree","Ġca ptured","uthentic ation","Ġprevi ous","owel s","Ġhex bin","ĠJCollectd Collector","governor s","FA ULT","FE ED","Pre fix","TAR GET","check crc","exception s","invo ice","Ġmk param","ĠCOM MENT","Ġvi a","ĠDIS PLA","ulti Service","getNetwork For","Ġpoint list","umer ate","Ġcopi es","PACKA GES","28 5","]* )([","cle anup","inst all","Ġap pear","aniz ation","Ġdefinit ion","serializ ed","ĠCor p","ĠRotation Po","Ġhapp en","ĠDAMA GES","ĠOn ly","ograph y","INF O","img ur","Ġmemb ers","Security Form","DEP ENDS","ssume s","FAN ITIES","PUB LIC","Wee k","mode ls","multip le","Ġton ic","Ġtap name","Ġpay load","Ġaster isk","ercur ial","Ġwra ps","Ġequ iv","hobb it","ĠALI VE","ĠSick Rage","ĠPIN AX","ĠPID FILE","Ġvir t","ĠOther wise","ĠValid ationError","ĠEnd point","ĠsetSt ore","ĠBost on","ĠBLO CK","trans late","ĠHidden Input","ĠCommun ic","Decimal Field","ALTERN ATIVE","Ġcompati bility","ĠDECLR MM","weish ipin","OfProtobufMessage s","THRES HOLD","ĠdumpRun Command","ĠstorePassword IsChecked","ĠstoreUsername IsChecked","ĠdirPickle FileName","ĠConvertNOTEQ ToNE","ĠDISPLA Y","ĠRotationPo licy","\" .","' .","' },","( \\","* *",". _",". %(","/ .","/ **","0 7","2 0","4 9","5 0","5 8","6 7",": :","? \"","@ '","A G","A P","A n","A SE","A TION","A GE","A GS","A pplication","C ont","C OR","C ertificate","C FLAGS","C PP","C TYPE","D et","D ate","D ON","E MPL","F LO","G H","G et","G IN","G yp","G TH","H ex","H ALL","H eader","I SE","I AL","I REC","J P","L L","L W","L Y","L ang","L AN","M AN","M ESS","M ENDS","M odList","O n","O bj","O UT","O DE","P L","P UT","P TION","P os","P RI","Q MAKE","R R","R IS","R AX","R REC","R DEPENDS","S P","S m","S pec","S ID","T V","T he","T ag","T ipue","U MA","U CH","U ID","U iName","U ITE","V ar","V ersion","V IC","W rit","W rite","Y N","Y ES","] ?","b i","b od","b atch","b its","c o","c u","c or","c mp","c ame","c lo","c cess","c oin","c ron","c ateg","c iphers","c alibr","d b","d f","d ar","d it","d one","d ail","d iv","d ings","d ated","d td","e ffect","f ss","f ree","f ails","f lush","g r","g or","g ge","g res","g rc","g Ã¼","h w","i gn","i stribution","i ssu","i ence","k a","k li","l li","l defn","m i","m ic","m art","m ont","m ount","n an","n one","n fss","o o","o x","o olean","p at","p ment","p ass","p date","p redict","p ending","p df","q Ã¼","r m","r s","s ion","s la","s um","s olve","s now","s lug","t s","t op","t cp","t ifacts","u ation","u pper","v end","v ariance","w td","x E","y y","y z","y es","z one","z ip","} ).","® é","Ã ª","å °","æ ĸ","Ġ ;","Ġ Z","Ġ less","Ġ atex","Į Ħ","ne t","ne gative","li er","li brary","line ar","de s","de t","de fi","de cimal","de pends","de riv","in s","in sert","in ations","in valid","in clude","in Hex","Ġ. .","se arch","st or","st op","st ack","re l","re cord","re porter","or a","or ation","or groups","en ge","en server","Ġt ri","Ġt ho","Ġt ake","Ġt abs","Ġt ell","Ġp or","Ġp ip","Ġp def","Ġp erson","Ġp asse","Ġa b","Ġa ss","Ġa lo","Ġa ble","Ġa pi","Ġa ck","Ġse ss","Ġse gment","Ġc ap","Ġc lasses","om pe","Ġf alse","Ġf ew","Ġf ake","Ġf mt","Ġi r","er nal","er ations","er arch","str oke","le t","me mb","Ġ' _","Ġ' \"'","Ġ' \\\\","Ġ' @'","Ġ\" !","Ġ\" /","Ġ\" _","Ġ\" .\"","ar ri","he s","he ll","Ġw ho","Ġw as","Ġw sg","Ġw ays","Ġw ell","Ġre al","Ġre pe","Ġre gra","Ġre pos","Ġre vision","Ġre ject","Ġre served","Ġre porter","Ġre ply","enc oding","al and","al og","al ker","al pha","Ġn c","Ġn l","Ġn or","Ġn umb","it ers","it ory","Ġde ter","Ġde scri","Ġde vices","Ġde lete","Ġde stroy","Ġde prec","Ġo ur","Ġo nes","Ġo vers","Ġo belisk","Ġs ax","Ġs log","Ġs olve","Ġs parse","Ġs ina","Ġs anit","Ġs hell","Ġe le","Ġe uc","Ġd ri","Ġd as","Ġd ocker","Ġin coming","Ġin herit","ut or","an Form","Ġ3 9","ss reporter","Ġb est","Ġb ig","Ġb oolean","ot h","Ġk now","Ġl params","Ġl yz","Ġm ac","Ġm ight","Ġm iddleware","Ġm any","Ġm urano","Ġm ercurial","ed ded","ed istribution","Ġg o","Ġg ot","Ġg file","Ġg by","Ġg ood","ra p","ra xp","pe m","il og","Ġu m","Ġu sage","ro s","ser ve","ĠC A","ĠC ertificate","ĠC ollectd","ĠC ustom","ĠT h","ĠT ext","ĠT ag","ĠT IME","ĠT wisted","ĠN UMA","ĠA CTION","ĠA ssumes","ĠA RIS","oc i","pt o","Ġof ten","ĠG roup","ĠG oogle","ĠG reek","ĠS O","ĠS ingle","ĠS pace","ĠS RC","ĠS HALL","Ġget B","Ġget Name","Ġget file","Ġget Service","Ġget Value","Ġget value","Ġto day","Ġto do","ĠP X","ĠP h","ĠP OM","ĠF if","ĠF ran","ĠF ile","ĠF unction","ĠF ix","ĠF loor","ge nt","Ġv er","Ġv ect","Ġv cpus","Ġv mem","Ġv alidate","Ġr xtx","Ġr mt","Ġr ts","Ġfi xture","der man","ac lass","te Stream","ĠL INE","ĠL ayer","ĠL atin","ĠL TV","pp ose","ĠR edistribution","un ct","ch ron","ure s","Ġh andl","Ġh grc","lic ations","Ġst ored","Ġst ompe","Ġth an","Ġex perimental","Ġcon sole","Ġcon fidence","ist ant","Ġres pected","met aclass","Ġbe low","ĠD E","ĠD i","ĠD ummy","ĠD EB","ĠD IREC","ĠO N","ĠO bject","ĠO ptional","Ġma k","Ġma ster","Ġâĸģ\" !\"","Ġli ke","ĠM a","ĠM s","ĠM IN","ĠM EN","ĠM ultiService","Ġfile crc","Ġpro gre","get her","get text","get users","get Link","Ġtest ed","Ġtest list","ĠV ER","si de","si gnature","ĠE C","ĠE mpty","ĠE OF","ĠE veryone","ĠE ntityResolver","and o","and les","op ulate","op erations","Ġcom pute","Ġcom pile","com mit","com mon","Ġline ar","Ġun ion","Ġz s","end point","em ory","Ġy t","Ġdata To","Ġdi ag","ĠW HE","Ġpo inter","Ġpar am","Ġby ref","AR D","AR CH","our Var","ĠB UT","ĠB ind","ĠB ook","ĠB inHex","gn ConfigItem","Ġser ve","Ġext ernal","Ġpre vent","ass istant","ow s","IN IT","IN ST","tt y","Ġit self","Ġâĸģ' \\\\","SE N","Ġlog ar","Ġraise d","Ġint eg","Ġuse s","Ġconfig Network","Ġconfig Item","pro pto","ain s","Ġsy n","Ġsy mmetric","ĠGet Notify","ĠGet SupModuleList","ĠGet OrCreate","ĠGet GuidTypeList","Ġ4 2","Ġ4 5","Ġx i","Ġx enserver","ap ed","all enge","Ġ5 6","Ġ5 9","Ġ5 12","Ġ\\ '","Ġ10 24","Ġne t","OR ITY","Ġtime zone","par sing","pre txn","Ġpy rax","Ġversion utils","error s","UT F","mit ter","Ġho w","lement ation","char file","ive s","Ġwh at","Ġwh om","Ġwh ites","ok s","ok an","ok ed","ĠU sage","ĠU iName","ĠU pdate","Ġwe re","ĠIn cremental","EC T","us ually","ĠH AS","ĠH andles","Re gister","Re vision","Ġ6 7","fe at","EN CE","Ġany thing","MA GE","ĠTest Gyp","Ġformat ter","ĠSe ssion","ĠSe lect","di rectory","Ġenv Additions","Ġgroup s","Ġgroup Id","Ġadd Service","Ġadd Empty","buf size","Ġnew data","Ġnew CertAsPEM","De vice","De fault","Ġ8 2","Ġ8 6","Ġ9 8","Ġcontext manager","Ġread line","Ġdoc strings","Ġbase name","Ġro ute","Ġ201 2","Ġ201 4","xce pt","ĠSet Guid","ĠSet Usage","ĠSet SupModuleList","Ġsc he","Ġsc ra","Ġsc hedule","Ġ7 2","Ġ7 7","UR CE","imp lementation","Ġenc ode","Ġup dated","Ġsystem s","con dition","con nection","Ġchange sets","Not Found","ai ner","ph p","Ġle ad","Ġle ave","ĠRe gression","ĠRe cursive","ĠOR D","den ied","Ġsub dir","ĠCON TRA","log prod","Ġinter sect","Ġcurrent Step","Ġid x","Ġso on",".. .\"","os h","RE SET","by name","ex p","mb edded","Ġtag name","Ġallow branches","che d","flavor id","Ġdis asse","Ġdis ownServiceParent","Ar tifacts","cre ated","ili ties","Ġcal ls","Ġcal ling","Ġcheck ing","Ġoption al","Ġopen rf","ĠPl anForm","config uration","spec ific","Ġco variance","Ġinit ialize","comp are","ĠWIT H","OM MENDS","Se arch","ale nt","code r","yp art","Ġdocument s","Ġfe at","ĠCommon Object","Com position","Ġq names","Ġloc ation","ĠIN CLUDING","Ġenviron ment","Ġcpu info","Ġwrit ten","quenc y","Ġprefix es","Ġcode cs","Ġfol der","ĠIS O","ĠInt eger","ĠBase Artifacts","opt s","ĠK eep","Ġauth m","Ġparser s","Ġprocess uid","Ġprocess gid","Ġper cent","Ġident ical","Ġregister Composition","Ġsh util","Ġnamed tuple","Ġnamed An","add Link","Ġusers orgroups","Char acter","Pro cess","no va","Ġbod ypart","Ġbreak s","ĠPro file","Ġmessage s","DE B","be am","Ġword s","Info For","FI G","FI X","Ġclient s","Ġmark er","Ġug lier","ĠVariable s","ĠWe ave","ĠAnsible Filter","Sy llableSeparator","Ġabs path","Ġfil led","Ġdump File","ĠLI MIT","201 7","ĠEV ENT","Ġfunc name","ĠFuzzy Date","Ġcontain ing","ĠHelpText Obj","DIR ECT","vi der","Ġtotal wtd","Ġlink s","By Name","By teStream","Len gth","inder Cont","hook s","Ġexp andt","ĠOGR Index","ALL OW","DO UT","IC ODE","Ġrest ype","ĠCheck in","ĠPar se","HEADER S","Ġen umerate","Ġwork er","ĠService s","ĠPRO VID","Ġstamp s","Ġorg anization","ĠEx amples","ĠComment SecurityForm","Format ter","13 01","RI GH","sse d","Ġerr no","Ġact ive","Ġsepar ator","Ġdest inations","Ġmultip le","ĠPy docweb","Ġattempt s","Ġdeny branches","Ġremove Service","OL DER","\\\" \"","prot o","somet ag","Ġqu otes","ĠCont rol","ĠCont ributor","ĠSup ModList","ĠImp lement","SupM odList","System Id","EB AR","Ġ~ /.","device A","Ġag ain","Ġag gr","Ġim g","Ġus r","Ġus ually","ĠAuthority Factory","ĠIService Collection","Ġhand le","Ġweb hook","Ġweb server","web hook","PY RAX","SO URCE","cl ang","cipher byname","Ġold line","Ġinvo ke","Ġinvo ices","ĠClass ify","Ġfix er","ĠList enerThread","ĠEX PR","ĠGuidType s","Ġprevi ourVar","ĠRequest Factory","ĠStomp Spec","CON FIG","CLI ENT","]+ )'","Ġpast e","Ġauto scale","Ġfla gs","Ġep hemeral","Ġep ilog","ĠSy stem","ĠMessage Middleware","ĠsetUp Class","Ġchunk s","LEN GTH","ĠLIAB LE","ĠLIAB ILITY","Ġserializ er","call back","duplic ate","request ed","revision s","attempt s","Ġph antom","Ġauthor ities","Ġ'* '","Ġdete cted","Ġdevelo ping","Ġsomet ag","Ġda emon","ĠTrans action","ĠST DOUT","ĠPending Certificate","ĠFla gs","ĠRem ove","ĠDoc ument","ryable Error","ĠComp onent","Ġcomponent s","ĠtearDown Class","byte file","Public Id","auto escape","sa fe","spe ed","çĽ ®é","Ġ0211 0","requi red","Ġps util","Ġpus h","Ġfre quency","Ġiss pace","Ġindic ates","ĠCre ator","ĠApi Key","ĠAUTH OR","ĠgetUser Name","Ġhi erarch","Ġhome assistant","Ġstd out","Ġzip file","Ġsig ned","ĠUN ICODE","Ġlef t","ĠCOPY RIGH","SCRIP T","Ġxmlrpc lib","285 1","ĠCorp oration","Ġequiv alent","COR E","CPP FLAGS","FLO AT","Lang Model","PRI ORITY","RREC OMMENDS","SID EBAR","Tag Value","bod y","cor rect","came lli","categ ories","dail y","gge red","issu er","kli n","mic ros","mont h","nfss ync","sla ve","Ġatex it","deriv ative","insert ed","Ġtri ggered","Ġass oci","Ġalo ne","Ġsegment ation","Ġ'\\\\ '","Ġwsg i","Ġrepos itory","aland ora","Ġnumb ers","Ġdescri b","Ġdeprec ated","Ġovers ize","Ġslog det","Ġdri ver","Ġdas hes","raxp ub","ĠARIS ING","ĠGreek LangModel","Ġgetfile info","ĠFif th","ĠFran klin","Ġvect or","Ġrmt ree","ĠLINE LEN","Ġhandl ers","Ġhgrc users","Ġstompe st","ĠDEB UG","ĠDIREC T","Ġprogre ssreporter","getLink InfoFor","ĠdataTo Write","Ġdiag onal","ĠWHE THER","ĠBind ing","INIT SCRIPT","Ġinteg ers","Ġwhites pace","ĠIncremental Parser","ĠaddEmpty Line","ĠCONTRA CT","Ġdisasse mble","ĠInteger Field","ĠBaseArtifacts Test","ĠnamedAn y","Character Stream","ĠAnsibleFilter Error","ĠLIMIT ED","inderCont ainers","Ġexpandt abs","ĠOGRIndex Error","ĠPROVID ED","ĠEXPR ESS","ĠpreviourVar Prefix","ĠTransaction TestCase","çĽ®é ĮĦ","Ġhierarch y","ĠCOPYRIGH T","camelli a","getLinkInfoFor File","! '","! </","\" \\","\" |","\" \\\\","$ {","' ;","' <","' ^","' |","' }","' ),","( \"","( *","+ \"","+ '","+ .",", \"","- \"",". )",". {","/ ?","/ __","/ ..","/ %(","0 9","1 0","1 00","1 49","2 1","3 4","3 40","4 3","5 9","6 5","9 2","9 56","= \"","> ).","? )","? \\","? ://","A D","A LE","A UT","A uthority","A TIONS","A gent","B J","B O","B R","B U","B e","B in","B ad","B ase","B LE","B Si","B ASE","C A","C M","C P","C U","C an","C all","C LA","C XX","C OL","C RIP","C ould","C ATEG","C LIBC","C JP","C ARD","D RI","D TD","E G","E T","E V","E xt","E ng","E VER","E ntityResolver","E mbedded","F C","F S","F al","F lavor","F IT","F LI","F SS","F AL","F ailed","F ROM","F oo","F FIX","F BSi","G ot","G roup","G NO","G reek","G LIBC","G ENCE","H H","H ost","H TTP","H arri","I gn","I ES","I RE","I MAGE","J IS","J OR","J son","K S","K DIR","L e","L AR","L IS","L INE","L ayer","L etter","M S","M an","M odule","M UT","M any","M ozilla","M emory","N D","N G","N EC","N umber","N OT","N SI","N Revision","N FSS","O E","O ct","O IC","P F","P er","P em","P AR","P RE","P ream","P erson","P ATI","P rint","P ool","Q U","Q ue","Q LA","Q GIS","Q PF","R ot","R ule","R atio","R SRC","R untime","S F","S H","S R","S U","S u","S er","S ub","S LA","S ina","S LR","S QL","S alandora","T om","T oc","T ime","T RU","T ML","T yp","T itle","T TRIBUT","T AGS","U r","U AL","U CLIBC","U IRE","V IN","V NRevision","W N","W S","W atch","W EB","W hat","W ISE","[ \\","[ ^","\\ '","\\ -","] .","_ *","_ \\","` ,","a u","a w","a ut","a pe","a uthority","a ware","a uthentic","a ined","b v","b li","b it","b uild","c n","c v","c at","c ss","c la","c ri","c rypt","c ore","c cur","c ast","c ollection","c ollectd","c ollector","c orator","c now","c lasses","d at","d type","d len","d ump","d jango","d temp","d ocker","d Rot","e mp","e lican","e xcept","f fi","f ol","f ill","f info","f init","f all","f dir","f loor","g ot","g end","g pu","g ners","g yp","g rim","g ood","g round","h z","h en","h ge","h ip","h ind","h ref","h mac","h idden","h Letter","i i","i str","i an","i ss","i one","i po","i pping","j inja","j unk","k en","k it","k nown","l v","l ot","l ue","l ong","l chemy","m ature","m ap","m sg","m File","m oot","m wise","m ix","m ined","m Typ","n h","n m","n ho","n um","n isc","o D","o uth","o Print","p ri","p Error","p us","p arent","p ical","p opulate","q l","r and","r um","r len","r ÃŃ","s w","s ort","s able","s ity","s yn","s ome","s uffix","s ite","s alt","t a","t f","t ree","t ab","t ributes","u ch","v p","v ing","v iron","v owel","v oked","w s","w rt","w rap","x C","x b","y label","y ril","y SQL","z A","z Q","z gu","} |","¨ çĽ®éĮĦ","Ã ¢","Ã ´","Ã ł","å ľ","æ ī","æ ľ","è ª","Ġ ^","Ġ newline","Ġ ur","Ġ met","Ġ //","Ģ åľ","li mit","li us","li bcrypto","line mark","de st","de re","de le","de red","de si","de code","de mo","nt o","nt ool","Ġ( '","Ġ( (","Ġ( <","Ġ( @","in i","in x","in ner","in formation","in filename","se n","dent ation","Ġ0 0","re en","re able","re gister","re port","re lease","re ply","re voked","Ġ= >","or ge","at om","at tributes","en gine","en dele","Ġt f","Ġt ak","Ġp ur","Ġp ing","Ġp ull","Ġp tra","Ġa o","Ġa st","Ġa ut","Ġa pache","Ġa ssi","Ġa round","Ġa uthentication","Ġa mount","Ġa ffi","Ġse ed","Ġse ver","Ġse lect","Ġ: :","Ġc m","Ġc as","Ġc are","Ġc ache","Ġc rypto","Ġc ollect","Ġc ollectd","on fdir","om a","om ain","om Type","Ġf h","Ġf id","Ġf unct","Ġi o","er Runtime","lf er","Ġ' {","Ġ' ),","Ġ' ??","Ġ\" $","Ġ\" :","Ġ\" --","Ġ\" ========","Ġ\" ,\"","ar row","he ther","Ġ2 9","Ġw in","Ġw on","Ġw alker","Ġre name","Ġre ache","Ġre ader","Ġre min","Ġre main","Ġre lation","Ġre lated","Ġre verse","Ġre cv","enc y","al en","al ted","al lable","ion ando","ic i","ic method","Ġn orm","Ġn ick","Ġn ull","Ġn dim","Ġn ntool","it ect","it el","ur i","ur atom","Ġde sc","Ġde si","Ġde pends","et ch","et sc","Ġo th","Ġo ccur","ct or","Ġs li","Ġs ha","Ġs ites","Ġs alted","Ġs itel","Ġ1 12","Ġe c","Ġe m","Ġe as","Ġe veryone","Ġe ffect","Ġd ue","Ġd size","Ġd ifference","Ġin valid","Ġin clu","Ġin verse","Ġin div","Ġin side","an dom","an age","an umber","an umer","Ġthe ory","Ġ3 7","Ġ3 8","ss l","ss ue","Ġb b","Ġb ro","Ġb el","Ġb ool","Ġb asic","Ġb ook","Ġb oth","Ġb rand","ot hers","Ġk w","Ġl ate","Ġl name","ce ssed","Ġm y","Ġm is","Ġm be","Ġm ost","Ġm obj","Ġm ulti","Ġm outh","Ġm uch","Ġm anage","ed itor","ed settings","ed Exception","Ġg oogle","Ġg zip","ra per","ra gment","ra ctor","Ġan c","Ġan al","il er","il grim","ort ions","ro ss","ro car","ĠC h","ĠC it","ĠC an","ĠC lo","ĠC all","ĠC hoice","ĠC ATEG","ĠC SR","Ġret rieve","la st","la ke","la zy","ĠT able","ĠT ORT","Ġreturn ing","ri an","fi re","fi gs","Ġimport ing","ĠN e","ĠN OM","ĠN AME","ĠN EG","ĠN etsc","ĠA t","ĠA ls","ĠA CK","ĠA vailable","ĠA uto","ĠA CL","ĠA lessandro","ĠA LL","ĠA ccess","ĠA TTRIBUT","oc a","oc ial","id n","id ual","Ġis n","Ġis class","Ġis not","Ġis bits","rom ain","Ġof f","Ġof name","ĠG ID","ĠG File","ĠG UID","Ġas m","Ġas p","Ġas cii","ĠS A","ĠS R","ĠS um","ĠS TD","ĠS ITE","ĠS PEC","ĠS UITE","ĠS ched","ĠS JIS","ĠS QLA","ĠS VNRevision","is List","is gression","is Dict","Ġget s","Ġget Config","Ġget source","Ġget hostname","Ġget CertAsPEM","Ġget Directory","Ġget Encoding","Ġget pass","Ġget ByteStream","Ġget SystemId","Ġget PublicId","Ġget CharacterStream","ĠP O","ĠP ath","ĠP lugin","ĠP erm","ĠP AT","ĠP article","ĠP BD","ĠP IF","ĠP ilgrim","ĠP ortions","ol s","ĠF Name","ĠF ir","ĠF ore","ĠF SS","ĠF UL","ĠF ind","ĠF ROM","ĠF inderContainers","ĠF FBSi","Ġv s","Ġv otes","Ġv owels","ype s","ul ation","ul erRuntime","Ġr data","Ġr mFile","Ġr nm","Ġr andom","ation Field","Ġfi g","lo pen","ers ist","ac ur","ac ing","ac cess","ac her","ve ox","ĠL ine","ĠL ms","qu id","qu ote","Ġ25 0","ĠI Plugin","ĠI Process","ĠI ssue","pp ly","ĠR es","ĠR LE","ĠR ack","ĠR ep","ĠR OOT","ĠR FC","ĠR omain","un it","un ha","un used","un ix","un pack","un wrap","ad o","ad or","ad im","ad ows","Ġh or","Ġh uman","Ġh wrt","lic it","__ .","Ġex act","if p","Ġcon clu","Ġcon dit","ist d","ist ics","Ġor d","Ġres p","Ġres olver","as p","th oma","es cri","Ġbe hind","ĠD a","ĠD ate","ĠD AT","ĠD isgression","ĠD escri","ĠO S","ĠO ver","ĠO utput","ĠO pError","fo Ext","gin ner","Ġ% }{","fig ures","ner p","Ġma pping","Ġma jor","Ġâĸģ\" /","Ġli b","Ġli teral","ĠM ac","ĠM IT","ĠM app","ĠM achine","ĠM ozilla","Ġfile input","Ġpro bab","Ġpro vid","Ġclass ifier","get item","get pelican","Ġ{ (","Ġ{ {","Ġ{ }","Ġ{ }\"","Ġtest ing","sc hedule","sc ience","sc aped","sc onfdir","ĠV DI","ĠV IC","ĠV BD","ĠV IF","ĠV LAN","Ġar ange","Ġar row","ĠE den","ĠE vent","ĠE xp","ĠE NO","ĠE ditor","ĠE RR","ĠE cu","ĠE ND","ĠE scaped","ou ble","ou gh","Ġal gor","Ġset ter","Ġset ters","Ġset Password","Ġset Username","Ġset ServiceParent","Ġset locale","Ġset Encoding","Ġset Le","Ġpart y","and s","Ġch r","Ġwith in","ver ify","Ġcom put","Ġcom pression","Ġstr utils","ry ing","com position","com pile","po w","po ol","po licies","Ġapp s","Ġapp lied","Ġuser Set","Ġ} }","Ġ} }{","Ġun named","Ġun defi","Ġun gettext","Ġun known","age s","Ġz ipo","end ian","Ġy aml","Ġdi rect","og r","ĠW arning","ĠW ork","ĠW ILD","ĠW hen","ĠW hether","ip ulate","args pec","Un icode","Ġpo w","ock s","ock edError","hod Config","ĠGuid Object","Ġpri or","Ġpri mary","Ġcont ributor","Ġcont ained","Ġby choice","AR M","AR Y","LE Y","ir s","ON E","ON AB","int ations","int egrity","int eger","int ainer","int osh","List ener","List enerThread","ĠB i","ĠB ran","ĠB ootstrap","ĠB ig","ĠB okan","ĠB rian","Ġexce ed","gn ments","Ġext end","Ġext ends","Ġpre f","ass im","IN CLUDING","IN UM","Ġfail If","um n","ali ty","Error Handler","Ġâĸģ' /","Ġâĸģ' \\","Ġâĸģ' ('","Ġâĸģ' )'","Ġâĸģ' ?\\","SE D","SE QU","Ġlog p","Ġlog ic","00 00","ty pical","Ġint egrity","Ġint bv","pro gram","pro vider","ific ial","Ġextra ct","Ġsy ntax","ES SEN","data set","Ġ4 1","Ġ4 3","Ġ4 4","Ġ4 6","Ġ4 7","Ġ4 8","Ġ4 9","Ġ4 01","Ġx vp","all back","IS O","Ġ5 2","Ġ5 3","Ġ5 4","Ġ5 5","Ġ5 7","Ġ5 8","Ġ5 89","Ġ10 1","Ġ10 2","Ġ10 3","Ġ10 4","Ġ10 5","Ġ10 6","Ġ10 7","Ġ10 8","Ġ10 9","Ġ10 48","Ġne cess","Ġne gative","Ġcreate linemark","opy right","OR IES","Ġtime s","Ġtime out","Ġtime del","Ġad ded","tw istd","par ser","Ġpy util","cont ains","Ġ! @","Ġstart ed","Ġresult ing","im er","url encoded","Ġho we","Ġho neypot","char set","char ToOrderMap","quest ed","ant ini","Ġac count","Ġac comp","ĠU ID","ĠU RI","ĠIn dex","ĠIn foExt","us age","us ands","ĠH ex","ĠH OLDER","ĠH TML","Ġout filename","Re ad","Re port","Re gion","Ġ6 1","Ġ6 3","Ġ6 6","Ġ6 8","Ġ6 9","Ġdict s","Ġrange s","== \"","Service Name","Ġfin al","Ġfin ish","und le","In it","In valid","In correct","LI GENCE","EN TIAL","Key As","Ġplugin s","Ġany how","module s","Ġ` ``","Ġenv Pream","Ġadd r","CH OIC","Ġerror geom","ary ing","Ġmsg Length","Ġtext file","Ġbyte file","Ġarg len","Ġarg parse","De code","TR AS","Ġ8 3","Ġ8 4","Ġ8 5","Ġ8 7","Ġ8 8","Ġ8 9","Ġ9 1","Ġ9 2","Ġ9 3","Ġ9 5","Ġ9 6","Ġ9 7","Ġ9 9","Ġsp acing","Ġspec ial","Ġfeature type","Ġread lines","Ġdoc s","Ġchar file","AL Base","Ġ16 340","Ġoutput filename","To File","min or","min istr","Ġurl parse","set ServiceParent","Ġ201 1","Ġ201 5","Ġdistribut e","Ġ12 1","Ġ12 4","ĠAr rum","ĠSet s","Ġsc ope","Ġ7 1","Ġ7 3","Ġ7 4","Ġ7 5","Ġ7 6","Ġ7 8","Ġ7 9","Ġenc rypted","Ġenc oded","ded On","Ġup load","Ġup grade","12 7","AS ONAB","bin dir","bin dings","con v","con nect","con struct","con sole","con figs","Ġchange set","ph inx","ph anumer","Ġle gend","read header","ĠRe gra","ĠRe ader","ĠRe qui","ĠRe fs","Ġcomp at","Ġpost fix","Ġpost gres","HO ME","ast er","user match","Ġsub plot","ĠCON TRIBUT","ĠCON NEC","ĠCON SEQU","Ġcomment s","Ġinter pre","Ġinter val","Ġinter active","Ġinter net","Ġdec ipher","Ġdec dat","Ġcurrent ly","group ing","group name","Ġdat alen","ĠOpen ERP","ĠOpen Embedded","Ġspecific ation","Config uration","base Name","base Error","ĠKey s","Ġcre ator","Ġcre ating","ĠfileName Toc","RE T","ex c","ex amples","ex perimental","Ġlo gin","Ġimplement ations","ĠDEC SET","ĠDEC RESET","ĠDEC SLR","flavor s","Ġdis k","Ġdis play","Ġdis cla","Ġdis connect","ĠXml List","cre dentials","ili ng","Ġcheck ed","ĠAn d","ails Form","pos n","pos itive","DER R","key s","ci a","ĠSt art","ĠSt op","ĠSt ates","comp at","comp lete","Se ssion","ĠDe code","ĠDe corator","sy m","sy s","sy sconfdir","def s","Ġsu ppose","gener ate","gener ator","ĠCommon Xml","Com ment","to gether","Ġinstance s","Ġloc a","Ġloc aliz","ĠIN VALID","ĠIN DIRECT","File Handler","IP rocess","class ify","loc ation","Ġend s","Ġ'/ '","Ġ\". /{","Ġ11 0","Ġ11 1","Ġ11 3","Ġ11 4","Ġ11 5","Ġ11 6","Ġ11 7","Ġ11 8","Ġ11 9","Ġ19 98","Ġ19 43","User Advice","not ification","time out","ys ical","Ġcode s","temp est","Si gnConfigItem","man y","item ap","Ġinput s","Ġbuf size","ĠSAX Exception","change me","change Per","Ġrespect s","Ġprepare Parser","Ex pected","Ex ec","`` .","lis hLetter","ĠCon sider","Ġorder s","Ġprocess Name","Ġhere by","CT S","St ack","gu i","ĠUn icode","ĠUn ique","ĠUn ix","ĠUn clo","Ġper mit","Ġregister Org","Ġregister Named","Ġregister UserAdvice","Ġsh are","Ġsh adows","Ġrd r","Ġstep s","content s","ĠCommonDefines Xml","Pro file","Pro vince","write info","write Network","Ġprot o","Ġreason s","ĠAs ync","ĠPro ject","ĠError Handler","ĠError Dict","Ġserver list","ĠQgsA pplication","DE FAULT","DE LEY","ST DIR","TH IS","ĠLO SS","ĠDO CU","Ġcomposition Call","pose s","Ġdirectory Network","\") ,","ores Sc","Ġfull Network","ical Pos","Ġlat ter","ĠEU CJP","Ġraw reply","ĠWe ibo","ĠQgsAuth Met","EX CLU","EX TRAS","Ġshape s","Ġ15 7","ĠCO c","artic les","201 3","GR AM","TO OL","TO UCH","sett ing","Ġpl ural","Ġ24 7","pport edException","ĠLOG FILE","Ġ... }.","ret rieve","ret ryable","Ġafter Sc","Ġafter StepAdvice","ĠFuzzy Int","Ġbefore StepAdvice","ĠMan ager","ĠMan ipulate","Ġproce sses","IService Maker","ĠHelpText Item","Ġfind all","Ġdoes n","Ġtermin ate","Ġpublis h","(' \\","Content Handler","cal lable","Ġnon linear","Ġevent let","Ġhqx er","Ġhqx ifp","Ġresolve s","Ġlink Title","Ġcommand s","Ġcontin uation","REQ UIRE","Ġreceiv ing","Ġfroz en","/> ,","By tesIO","CE PTION","Len Feature","PA SSWORD","UG H","do es","Ġwhe ther","Ġref lect","Ġrem ote","Ġeval u","Ġeval uate","hook edsettings","ĠFlavor List","ĠFlavor NotFound","Ġexp l","ĠassertRaises Rege","Sele ct","index es","ating FileHandler","Ġ20 20","Ġ23 3","Ġ200 1","Ġ200 6","Ġ200 9","ssi an","Ġback up","Ġback end","Ġback ground","Ġmin or","rol lius","ĠAl ways","Ġtok ens","ĠRun Options","Ġstop all","Ġsimp ly","dig est","Ġestim ates","Password Checked","Ġen gine","segment ed","Ġtyp ing","Ġcol on","Ġ18 7","Ġent er","Ġent ry","Ġent ities","ĠSub mit","ĠSub classes","ĠPRO FANITIES","ĠPRO FIT","ĠPRO VIN","Ġnames pace","Ġorg Cert","ĠComment Model","ĠComment Det","Ġlocale conv","enario Advice","ĠIntegrityError s","Class Property","LD FLAGS","Model Factory","MENT ATION","WOR KDIR","for ward","package s","Ġsepar ation","Ġcsv file","Ġign ores","Ġign ored","Ġdest intations","Ġdown grade","Ġance stor","ĠInit ializ","LIB S","Ġsubscription s","ĠPolicy Factory","Username Checked","Con nection","Lo gin","Lo oks","\\. \\-","writ er","Ġqu ery","Ġrle code","Ġrle decode","Ġroutine Regexp","System CommandEditor","System Loader","NodeAdminTuple Advice","?? '","AUTH OR","Res ponse","SRC DATE","Up date","ool s","Ġut ilities","Ġut cnow","Ġtrunc ated","Ġcert ain","header s","Ġ21 4","Ġsk ipping","Ġsave fig","ĠCacheL ockedError","ĠForm Error","ĠIService Maker","Ġhand les","ĠData point","ĠData baseError","Ġweb app","Ġoriginal Line","Ġcorrect ly","ĠEUCKR DistributionAnalysis","ĠEUCTW DistributionAnalysis","AM D","Imp l","SO ME","block s","cl c","Ġet c","input filename","itive Ratio","ans wer","Ġretry ing","ĠSource Factory","Ġfix ed","Ġthread ing","ĠDjango Item","ĠDjango Unicode","abc d","abc defghi","Ġhex digest","dence Mat","archive s","ĠStomp Config","ĠSAXNot Su","Ġprivate KeyAs","ootstrapHelper Advice","98 2851","Attribute Value","APP WEB","CLI Advice","FA KE","Ge orge","Pre mature","PRO VID","PRO FANITIES","ope nerp","page s","invo ices","Ġpk g","Ġauto escape","Ġfla sk","Ġ'. /","Ġ'.. '","Ġ'.. .'","Ġmk dtemp","ĠCF c","ĠCOM MA","ĠApplication Runner","ĠApplication Session","ĠSy llableSeparator","Ġvi ews","ĠRE ASONAB","ĠDIS CLA","getNetwork Group","Ġzmq context","ĠArg ument","Ġcopi ed","======== ==\"","PACKA GE","Ġskip Test","Ġskip Exception","+) /$\"","+) /\"","90 92","Basic Tests","COM PATI","Filter ing","Open SSL","Open ERP","can not","down load","duplic ates","state ment","Ġph ysical","Ġcast s","Ġrestrict ions","Ġdete ction","Ġdepen dedOn","Ġdevelo pment","Ġsomet hing","ĠbootstrapHelper SignConfigItem","riv ate","ĠAd d","ĠAd ministr","ĠAg greg","ĠGe ometry","ĠGe oD","ĠST DERR","Ġtop ic","ĠFla sk","ĠRem inder","assert Raises","ĠOTHER WISE","ĠMark up","ĠtestWidget Username","Ġarch ive","Ġarch itect","ĠBE GIN","Ġsyllable s","Ġexclu ded","Ġexclu sive","6666 6666","plot lib","ĠRetrieve s","label s","ĠAttributes Impl","ĠProtocol Object","Cre ated","Cipher Init","Cipher Update","DES CRIP","Hqx coderengine","Hqx decoderengine","IM UM","Loc ale","Rle coderengine","Rle decoderengine","Ret ryableError","_, }","builtin s","cy ril","fra c","fra gment","run ner","run ning","tho ugh","tho usands","vince s","xff ff","âĢ Ŀ","Ġpid file","Ġplace holder","help ers","Ġbuiltin s","roll Region","ĠContent Type","ĠContent Handler","ĠTime dRot","ĠApp lications","xtick s","xtick labels","ĠGD ALE","ĠGD ALBase","ĠSc aling","ĠSer ver","ĠSer ialize","ĠgetQName s","ĠgetQName ByName","ĠPpi Object","ĠLoc ator","Ġstat icmethod","Ġstat istics","ĠOr dered","Ġproject Name","ĠEn viron","ĠsetConfig Id","open ssl","Ġpos ition","Ġpos itive","keep ing","keep Eng","period s","ĠBe am","ĠBe cause","Ġpretxn changegroup","Ġpretxn commit","prece des","prece denceMat","ĠURL Field","ĠHttp Request","ĠHttp Response","Ġmater ial","Ġmater ials","ĠDefault Person","Ġinstanti ated","CommandEditor Plugin","ĠOGRGe ometry","ĠOGRGe omType","ĠCOMMENT S","getNetworkFor Config","getNetworkFor Directory","ĠsetStore PasswordChecked","ĠsetStore UsernameChecked","ĠCommunic ator","ĠCommunic ations","ĠRotationPolicy Factory","DON T","MESS AGE","PL v","Sm ith","Writ ing","YN C","bi derman","co oldown","calibr ation","ign Key","mart in","pat tern","snow fall","top level","vend or","å° į","Ġtho se","Ġpasse d","memb er","Ġwho le","Ġreal m","Ġrepe ated","Ġdeter mined","Ġsax utils","Ġsanit ize","Ġele mwise","Ġgo ing","ĠCA CertificateFactory","ĠCustom Formatter","ĠTIME OUT","ĠSingle Layer","ĠgetB ootstrapHelperAdvice","ĠgetName ByQName","ĠgetService Named","ĠgetValue ByQName","ĠPh D","ĠFile SystemLoader","Ġver bo","ĠRedistribution s","chron ized","ĠDE FAULT","Ġmak es","ĠMIN IMUM","ĠMEN DELEY","ĠVER SION","ĠEC Province","INST ALL","Ġlogar ithm","Ġnet loc","pretxn changegroup","mitter BasicTests","Device Info","Ġsche me","Ġscra ping","condition al","Ġlead ing","ĠRecursive Middleware","Ġpercent age","ĠregisterComposition Advice","addLink ToFile","DEB UG","ĠSystem CommandEditorPlugin","Ġsigned ConfigItem","TagValue Advice","daily program","month ly","Ġassoci ated","Ġdescrib ing","${ }-","'^ ([","Authority Factory","BJ AM","BU ILD","Be ginner","Can not","CXX FLAGS","DRI VER","DTD Handler","EV P","FLI CTS","FAL SE","GNO ME","Greek Model","Harri son","Ign oresSc","LAR GE","LIS T","Man ager","MUT EX","Memory Pool","NFSS YNC","Oct oPrint","SU FFIX","Sub mitterBasicTests","TRU E","Ur l","au ssian","authentic ate","bli ography","bit coin","cat alog","crypt ography","emp lo","fol der","finit e","hge xt","iss ing","ione d","lot s","lchemy ModelFactory","moot h","mTyp icalPos","num a","nisc ale","sw f","sable BytesIO","zgu ide","æī Ģåľ","Ġur lopen","dest ination","dere r","desi gners","endele y","Ġtak en","Ġptra j","Ġassi gnments","Ġaffi ne","Ġsever al","Ġcas o","Ġfunct ools","Ġ'?? ??'","Ġ\"======== ==========\"","Ġreache d","Ġremin d","Ġndim s","Ġnntool kit","uratom i","Ġdesi reable","Ġoth ers","Ġeas y","Ġinverse power","Ġindiv idual","Ġbro ken","Ġmbe an","Ġmulti line","editor collection","ĠClo ud","ĠNOM INUM","ĠNEG LIGENCE","ĠNetsc ape","ĠAls o","ĠAuto scale","ĠATTRIBUT ES","Ġisnot anumber","ĠSTD IN","ĠSPEC IAL","ĠSched ulerRuntime","ĠSJIS DistributionAnalysis","ĠSQLA lchemyModelFactory","isList OfProtobufMessages","isDict OfProtobufMessages","Ġgetsource file","ĠPerm ission","ĠParticle Filtering","ĠFir st","ĠFore ignKey","ĠFSS pec","ĠFUL L","ĠLine ar","ĠLms Sync","ĠIssue SubmitterBasicTests","ĠRes ort","ĠRack space","ĠRep ort","ĠROOT CA","Ġconclu sion","Ġcondit ioned","ĠDAT A","ĠDescri ption","ĠOver ride","Ġ%}{ {","ĠMapp ing","Ġprobab ly","Ġprovid ing","ĠENO UGH","ĠERR OR","ĠEcu ador","Ġalgor ithm","ĠsetLe vel","ĠuserSet TagValueAdvice","Ġ}}{ %","Ġundefi ned","Ġzipo utput","ĠWILD CARD","ĠBran ch","assim o","typical ly","ESSEN TIAL","Ġcreatelinemark er","Ġtimedel ta","Ġhowe ver","charset Name","ĠInfoExt ractor","ĠHex Bin","ĠHOLDER S","ĠenvPream ble","CHOIC ES","Decode Error","construct or","Ġsubplot s","ĠCONTRIBUT ORS","ĠCONNEC TION","ĠCONSEQU ENTIAL","Ġdecdat acur","ĠfileNameToc heck","ĠDECSLR M","Ġdiscla imer","Ġsuppose d","changePer cent","ĠUnique AttributeValue","ĠUnclo sableBytesIO","ĠregisterOrg Advice","ĠregisterNamed NodeAdminTupleAdvice","Ġshadows ocks","writeNetwork Json","ĠDOCU MENTATION","ĠcompositionCall CLIAdvice","ĠEUCJP DistributionAnalysis","ĠQgsAuthMet hodConfig","EXCLU DE","EXTRAS PEC","ĠafterSc enarioAdvice","ĠFuzzyInt eger","REQUIRE D","ĠassertRaisesRege x","ĠPROFIT S","ĠPROVIN CE","ĠCommentDet ailsForm","ĠInitializ es","ĠDjangoUnicode DecodeError","ĠSAXNotSu pportedException","ĠprivateKeyAs Pem","PROVID ES","ĠREASONAB LY","COMPATI BLE","ĠdependedOn ServiceName","ĠbootstrapHelperSignConfigItem Advice","ĠAggreg ate","Ġarchitect ure","DESCRIP TION","ĠTimedRot atingFileHandler","ĠGDALE xception","ĠOrdered Dict","ĠEnviron ment","keepEng lishLetter","precedenceMat rix","ĠSingleLayer Rule","ĠECProvince Select","dailyprogram mer","IgnoresSc rollRegion","mTypicalPos itiveRatio","æīĢåľ ¨çĽ®éĮĦ"]}}